#version: 0.2
с т
е н
р о
к о
р а
н о
е р
н а
о д
т о
н и
д е
в о
г о</w>
с о
п о
р е
в а
л ь
р и
с е
с я
н ы
т ы
л и
к а
н а</w>
л о
а т
с ко
л е
ч е
к и
ен и
я т
г од
л а
ты ся
в и
тыся ч
т е
в е
м о
т а
н е
с я</w>
з а
б о
ц и
г о
д о
м а
м е
д ц
т и
п ро
ст а
р у
де в
с ки
м и
д а
с и
н о</w>
в ы
п ер
ст о
д и
со т</w>
д в
о б
к а</w>
ь сот</w>
ст в
год а</w>
л и</w>
се м
б ы
ч а
тысяч а</w>
п а
ш е
дев ят
и с
де ся
л а</w>
в ер
м и</w>
ат ь</w>
но й</w>
и н
то го</w>
к и</w>
но ст
т ся</w>
п ри
1 9
е т</w>
девят ьсот</w>
п ре
ны х</w>
т а</w>
ени я</w>
ны й</w>
ч и
н е</w>
а р
дц ать</w>
ско й</w>
и з
л я
о т
а н
к у
л я</w>
ра з
од и
г и
но го</w>
дв е</w>
ско го</w>
ски й</w>
м ен
п е
тысяч и</w>
2 0
ь деся
ьдеся т</w>
л у
п о</w>
п ят
с ь</w>
и з</w>
л о</w>
год у</w>
о с
ени е</w>
г а
г ра
л ен
во сем
о р
ст и
ны е</w>
дц а
с а
п у
ф и
ш и
п и
р ы
у р
т о</w>
д а</w>
т ри
ж и
е в
р я</w>
л е</w>
т ь</w>
б и
е тся</w>
н у
л ь</w>
ва ни
с у
с ка
ше ст
на я</w>
р а</w>
м у
н ы</w>
дца того</w>
щ и
ко н
д ва
ж е</w>
то м</w>
б е
к о</w>
х о
р и</w>
щ е
ци и</w>
п ра
пер е
ст и</w>
ра с
л ся</w>
о т</w>
в а</w>
з о
бы л</w>
в ля
б а
т ер
ж е
д у
з а</w>
ро ва
пер во
то ро
е м</w>
дев я
е го</w>
ны м</w>
р е</w>
п од
20 1
о н</w>
ски х</w>
ств ен
м у</w>
з и
се л
че ты
х и
л ю
го ро
те ль
два дцать</w>
о н
х оди
г у
а в
ц е
ра н
но в
по с
б ря</w>
и сто
а ль
к е</w>
ска я</w>
ен т
со ста
д о</w>
м а</w>
ст а</w>
на дцатого</w>
п ис
т ре
но е</w>
ен о</w>
но м</w>
ст ро
во с
з ы
с си
ко в</w>
с во
я н
в ре
о к
ра бо
д е</w>
з на
е й</w>
т у
т и</w>
ер е
20 0
т ы</w>
ж ен
н я
ра й
д ля</w>
х а
ж а
т ро
ств о</w>
ст ра
ю т</w>
ко то
ни ка</w>
е м
т ь
ств а</w>
ност ь</w>
д ен
к ра
д ер
ст у
пре д
в од
я бря</w>
то в</w>
р я
по л
во з
девя ност
м ер
т е</w>
в о</w>
ко м
б ли
ч то</w>
ст ь</w>
ф е
ь мо
г ла
ле к
м ат
ско м</w>
а к
г е
т ур
об ла
ти в
ност и</w>
со ро
на ча
ка к</w>
ни и</w>
ма н
с а</w>
вер ено</w>
ат е
девяност о</w>
на сел
ни к</w>
н я</w>
ж д
а д
кото ры
ь ю</w>
г а</w>
м я</w>
ни я</w>
с ло
во й</w>
о на
ве т
б у
т ри</w>
бо ль
н и</w>
ш а
к у</w>
о на</w>
ст о</w>
ло ве
ни е</w>
пят ь</w>
ли сь</w>
ц а</w>
ну ю</w>
та к
ен а
ски е</w>
че лове
и ю
об раз
ф ор
ре д
ла сь</w>
на дцать</w>
ю щи
ст е
восем ьдесят</w>
дв а</w>
в торо
ма р
с лу
по ло
по ль
ри и</w>
три дцать</w>
во й
ст во
оди н</w>
х од
те ле
исто ч
т вер
восем ьсот</w>
в я
д ы</w>
соро к</w>
с ер
ч ен
м ы
да р
1 8
л ы
к ры
я вля
с пе
ци я</w>
с ле
по лу
бы ла</w>
ро сси
с е</w>
у ча
П ро
так же</w>
сто я
рова но</w>
с по
па р
П о
ю тся</w>
сем ьдесят</w>
бы ли</w>
ру п
ко в
ро в</w>
до л
се д
ко м</w>
четы ре</w>
Н а
го д</w>
источ ника</w>
в се
шест ьдесят</w>
хи ви
ни ма
вани е</w>
перво источника</w>
ко й</w>
хиви ровано</w>
д ру
но в</w>
се ль
т ра
бы ло</w>
вани я</w>
вре мя</w>
б ер
ви ч</w>
насел ения</w>
б ра
обла сти</w>
ка р
в л
пос ле</w>
ско е</w>
з у
ва л</w>
ени и</w>
пят ьдесят</w>
ц ент
К а
з да
вы й</w>
к ре
п ло
ны ми</w>
ло сь</w>
ро в
к ла
дв ена
ми ни
восем ь</w>
ч ис
ло ги
в е</w>
С о
п ри</w>
ро д
дц ат
дв у
вы е</w>
ени й</w>
з е
м е</w>
шест ь</w>
с т</w>
образ о
ве д
да н
ка н
че твер
е ди
че ский</w>
ц ы</w>
ат и
ме ст
мо ж
19 9
щ а
А р
ль ко</w>
бо р
ян ва
и х</w>
ко ман
бо ле
соста вля
сем ь</w>
ст ре
и ме
у ч
дцат и</w>
дер ев
ру с
и ли</w>
ходи т</w>
К о
ро м</w>
п я
тре ть
г ен
ра ль
э н
ва р
ьмо го</w>
с ан
ф а
челове к</w>
то р
я х</w>
и г
е е</w>
про из
ка за
вы х</w>
ст ви
л ы</w>
в ши
к е
б ы</w>
ав гу
м ы</w>
пу бли
то р</w>
э к
с ред
ста н
янва ря</w>
ц ен
горо д
по д</w>
ше сто
перво го</w>
с ку
с ы
ски м</w>
ри то
е в</w>
г и</w>
девят ь</w>
щ е</w>
г да</w>
ни й</w>
чи л</w>
м пи
р ен
к ло
ч ер
с вя
ин ы</w>
на з
к лю
п ла
то й</w>
ти че
о м</w>
ци аль
ле т</w>
э то</w>
по ли
го су
С С
ри я</w>
явля ется</w>
рабо та
о в</w>
н к
она ль
тер рито
и мен
е з
зы ва
про верено</w>
не й</w>
Про верено</w>
госу дар
т у</w>
вре мен
ко торо
Р ос
гра фи
ле н</w>
е с
ты х</w>
ма я</w>
ш ко
0 0</w>
у ни
авгу ста</w>
й ской</w>
в ла
боле е</w>
ис поль
ан г
и м
р ы</w>
х у
ла н
боль ш
е к
б ур
со б
четы р
ок т
де ка
м но
на ходи
вер си
с ент
г руп
19 4
ро н
с к</w>
а пре
ро ди
од ин
ва н</w>
г е</w>
до в</w>
ва я</w>
В о
б а</w>
ок ру
19 8
ме т
де л
ми и</w>
ер и
ни ков</w>
а х</w>
не е</w>
об ще
пос ле
л ли
Рос си
четы ре
ор га
ф ев
ени ю</w>
М а
ств е</w>
фи ль
п л
ате ль
фев ра
ь е</w>
ста в
с ла
ста л</w>
но ль</w>
ств у
по сел
ци он
пра ви
т ат
ени ем</w>
тыся ч</w>
рай о
п а</w>
ки ло
ве сти</w>
ц ер
деся ти</w>
об ъ
Р а
из ве
де й
о бо
та н
З а
ли ч
двена дцатого</w>
о ста
ску ю</w>
ты й</w>
мини стра
А .</w>
во го</w>
ф у
се лен
ц е</w>
я зы
со вет
то ч
п ен
мар та</w>
ку ль
ко р
дву х</w>
са мо
ско в
ос нов
му ни
ни х</w>
201 2</w>
апре ля</w>
ва н
ло в</w>
пра вл
г ер
со ве
Б о
соста в</w>
ф о
т ру
ч то
дека бря</w>
сент ября</w>
в у
с о</w>
в ы</w>
дру ги
во ен
е ль
за па
де н</w>
во сто
б ри
окт ября</w>
ли н
ме тро
февра ля</w>
ко ро
в ра
ию ня</w>
ию ля</w>
в се</w>
С .</w>
по р
пис а
з ем
до м</w>
С а
со стоя
до ро
п ы
В .</w>
щ ен
ре с
ствен ной</w>
со зда
ку н
19 6
теле й</w>
горо да</w>
ь я</w>
рас поло
ю ще
ва ть</w>
я ми</w>
д ра
че ских</w>
ци ю</w>
ав то
Н а</w>
ть ся</w>
со в</w>
ер а</w>
на дца
че ской</w>
ци ональ
пе ра
второ го</w>
вы м</w>
лы х</w>
х ра
19 7
л од
пере пис
че мпи
ка ми</w>
вой ны</w>
пу нк
ле й</w>
я м</w>
к ро
д ви
ар хивировано</w>
Ар хивировано</w>
д у</w>
го р
ре ки</w>
т ен
ч ере
ци кло
с ы</w>
пер и
спо р
пе ди
се кун
орга ни
на ко</w>
ше л</w>
п ы</w>
ки й</w>
чис лен
се вер
че ского</w>
на селен
М и
ме р</w>
М о
д ж
ж ение</w>
о кон
сти ту
щ ад
с к
г у</w>
та к</w>
изве ст
ци па
от но
составля ет</w>
которы е</w>
на род
a t
г де</w>
но ября</w>
рай она</w>
ко л
ни ки</w>
р о</w>
об ра
н ен
про ти
не м</w>
ж ения</w>
Т а
ос но
те ль</w>
цикло педи
девя того</w>
и гра
ле т
не ско
гла в
министра тив
не го</w>
С е
сле до
н у</w>
по з
д вести</w>
во р
ва ет</w>
он и</w>
вос ь
ста нов
ве ли
ф ран
год ах</w>
муни ципа
э то
и м</w>
в оди
после д
а л
ка х</w>
в ен
ж из
пред ста
б ере
ло м</w>
ло в
верси те
сан д
от кры
у з
о те
к т</w>
л у</w>
к лу
д ре
пло щад
у ли
которы й</w>
201 3</w>
ст ы
к ни
ни м</w>
19 3
т я
а ли
то лько</w>
ст ат
не й
П е
метро в</w>
ми на
вы со
за нима
ль но</w>
ч а</w>
ки х</w>
о ко
лек санд
ст ру
ьмо м</w>
деся того</w>
П ос
но му</w>
з я
ти я</w>
мер и
треть его</w>
ви н
э того</w>
ва ли</w>
пя того</w>
ят и
шесто го</w>
вос ьмого</w>
находи тся</w>
19 5
ча ст
ли те
но ви
ш ен
Н и
три надцатого</w>
ч и</w>
те х
це в</w>
четвер того</w>
ху до
А н
ре д</w>
с со
го во
о ру
райо не</w>
уни версите
б ро
же н</w>
с ки</w>
с чи
к ри
ко го</w>
вы сту
росси й
о фи
на у
ко но
са й
то е</w>
ати сти
19 2
те к
за н
i n</w>
сем ьсот</w>
19 1
ар хи
раз ви
по мо
с ка</w>
ц а
о й</w>
В е
исполь зо
сед ьмого</w>
мест е</w>
су ще
це лых</w>
ш а</w>
стро и
м ят
з ат
201 0</w>
ль ных</w>
с мо
му зы
П о</w>
к рас
Н о
у кра
жд у</w>
ч у
гра м
с бор
тур ы</w>
о стро
у чи
ст атисти
г ре
анг л</w>
м о</w>
з ер
у да
гу бер
ле з
ген е
д и</w>
че ская</w>
ку р
ч ной</w>
насел ение</w>
сер и
1 7
то ра</w>
х а</w>
горо д</w>
П а
Р е
ми ра</w>
со бо
д ро
ве ка</w>
э том</w>
1 0</w>
ствен ный</w>
ш е</w>
зу ль
мо р
ше й</w>
исто ри
вы пу
ч но</w>
пер вый</w>
террито рии</w>
четыр надцатого</w>
ство м</w>
ж да
перепис и</w>
ност ью</w>
публи ки</w>
эн циклопеди
М :</w>
я ви
С Р</w>
че ские</w>
ат а
П ер
ин ститу
из да
ни ко
око ло</w>
у ю</w>
и та
год ы</w>
ч ение</w>
то в
ш та
ре ги
пят надцатого</w>
слу ж
ст в</w>
ли и</w>
ча сть</w>
ме сто</w>
дерев ня</w>
б е</w>
ад министратив
вер х
по бе
т рен
со ю
ко ми
ша я</w>
ди и</w>
ци й</w>
на зна
ка де
на циональ
Б а
се ло</w>
пят ьсот</w>
рабо т
l at
ме жду</w>
еди н
ре зуль
ра к
се зо
ши х</w>
к ва
ка з
о графи
дол ж
второ й</w>
ра в
ми ро
му ж
ча сти</w>
три ста</w>
Пос ле</w>
ят ель
Б е
lat in</w>
_ latin</w>
гра ни
жи л</w>
М е
I I</w>
росси и</w>
тель но</w>
мо н
ь е
рова н
неско лько</w>
ин тер
Росси и</w>
соста ве</w>
од нако</w>
но во
те ат
е му</w>
ком па
ни ком</w>
мож но</w>
ви зи
г ро
г .</w>
201 4</w>
которы х</w>
че н</w>
пят и
ра ции</w>
чере з</w>
про ек
чемпи она
по зи
ч ения</w>
ре й
хо в
полу чил</w>
пра во
деся тых</w>
к ру
е ще</w>
на дцати</w>
проти в</w>
ме ж
ра я</w>
ст ер
ющи й</w>
в ходит</w>
пре де
ми лли
ь ся</w>
ле й
ру с</w>
ла га
2 0</w>
уча сти
мо в</w>
и ль
вар ь</w>
тер бур
я б
ни ю</w>
ур на
Ф е
ва ется</w>
а мери
с ен
ак тив
н ь</w>
ос у
роди лся</w>
у би
г ру
ско му</w>
201 1</w>
секун д</w>
сту пи
мож ет</w>
ко гда</w>
ч ин
б ла
че м</w>
К у
челове ка</w>
х от
сто ро
па мят
к руп
пер вые</w>
один надцатого</w>
полу чи
В а
ль ной</w>
тре х</w>
площад ь</w>
1 5</w>
ход я
про дол
СС СР</w>
работа л</w>
в стре
ра б
на д
шест ьсот</w>
ка че
ки е</w>
уча ст
ст ран
на зыва
Г о
ста р
па ра
мо й</w>
те ли</w>
горо де</w>
ши й</w>
ф а</w>
ге ро
ла в
хо зя
стру к
фе де
ле м</w>
про ис
сло варь</w>
про фе
ки м</w>
город ских</w>
в з
цент р</w>
ф ер
э лек
дей стви
сто в</w>
ис следо
И .</w>
хо ро
ени н
па с
мо сков
ем ы
го в</w>
лу ч
по стро
четыре ста</w>
г ан
в ну
1 2</w>
се й
ж урна
Н е
пи та
ма н</w>
пар ти
жд ения</w>
у правл
исто рии</w>
Г е
при н
за щи
2 5</w>
од ер
по се
не н</w>
в и</w>
Р у
ку с
ля р
пят и</w>
сте пен
р ь</w>
М .</w>
пра в
та м</w>
ев а</w>
мо на
счи та
же лез
у же</w>
э ти
ди а
a r
от де
фи на
ль ный</w>
ми ну
ше го</w>
Л и
коно ми
на уч
фор ма
од е
во ло
ща я</w>
те р</w>
в ли
ду народ
К и
органи за
с мер
во д</w>
д ли
е сть</w>
ш ения</w>
201 5</w>
в то
об е
б ан
зат ем</w>
лите ра
си ст
торо м</w>
исполь зу
мен т</w>
ч лен
в клю
деся ть</w>
террито ри
ва ла</w>
что бы</w>
гра ж
д во
т ран
з и</w>
сле ду
С и
фу т
населен ных</w>
0 00</w>
но ва</w>
ве л</w>
ня я</w>
с ко</w>
два дцати</w>
П ри
де т</w>
В и
т ных</w>
ис кус
вер ну
Н .</w>
се ми
М ос
помо щ
д ы
об ы
х ва
к м
й ский</w>
резуль тат
то н
со в
ь я
по сто
со времен
офи циаль
при ня
ят ь</w>
э кономи
а каде
И н
на д</w>
те о
ски ми</w>
Л е
ра ст
а на
хозя й
б ю
вось ми
де ла
р у</w>
Д е
ли я</w>
ц ве
чи на
во м</w>
й ского</w>
ве з
ев ро
ис пол
В ы
мно ги
перво м</w>
жен а</w>
ва на</w>
по ч
мат и
ству ет</w>
под а
рай он</w>
Т о
ль ного</w>
име ет</w>
сове та</w>
не ме
мо ск
со гла
ющи х</w>
3 0</w>
амери кан
19 0
ло к</w>
теле м</w>
б ар
1 1</w>
запа д
та ми</w>
си м
та х</w>
это т</w>
са мы
гра д
ро д</w>
жиз ни</w>
ше сти
о з
г ар
э той</w>
ком му
худо ж
ль ные</w>
все го</w>
a n
ка я</w>
ко ло
ющи е</w>
лен а</w>
ш ение</w>
мет ра</w>
ар мии</w>
с и</w>
мо лод
Мос к
к тор</w>
иг ро
наз вание</w>
сель ского</w>
м ени
ле в
ст ри
росси йской</w>
к м</w>
сво ей</w>
сред и</w>
ви де
про грам
200 9</w>
строи тель
i n
с .</w>
о логи
к ли
ци ей</w>
ен а</w>
гене ра
ка на
по н
ю ж
ва лся</w>
со м</w>
в месте</w>
Р ес
о пера
ате ль</w>
1 6</w>
ба с
вани ем</w>
ли че
чен ь</w>
за ви
1 6
пре зи
ст р</w>
все х</w>
ши е</w>
ре ж
те ля</w>
Р о
пе с
ствен но</w>
ш ла</w>
не т</w>
второ м</w>
от ли
ь ю
ти н
на стоя
О д
у спе
С у
участи е</w>
од ного</w>
груп пы</w>
од но
ди визи
I S
в не
произ вод
ква дра
х е
слу ча
из и
че й</w>
ль ным</w>
фран ц
сел ение</w>
те м</w>
мы ш
пунк тов</w>
мат ери
к си
девя том</w>
с но</w>
ч е</w>
хра ни
ч ь</w>
аль бо
по лага
да ль
с ере
1 5
с пи
жен щи
а н</w>
числен ность</w>
зна чи
з е</w>
во л
ми р</w>
од на</w>
да ет</w>
от вет
надца том</w>
ден а</w>
ство вал</w>
ви д
си н
ра ми</w>
e r
ц у</w>
ни ца</w>
у ров
го ло
нача ла</w>
б у</w>
д ат
у ез
ча ет</w>
б ле
про стран
ствен ного</w>
ста нови
ц о
вани й</w>
Д о
неме ц
раз лич
высту па
к с</w>
ь и</w>
ста ла</w>
ста н</w>
щ ение</w>
Т .</w>
м я
с ве
од ной</w>
четыре х</w>
у н
ру ко
ар ти
б я</w>
О н</w>
жи во
д же
ли ш
бы ть</w>
би ра
ком п
1 4</w>
по мина
сво ю</w>
вши й</w>
ка м</w>
У кра
на ру
нача ле</w>
2 8</w>
ч ный</w>
ва ри
элек тро
B N</w>
меж дународ
посто ян
су т
мно го
IS BN</w>
под дер
хо д</w>
ти рова
т ного</w>
ха рак
к ня
бе з</w>
ь ер
м ного</w>
ш ли</w>
1 7</w>
е вич</w>
зави си
1 8</w>
губер нии</w>
с с</w>
о д</w>
т ный</w>
а ви
ра ди
зи и</w>
каче стве</w>
Т е
ми я</w>
цер ков
с -</w>
18 9
о чень</w>
времен и</w>
окон чил</w>
ни че
ши м</w>
лен ность</w>
за ме
други х</w>
1 3</w>
де сь</w>
На селение</w>
со вер
с у</w>
у станов
200 8</w>
де ятель
франц уз
сто и
а лександ
сист ем
се бя</w>
год ов</w>
е н</w>
тур а</w>
вос ьмом</w>
ще е</w>
па д
х сот</w>
п е</w>
шесто м</w>
пя том</w>
ди на
о преде
эк з</w>
мо би
ста х</w>
чи н</w>
ди я</w>
Е в
у чен
А лександ
дан ным</w>
п ря
и л</w>
ко ва</w>
С та
сед ьмом</w>
лен ы</w>
посел ения</w>
ят ся</w>
ва ют</w>
кон це</w>
ра з</w>
у к
но си
И з
сай т</w>
г ри
пере да
ц ар
на х</w>
яб ре</w>
до ста
де й</w>
з ы</w>
на и
вед ения</w>
которо й</w>
эк с
то к</w>
при зна
тру д
мо м</w>
сво его</w>
воз мож
Ве ли
кото рая</w>
из д</w>
Д ж
ти й</w>
Г а
ф ло
двена дцать</w>
про цен
четвер том</w>
ци али
ги и</w>
прави тель
од о
ре да
во лю
рабо ты</w>
й ся</w>
д атель
треть ем</w>
филь м</w>
б о</w>
зо ло
х и</w>
ко личе
х ар
200 7</w>
ты е</w>
ка зыва
щ ения</w>
ф рон
во ро
рес публики</w>
территори аль
про це
ра х</w>
К он
К рас
ви л</w>
2 4</w>
сто м</w>
о соб
сель ских</w>
цент ра</w>
имен и</w>
о б</w>
ф ро
бо е
си ль
анг ли
О б
ре в
ни з
ти е</w>
нача ль
па н
т ю
окру га</w>
ш и</w>
исто рия</w>
отно си
ден ь</w>
энциклопеди я</w>
кла д
o r
во е</w>
предста вля
ф он
за ня
ст ы</w>
Ни ко
статисти ки</w>
про жи
Ф ран
2 1</w>
Ч ис
б од
бе ло
ма й
это му</w>
х ран
ин е</w>
че ственной</w>
й ских</w>
сем ье</w>
у че
про вин
га зе
Фе де
ро да</w>
стра ны</w>
жи телей</w>
ж ении</w>
К ар
три надцать</w>
ч ных</w>
В ер
кило метров</w>
при нима
вы пол
од ним</w>
один надцать</w>
1 9</w>
стро й
ч ат
ко раб
2 2</w>
ля ми</w>
п ат
че л</w>
до сти
Мо сков
вани и</w>
матери а
мен я
со л
собо й</w>
ф изи
ста ли</w>
про те
цер к
ки н</w>
про тив
на чина
шест и</w>
жен ы</w>
2 3</w>
за вод
спе циаль
ли мпи
э та
ств у</w>
с одер
те й</w>
сове т</w>
пра к
поз во
архи тек
предста ви
пы та
ме та
спо соб
ме ди
пери од</w>
Чис ленность</w>
цент раль
нача л</w>
фи ло
фут бо
ба й
ж а</w>
ря д</w>
ри й</w>
стан ции</w>
у до
явля ются</w>
ва ло</w>
2 6</w>
ла я</w>
торо в</w>
ме й
ро с
ка ет</w>
реж ис
т но</w>
ос во
ма х</w>
ави а
1 0
перво е</w>
ро ль</w>
М ар
стви и</w>
П ре
Д а
ми р
се ле</w>
В ла
тур ни
по пу
го м</w>
прези ден
доро ж
ва лись</w>
п си
ре а
ки но
ш у
которо го</w>
ш о
ко е</w>
по э
мо гу
раз ме
н ского</w>
институ т</w>
2 7</w>
дел ение</w>
при яти
сем и</w>
спе к
с са</w>
се ла</w>
з вез
В се
бу ду
э й
Д и
ж и</w>
П .</w>
женщи н</w>
e n
перво й</w>
Э н
ли на</w>
нау к</w>
и то
ме н</w>
то т</w>
ме тра
мона сты
та й
л ат
де т
ши ро
С Ш
обо ро
е ся</w>
з десь</w>
не в
харак тер
сту п
200 6</w>
сси и</w>
по ги
раз д
СШ А</w>
д ри
пят надцать</w>
им пера
ву ю</w>
ступи л</w>
фи ка
со н</w>
ро й</w>
на ми</w>
Г .</w>
си сте
ев од
бере гу</w>
ре ка</w>
лиш ь</w>
л ения</w>
воз гла
я вл
сла в
образо м</w>
ен ы</w>
е ха
л ери
с па
университе та</w>
со еди
се н</w>
писа л</w>
про води
по яви
х ан
до й</w>
больш ой</w>
шест надцатого</w>
кор пу
составля ло</w>
назна чен</w>
п ле
у сло
Л а
бас сей
О т
ве ду
с ша</w>
ре к
фе к
три дцати</w>
ф ак
ствен ных</w>
Х а
о ри
ы й</w>
ри сти
ле г
пи ско
ин форма
ло й</w>
б ен
дре в
кило метра</w>
смер ти</w>
север о</w>
л ение</w>
пе тербур
раз де
вы с
ч ные</w>
с ке</w>
ф ри
церк ви</w>
результат е</w>
поли тиче
государ ственной</w>
мо сти</w>
ка та
Б у
во про
но вич</w>
ль ная</w>
жд ение</w>
д ь
ча ется</w>
кар ьер
други е</w>
200 0</w>
те т</w>
два дцатого</w>
1 4
со ответ
но р
ы х</w>
девят и
об ре
те м
ми ю</w>
о каза
пере д</w>
Т и
сы н</w>
продол жа
п ти
щи й</w>
настоя щее</w>
с ни
с ь
ма ш
че ское</w>
С ан
o n
е писко
М у
л л</w>
логи и</w>
в ле
ми н
пл ат
по верх
л ко
точ ка</w>
э ти</w>
свя зи</w>
п разд
то н</w>
са м</w>
ка ж
муж чин</w>
ре волю
а ми</w>
ча сто</w>
кре ст
лек се
на б
пра вля
ю го</w>
ли й</w>
воз вра
за вер
не с
ч ного</w>
в первые</w>
тех ни
ва тель
т вор
о нов</w>
л енин
вну трен
могу т</w>
с пу
за кон
объ ек
г лу
Г ер
коман ди
го то
пред сед
ти л</w>
2 9</w>
го н
стои т</w>
5 0</w>
ч ная</w>
ско ре</w>
я р
би р
3 1</w>
занима ет</w>
ход а</w>
со бра
Бо ль
са м
го й</w>
Од нако</w>
200 2</w>
го тов
реда к
сво их</w>
С ер
Б ы
Ч е
рас простран
за ции</w>
мен та
за клю
ц кий</w>
се р</w>
щ ины</w>
зо в</w>
х ся</w>
соро ка</w>
со бы
ков оди
Э то</w>
о ни
вла ди
ка м
окон ча
и р
Со вет
особ ен
П ри</w>
от ме
ва ж
про ду
И сто
жи т</w>
ре ли
про мыш
клу б</w>
ни ж
при мер</w>
бо й</w>
за пис
на й
ре з
че го</w>
поли ти
ци а
ца ми</w>
тра ди
ри н
200 1</w>
худо же
ан ти
в ше
ходи л</w>
со об
лю би
е р</w>
ме ся
Росси йской</w>
комп лек
по па
ьмо й</w>
ходя т</w>
Вла ди
Рес публики</w>
ме да
ха й
музы ка
образо вания</w>
суще ство
200 4</w>
ро к</w>
би бли
им пери
шко лы</w>
руко вод
п ли
секун ды</w>
ви ча</w>
да же</w>
ни тель
юще го</w>
ком пози
ст ра</w>
ход е</w>
ч лен</w>
юще й</w>
комму ны</w>
сте р</w>
ч ник</w>
из мен
д жа
у за</w>
из обра
Пе тербур
щи х</w>
игра л</w>
фор ми
Ра с
надца тое</w>
ят е
куль туры</w>
которо е</w>
фа куль
т ной</w>
де ль
ста на</w>
во в</w>
че т</w>
но дорож
до ку
тиче ски</w>
200 5</w>
эти х</w>
со к</w>
ли ст</w>
ющи м</w>
авто моби
со труд
р ю
управл ения</w>
чи е</w>
над ле
коман ды</w>
сво й</w>
фу нк
Г и
пяти десяти</w>
С ред
в ского</w>
рас ска
имен о
о ло
по тер
сту пл
те чение</w>
ма с
ц ов</w>
О с
рас полага
з ей</w>
ру ководи
вось ми</w>
вод о
Р и
в ский</w>
у м</w>
генера л</w>
располо жен</w>
л ю</w>
дел ения</w>
во ль
ко не
побе ди
А д
ве ден</w>
ор ден
б ин
с ъ
феде рации</w>
чис ле</w>
I II</w>
со тых</w>
кро ме</w>
в у</w>
с ня
рус ский</w>
e r</w>
ва ться</w>
Л ю
груп па</w>
девят надцать</w>
с ю
россий ская</w>
четыр надцать</w>
б ат
1 3
сим во
у мер</w>
та р
18 8
со на
парти и</w>
кон струк
и мя</w>
би ографи
ча лся</w>
ме ха
у с</w>
кол ле
пре пода
наи более</w>
степен и</w>
осу ще
вы ми</w>
ени ях</w>
Ев ро
сво и</w>
не об
кол лек
мен та</w>
сою за</w>
при надле
лен о</w>
ще н</w>
А в
ги дро
иг ры</w>
д ней</w>
Т ак
и но
З а</w>
вши х</w>
метра х</w>
це й</w>
обла сть</w>
Л у
жд ы</w>
ла д
гово ри
литера тур
ти н</w>
та я</w>
де тей</w>
у ш
нов ь</w>
че сть</w>
фо то
ц кого</w>
тор го
нико ла
дерев ни</w>
миро вой</w>
ны не</w>
больш ин
кла сси
девят надцатого</w>
н ский</w>
больш о
по то
сери а
ма на</w>
Се вер
си л</w>
ни к
желез нодорож
О те
ю щая</w>
д вор
мен ь
райо нов</w>
бу дет</w>
вы бо
ни ем</w>
во е
обще ства</w>
сы гра
за хва
вани ям</w>
ни цы</w>
л ле
ла х</w>
ж ено</w>
по ме
ук р</w>
бе ж
на правл
сем надцатого</w>
ы е</w>
т ные</w>
О р
те та</w>
С П
п ру
деся том</w>
евро пе
из бра
поч ти</w>
ну ж
в новь</w>
сво е</w>
филь ма</w>
ва лась</w>
вли я
ре ши
ж ан
церков ь</w>
тя же
сбор ной</w>
ти па</w>
ми три
пред ло
a l
компа нии</w>
во ору
обе спе
ка пита
ду ш
ш ло</w>
Нико ла
ба л
а м
попу ляр
за да
фило со
ули ца</w>
щ а</w>
а б
Б и
се кре
тран спор
у го
но вый</w>
в ской</w>
жиз нь</w>
уча ствовал</w>
ру ет</w>
п у</w>
ес ли</w>
промыш лен
и де
ль ное</w>
укра ин
лы е</w>
но вой</w>
ре мен
я сь</w>
со храни
неско ль
М ,</w>
пер вым</w>
о г
Г осу
s t
право чник</w>
Госу дар
а э
а п
необ ходи
з ма</w>
дан ные</w>
на граж
лан д
разви тия</w>
учи ли
ма нии</w>
кон тра
жен ный</w>
укра ины</w>
о цен
ва ны</w>
Укра ины</w>
Ч ер
Так же</w>
ди с
об нару
основ ном</w>
о к</w>
к га
18 6
и ва
по тре
ис ь</w>
ст е</w>
профе сси
ству ют</w>
библи оте
посе лок</w>
Со ю
систем ы</w>
э т
акаде мии</w>
я в
клад би
мен ее</w>
согла сно</w>
э ф
ти и</w>
ве й
ба ш
кон тро
пе тро
бе з
a n</w>
200 3</w>
кило метрах</w>
раз и
год ар
по в</w>
поз д
ве ро
эн ер
ля ет</w>
сло ва
фро на</w>
государ ственный</w>
Ка за
р ь
кга уза</w>
м ать</w>
у твер
ки но</w>
ми кро
1 00</w>
значи тель
сторо ны</w>
по ря
ле та</w>
сле д
перепис ь</w>
то на</w>
пер сона
ф ин
а й
ш ин
проти во
сто рон
В о</w>
усло ви
н ю</w>
Ф и
Е го</w>
пред прияти
му зе
2 .</w>
Б ер
ве т</w>
ля ется</w>
восем надцать</w>
o n</w>
л ла</w>
пу та
бе с
о не</w>
образо вание</w>
r e
э ле
каза х
осуще ств
ате ля</w>
профе ссо
сою з
ст ва
сем надцать</w>
в до
ти ту
ка ли
ве ден
ла ми</w>
кня з
а ре
коман до
восем надцатого</w>
лы й</w>
В ходит</w>
количе ство</w>
рова н</w>
Л енин
да х</w>
по че
Л .</w>
е ж
не зависи
км 2.</w>
Р оди
граж дан
г вар
пар хи
куль тур
Е .</w>
ки на</w>
поз же</w>
рай он
муниципа льным</w>
сезо на</w>
лю дей</w>
че ски</w>
про вел</w>
ва ются</w>
Г у
произ води
й н</w>
сай те</w>
ге ографи
уни что
шест надцать</w>
4 0</w>
с ра
в ш
осво бо
ен ь</w>
м оде
се к
ствен ные</w>
меди ци
г на
18 7
шести десяти</w>
стви е</w>
послед ствии</w>
е мо
ско н
с дела
про да
остро ва</w>
клу ба</w>
муниципа льных</w>
ва но</w>
слу жи
произ вед
больш е</w>
вы став
импери и</w>
фор мы</w>
стан ция</w>
з вание</w>
про бле
пар та
и на</w>
ты м</w>
пос вя
публи ко
при мер
д ю
сво бод
административ но</w>
вос лав
А л
тех но
ствен ная</w>
щи е</w>
на пример</w>
э та</w>
ност ей</w>
не которые</w>
ли нии</w>
н ской</w>
сту ден
организа ции</w>
X V
н ения</w>
смо т
обы чно</w>
мину с</w>
бор ь
поло ви
Феде рации</w>
и му
ру ется</w>
в скоре</w>
c h
многи х</w>
стоя ние</w>
П од
хоро нен</w>
с ме
поль зо
на м</w>
че ским</w>
многи е</w>
до пол
хо в</w>
ви ди
ри на</w>
лю бо
восьми десяти</w>
органи зо
б ло
СП б</w>
на р
ли н</w>
верну лся</w>
де бю
рова л</w>
рев но
которо м</w>
до ма</w>
произ о
пол ностью</w>
ле с
не до
т .</w>
о лимпи
че ском</w>
ко ль
нима ет</w>
по ро
кра я</w>
сту па
под об
ля х</w>
ж у
я пон
вой ска</w>
образо ваниям</w>
иму ще
ше е</w>
ис клю
бри тан
вла сти</w>
е пархи
пы т
ста ло</w>
за кры
о не
ь ян
член ом</w>
ка фе
рес публи
к вар
ни н</w>
по ра
по ки
тор ы</w>
ш тат
По д</w>
б и</w>
мы с
Л о
П ере
феде раль
сти ва
ате лем</w>
уче б
ин жен
Ру с
у помина
Г ен
го с
Но во
гра ф
ви и</w>
годар я</w>
от сут
город ской</w>
девят и</w>
тре тий</w>
оте ц</w>
П и
до п</w>
служ ба</w>
вани ю</w>
пло т
вши е</w>
чемпиона та</w>
уч ени
де л</w>
рова ть</w>
ж ени
ме ль
та л</w>
из датель
то л
И з</w>
вклю ча
а м</w>
ки ми</w>
ю ри
ге ль
о то
содер жа
сере ди
да л</w>
Ц ент
ви д</w>
пред став
ки р
приня л</w>
з д
на гра
ьмо е</w>
ру ю</w>
кри ти
отно ш
ли бо</w>
чи к</w>
но вого</w>
числен ности</w>
би т
Н о</w>
Ад министратив
3 5</w>
награж ден</w>
кон цер
заме сти
город ского</w>
го ри
ста ми</w>
e s</w>
ди рек
уби й
Д ля</w>
199 9</w>
Ф .</w>
н ю
ло ва</w>
ти на</w>
бла го
дерев не</w>
ра н</w>
з у</w>
ье р</w>
кан ди
рус ской</w>
кру г</w>
ни ками</w>
мо мент</w>
д лин
ти ть</w>
проте кает</w>
наб лю
ч ки</w>
кладби ще</w>
ка мен
ло н
я т</w>
различ ных</w>
проис ходит</w>
со циаль
П ра
ч ка</w>
зда ние</w>
сан кт</w>
ль ян
бри га
ки н
су ль
пер вая</w>
Ко м
ще го</w>
тер а</w>
М ак
ре гу
сере б
фе стива
спе циали
девяност а</w>
шко лу</w>
жа й
коро лев
альбо м</w>
Эн циклопеди
воз раст
вто ры
199 0</w>
ве ке</w>
ро вания</w>
пра ва</w>
ате лей</w>
e l
Сан кт</w>
поддер ж
Д .</w>
посел ений</w>
с ц
станови тся</w>
ре е
о чере
рабо ту</w>
ги я</w>
мо щ
совет ский</w>
язы ка</w>
жа л</w>
г ли</w>
располо жена</w>
г ло
м ян
семи десяти</w>
мен ты</w>
кла с
мо ря</w>
К ро
194 1</w>
Д у
вы ра
тысяч ью</w>
зем ли</w>
со ревно
обла ст
п лен
под готов
мно же
институ та</w>
сво им</w>
ем ати
б ка</w>
теат ра</w>
ка жд
об я
сери и</w>
мо сть</w>
х ро
професси ональ
по ле</w>
несколь ких</w>
ц кой</w>
поги б
за ко
пла ни
т р</w>
вы шел</w>
П у
чис ло</w>
дол ла
э р
7 8</w>
пис ь
фер ен
ту а
мат ри
ча сов</w>
у ро
г ент
дви г
ру до
име ют</w>
ча с</w>
по каза
са ми</w>
i l
пере шел</w>
ствен ным</w>
й т</w>
И ва
окру гов</w>
А ль
ч атель
да т</w>
вос ста
мо л
провин ции</w>
Каза х
со стоит</w>
ли к
ору жи
оте чественной</w>
ка тер
использу ется</w>
ше м</w>
же л
сло ж
сте н</w>
получи ла</w>
На циональ
шко ла</w>
пре м
вш ись</w>
r o
г ей</w>
но к</w>
свя за
еха л</w>
да ле
ин де
зо м</w>
рус ского</w>
соста ви
де яте
проис хо
н ер
фина н
в шего</w>
ав тор</w>
ре шение</w>
ско ро
ри м
пер вых</w>
по ве
пор т</w>
у си
по в
з м</w>
крас но
сезо не</w>
проду к
но вых</w>
постоян ного</w>
зда т</w>
град ской</w>
б рон
пре ж
ре ш
нов ремен
россий ский</w>
ля н
ка ра
ча й
пол ков
за вое
л ка</w>
ря дом</w>
ва лось</w>
за слу
в ходи
ш ан
пе чат
карьер у</w>
не которых</w>
с мен
то му</w>
К .</w>
хот я</w>
д жи
ще й</w>
км .</w>
ко вой</w>
емы х</w>
на писа
про тя
язы к</w>
ж ер
тирова л</w>
вы де
р ения</w>
ко д</w>
ствен ное</w>
Х о
раз ру
ви дов</w>
уда лось</w>
о грани
по ез
доста точ
ц вет
л лери
ка з</w>
в с
Во сто
це п
ми н</w>
ста ро
вой ск</w>
н ение</w>
дву хсот</w>
х ристи
хи ми
ли за
нача льно</w>
ф р</w>
r a
свя щен
ча р
за л</w>
три дцатого</w>
университе те</w>
Ш а
ра м
r i
ша х
де р</w>
сто ли
боль шая</w>
мен тов</w>
филь ме</w>
дви жения</w>
я п</w>
до чь</w>
да го
бере ж
да ми</w>
Сою за</w>
бри та
та бли
а на</w>
раз работ
даль ней
но вые</w>
де мо
пу те
то гда</w>
ме ста</w>
о публико
избра н</w>
ст ью</w>
четвер тый</w>
Т у
ч у</w>
со един
па ри
у строй
то ли
помощ ью</w>
по ле
выступа л</w>
Г ор
л ер
су б
оконча ния</w>
пра вослав
Ч а
до к
зе лен
е же
ви де</w>
3 3</w>
очере д
би л</w>
кре по
ста ви
дли на</w>
обо зна
ени ям</w>
ве р</w>
р то
чемпиона те</w>
ж ден
чен а</w>
от прави
по что
де пута
сто ятель
ита льян
ми ра
квадра тного</w>
уез да</w>
ин ди
се бе</w>
совет ского</w>
нача ло</w>
пос ред
университе т</w>
ря да</w>
вед ение</w>
москов ской</w>
о писа
уч ре
арти ллери
на ро
по этому</w>
ст ен
ло ж
в последствии</w>
вне ш
з ин
к ле
с ар
проек т</w>
процен та</w>
ри с</w>
пере имено
д ня</w>
ан т</w>
пол ка</w>
пер евод
интер е
шко ле</w>
глав ным</w>
мет од
ь ев</w>
кон кур
ма ши
служ бу</w>
относи тся</w>
ат ься</w>
X I
му зей</w>
а у
ти в</w>
ино гда</w>
6 0</w>
про вод
ев ского</w>
не ф
ди н
й ском</w>
. 0
успе ш
чен ко</w>
б л</w>
л ени
й ская</w>
К ор
счита ется</w>
логи ческая</w>
дивизи и</w>
ст ро</w>
воз можно</w>
ль ю</w>
ули цы</w>
деятель ности</w>
Роди лся</w>
мат емати
моск ва</w>
к то</w>
Ра з
по кры
систе ма</w>
новремен но</w>
Д же
энциклопеди ческий</w>
образ у
кни ги</w>
в ка</w>
ше н</w>
Моск ва</w>
экс пер
секре та
сем ьи</w>
до чер
при мен
Пе тро
ми ре</w>
совер шен
пе даго
Исто рия</w>
с са
част ью</w>
бла годаря</w>
кни га</w>
че скую</w>
ше д
коро т
т ра</w>
фи ци
жи ть</w>
ре м</w>
ща ется</w>
бо л
дву мя</w>
вы з
наз ванием</w>
кон ца</w>
м лад
ме д
вели кой</w>
г ля
те лями</w>
на де
процен тов</w>
у мер
си бир
окру г</w>
ад министра
од но</w>
служ бы</w>
пре мии</w>
долж ность</w>
самы х</w>
ра м</w>
слу жил</w>
ги на
a m
дца том</w>
та ким</w>
ку ю</w>
пес ни</w>
м л
c o
ха ил</w>
лю б
надца тый</w>
ат а</w>
у ст
государ ственного</w>
мо но
пре кра
ка те
аэ ро
кафе д
мину т</w>
р э
Б .</w>
ча ются</w>
на ход
объ еди
ко с
иг р</w>
гра ф</w>
ме тео
представля ет</w>
Оте чественной</w>
ра нее</w>
м э
Ге ро
язы ке</w>
поки ну
од ну</w>
н ению</w>
ко брита
учили ще</w>
возраст е</w>
треть е</w>
к ров
у са
раз у</w>
ф ла
ви я</w>
сель совета</w>
о п
са н</w>
ст ин
ру б
второ е</w>
спор тив
други м</w>
искус ства</w>
худож ник</w>
м од
За нимает</w>
ги м
цент ром</w>
ду хов
ша ет</w>
хо м</w>
коман да</w>
деятель ность</w>
ме л
т ная</w>
вод ы</w>
ло г</w>
ч ины</w>
ч ном</w>
з ву
эф фек
жи тель
1 2
199 7</w>
компа ния</w>
случа е</w>
ре али
й ти</w>
ак три
при з
рее стр</w>
ради о
ур сы</w>
ер и</w>
стре лко
194 5</w>
ст ей</w>
долла ров</w>
спор та</w>
муниципа лите
од ном</w>
да ют</w>
стра н</w>
гра д</w>
в зя
посвя щен
с ли
с цен
К ры
ков ского</w>
199 8</w>
ков ский</w>
ят ься</w>
зер бай
имен но</w>
Александ р</w>
ли ст
ч ным</w>
ев ский</w>
с вет
чен ы</w>
до к</w>
И с
верси и</w>
пример но</w>
александ р</w>
Б ар
круп ней
поверх ност
я н</w>
в но</w>
официаль ный</w>
извест но</w>
i t
ап пара
П ред
при сут
чи та
ш ки</w>
спи сок</w>
дека б
вой не</w>
рабо т</w>
по р</w>
мини стер
О фи
рас ши
за вод</w>
18 5
участ ник</w>
ти ки</w>
ени ями</w>
пол но
вы ше</w>
вер хов
про ходит</w>
счи ты
ку п
Москов ской</w>
ло вич</w>
ана ли
орден ом</w>
ве с
милли онов</w>
логи я</w>
ма ни
де б
о ном</w>
ни ми</w>
Во л
га м</w>
пре имуще
се мей
при обре
м ского</w>
у г
воло сти</w>
с матри
не с</w>
совет ской</w>
фут боль
шко рто
дан ных</w>
име л</w>
под чин
цве та</w>
Д о</w>
ч ное</w>
8 6</w>
8 2</w>
Х ар
ност ран
Вели кой</w>
прак тически</w>
строитель ство</w>
журна л</w>
фи ли
8 0</w>
и о
бо м
пис ан
ча сти
и л
с правочник</w>
то рии</w>
ро ва</w>
ф ан
вл ения</w>
то ри
Ос нов
ко ле
при соеди
э п
мат че</w>
находи лся</w>
жен щины</w>
199 1</w>
от ца</w>
ма ль
ка ль
у ста
действи я</w>
ка ва
ро ли</w>
си я</w>
ска ми</w>
с ре
о зер
ур а</w>
ве та</w>
ки та
глав ный</w>
зи я</w>
ми тро
з ен
т во
Б ро
воен но</w>
все м</w>
рабо чи
при меня
газе та</w>
гро м
ан дре
г ин
су д
0 0
ш о</w>
об уч
чу в
вод ный</w>
ме ст</w>
рова на</w>
ко во</w>
все гда</w>
восто чной</w>
не му</w>
ско ль
с рав
у м
пу ти</w>
изда т</w>
актив ных</w>
В ен
Ан дре
из учен
э по
большо е</w>
о жи
посел ение</w>
Кро ме</w>
вос станов
по со
дру гой</w>
ни ка
ст я</w>
пси хо
п ин
административ ный</w>
и ми</w>
ок е
с нова</w>
жа ет</w>
ф он</w>
ди н</w>
о пы
х ор
ту р</w>
потре б
лей тен
рели ги
сер ва
ев ре
ком муни
не р</w>
ни мат
работа ет</w>
част ности</w>
ц ы
со хран
при гла
которы м</w>
мест ности</w>
ти ю</w>
бли з
государ ства</w>
Г ри
девяти стах</w>
ор дена</w>
ев о</w>
м ской</w>
Во з
особен но</w>
те ла</w>
основ е</w>
ни н
после до
о пер
ма г
В се</w>
учи лся</w>
чи лся</w>
194 3</w>
194 4</w>
ь ера</w>
памят ник</w>
ф ра
дру г</w>
ори гина
бе зо
тиче ской</w>
o l
e n</w>
тради цион
профессо р</w>
и ностран
Офи циаль
все й</w>
щ ую</w>
много числен
ра ба
ди пло
кото рую</w>
са жи
га ет</w>
бассей н</w>
емы е</w>
пар ла
а лексе
при сво
не ж
сво ем</w>
Ра бо
199 4</w>
э ми
па дает</w>
те ра
отно шения</w>
сц ена
й о
г ской</w>
пери од
сов мест
сер а</w>
эти м</w>
лан дии</w>
по хоронен</w>
А лексе
по ступил</w>
Г лав
жен ных</w>
л ли</w>
ни на</w>
ма кси
7 0</w>
позд нее</w>
зе р</w>
ци ях</w>
а я</w>
Бе ло
ле д
щи м</w>
ма ри
бо в</w>
198 9</w>
сто й
СС Р</w>
пис и</w>
ро вание</w>
моск ве</w>
Ги дро
крест ьян
к ен
Моск ве</w>
юще е</w>
жи ли</w>
уча ство
скон чался</w>
не ве
губер на
в шая</w>
За пад
большин ство</w>
i s
й ские</w>
пер ен
га л
бо м</w>
территориаль ное</w>
Ю ж
мен а</w>
доро ги</w>
самы м</w>
защи т
К ра
фран ции</w>
по вы
ти ка</w>
Фран ции</w>
ма т</w>
Ка к</w>
у вели
бур г</w>
возмож ность</w>
тон н</w>
поддер жи
3 2</w>
ходи тся</w>
проце с
ко ри
199 6</w>
пра во</w>
г ну
бер г</w>
д ж</w>
твор че
за пре
ре жи
О на</w>
стви я</w>
яви л</w>
поверхност ных</w>
па в
обо рудо
К е
т р
изда ние</w>
испол ни
199 2</w>
гер цо
дол жен</w>
против ника</w>
опреде лен
П ло
дву х
титу л</w>
i c
разви тие</w>
из уч
режис сер</w>
про во
тре бо
посел ка</w>
н ью</w>
раль ного</w>
хо л
сент ябре</w>
ж ений</w>
ми мо</w>
лю ди</w>
оборо ны</w>
т ской</w>
д ать</w>
осно ван</w>
ят о</w>
ща ет</w>
по м</w>
ри тель
199 5</w>
198 0</w>
де парта
ла м</w>
у э
К ри
же й</w>
пис ы
у каза
площад и</w>
про ходи
му ль
ц ом</w>
руковод ством</w>
в нима
пя тый</w>
t h
бо ро
ла гер
С вя
ль ский</w>
Бы л</w>
геро й</w>
графи я</w>
о зна
безо пас
акаде ми
с сы
запад ной</w>
та ких</w>
бо й
ис пан
тре х
Ю .</w>
хра м</w>
об и
ле в</w>
ре ст
o u
графи и</w>
то мах</w>
си лы</w>
у правля
ю р
сезо н</w>
бат аль
шесто й</w>
бра т</w>
состоя нию</w>
вос ьмой</w>
тер и
кол хо
ва тель</w>
го лов
пол к</w>
п ля
ро ждения</w>
ню ю</w>
щ у
М ат
альбо ма</w>
п лу
сереб ря
аре сто
пат ри
ч ено</w>
раз вед
изучен ность</w>
на вли
под вер
пас сажи
а ри
фло та</w>
высту пи
ста т</w>
суще ствует</w>
ску ль
во льно</w>
пен си
ок ку
обеспе чи
ле р</w>
факуль тет</w>
от ра
в за
ни ке</w>
контра кт</w>
ж ением</w>
эп из
га н</w>
ин у</w>
са х</w>
ма ло
револю ции</w>
геро и</w>
ар ен
ле том</w>
по станов
г ли
пе хот
од новременно</w>
боле з
теат р</w>
а ссо
сель совет</w>
б ран
за м
т ки</w>
се год
стан дар
ре ктор</w>
д ент
авто но
худож ников</w>
скуль п
т ным</w>
бо к</w>
э ту</w>
бо го
пис ь</w>
э м
корпу са</w>
про то
соста в
Р Ф</w>
Т ер
198 8</w>
опера ции</w>
Са йт</w>
ма га
спор т
производ ства</w>
сель ский</w>
О ни</w>
оз ера</w>
воз ник
по пыт
цент ре</w>
Со гла
ль я</w>
смот ря</w>
биографи ческий</w>
ш ка</w>
ко вых</w>
мо ги
пози ции</w>
ц ем</w>
ч ении</w>
ка толи
коро ля</w>
литера туры</w>
ла у
шта б</w>
сед ьмой</w>
веро ят
остро ве</w>
га х</w>
жд ении</w>
ра и
плот ность</w>
фа й
по нии</w>
хозяй ства</w>
националь ной</w>
со бира
с разу</w>
сыгра л</w>
работ ать</w>
пунк т</w>
со р
остро в</w>
кар ти
ла н</w>
я ется</w>
вы да
ре й</w>
хоро шо</w>
та ции</w>
фи и</w>
вла д
авгу сте</w>
ф е</w>
не смотря</w>
пер вую</w>
стат ус</w>
живо тных</w>
ме три
г ла</w>
ка в
Л :</w>
при ме
высту пл
ма е</w>
метео издат</w>
шта ба</w>
нов о</w>
север ной</w>
199 3</w>
роди лась</w>
у ль
ма ги
ра ке
дви жение</w>
ц о</w>
раль ный</w>
тысяч у</w>
и ни
И о
ре аль
XI X</w>
Крас но
рабо те</w>
образо ван</w>
да м</w>
ско в</w>
с виде
то по
те й
И р
до н
и н</w>
ши л</w>
ма ссо
цион ный</w>
дат а</w>
3 6</w>
раз ных</w>
ста ди
о р</w>
си льно</w>
одно имен
п р
х е</w>
прави ло</w>
бо р</w>
явля лся</w>
емы й</w>
молод еж
по хо
середи не</w>
восто ке</w>
статисти ческий</w>
сбор ную</w>
помощ и</w>
К ур
э н</w>
изве стен</w>
достаточ но</w>
а т</w>
наход ятся</w>
проек та</w>
окт ябре</w>
инде кс</w>
район ного</w>
ма стер
возгла вля
сы на</w>
со на</w>
ле га
о казыва
от каза
те х</w>
цион ной</w>
191 7</w>
из бира
4 5</w>
состоя лась</w>
ль ского</w>
не ц</w>
a s
И та
ре ке</w>
лен ь
шта т</w>
на прав
раз но
зда ния</w>
ар хе
мер а</w>
наз вания</w>
х у</w>
ло вой</w>
ч ную</w>
ни ц</w>
от ве
чемпиона т</w>
француз ский</w>
м ся</w>
ца м</w>
ию ле</w>
коне ц</w>
гим на
исследо вания</w>
щен а</w>
ля м</w>
ен ко</w>
с че
ен но</w>
коман ду</w>
гра н
в шей</w>
б из
пис атель</w>
ти п</w>
су м
мар те</w>
до бро
бу д
воз душ
пере се
пре вра
со ору
к та
Согла сно</w>
обще й</w>
вы нуж
выпу ска
вой на</w>
дерев ян
с кла
у н</w>
комп ью
ки сло
са д
занима лся</w>
a c
ор а</w>
9 78</w>
музы кан
фи р
ди л</w>
располо жено</w>
та кие</w>
правл ения</w>
при ро
на ци
коми тета</w>
спе ди
за му
христи ан
деся тый</w>
На у
А мери
то м
пла не
r u</w>
ш ру
х о</w>
ли ги</w>
ин стру
дебю тировал</w>
президен та</w>
ин те
же м</w>
до маш
о ли
цве т</w>
л ки</w>
тель ный</w>
сло ва</w>
у зна
Г ра
сколь ку</w>
управл ение</w>
e t
С те
М он
гент ство</w>
бли жай
с ва
194 2</w>
тур е</w>
О лимпи
фор миро
пу сти
ве до
П ав
2 5
мо ло
вы шла</w>
з ь</w>
ени здат</w>
гра жда
Т ур
фика ции</w>
с ви
п р</w>
не боль
декаб ре</w>
янва ре</w>
соб ствен
множе ство</w>
к рай
о хран
резуль та
но вая</w>
ве й</w>
по зна
до р
ологи и</w>
под раз
до ба
ко вого</w>
С тра
правитель ства</w>
электро н
д р</w>
заня л</w>
програм мы</w>
ис т</w>
э ки
м ур
демо кра
ть ю</w>
тре хсот</w>
раль ная</w>
деяте ль</w>
на считы
ж ден</w>
ж ар
а ни
сель ское</w>
т ского</w>
га ми</w>
А к
197 0</w>
со циали
ч ать</w>
дев уш
исследо ваний</w>
ло н</w>
Совет ского</w>
ль ном</w>
ту ри
сто й</w>
кла сса</w>
е сте
хо к
до н</w>
рус ских</w>
ак тер</w>
ве ст
с фер
больш ую</w>
Ме ж
при ве
коман ду
произвед ений</w>
та ри
у с
от став
кар ты</w>
вле ка
протя жении</w>
пер ь</w>
ч ением</w>
г ур
па нии</w>
о в
объ един
элек три
ма то
еже год
эк спеди
у ма</w>
т ное</w>
по вед
отно ся
по став
кажд ый</w>
издатель ство</w>
воен ного</w>
сла в</w>
квар ти
долж ности</w>
к ну
горо дов</w>
религи оз
при бли
198 7</w>
9 0</w>
ь ез
М ан
во му</w>
196 0</w>
зна мени
кар та</w>
вла де
А Н</w>
ко ра
ла к
кни ж
мен и</w>
послед ний</w>
д не
ор ги
г не
я ся</w>
стат ья</w>
ви да</w>
стан ти
се й</w>
муниципа льного</w>
нача ли</w>
же ла
196 6</w>
ар мия</w>
с ро
созда н</w>
испол ня
Ш и
восто к</w>
глав ного</w>
по ль</w>
В торо
пи ло
вод а</w>
во круг</w>
уров нем</w>
ию не</w>
О кон
президен т</w>
а стро
юще м</w>
стра не</w>
ро ма
журна ла</w>
М ин
со чин
Р .</w>
ги п
Ж и
ф ар
цион ных</w>
у кре
мар шру
дер жа
за бил</w>
про ш
Официаль ный</w>
бы стро</w>
до ва</w>
да н</w>
други ми</w>
на н
Ч ере
сто л
спу стя</w>
ни ей</w>
i _latin</w>
науч но</w>
квадра тных</w>
состоя лся</w>
ра ун
поря д
зыва ет</w>
комму на</w>
созда ния</w>
ш ую</w>
милли она</w>
юж ной</w>
бро кгауза</w>
Бро кгауза</w>
пос т</w>
л та
работа ли</w>
ва телей</w>
е фрона</w>
Е фрона</w>
с форми
располо жены</w>
Административ ный</w>
Па ри
ва ль
мо ри
З на
ц ах</w>
по ля</w>
американ ский</w>
реги он</w>
191 8</w>
ти ли</w>
бо ло
ля ют</w>
па ро
кон ферен
член ов</w>
принима л</w>
ин ский</w>
ми ли
основ ной</w>
нау ка</w>
вл ение</w>
ф ре
девя тый</w>
Ми ни
кра т
мета л
получи ли</w>
си туа
П ор
го ся</w>
вши йся</w>
по ру
ча ют</w>
се л</w>
З ат
пунк ты</w>
допол нитель
правитель ство</w>
мы х</w>
ц ени
б ре
ви ль
18 4
д нев
иг ре</w>
реги она</w>
ро ман</w>
пу ть</w>
Вер хов
сер ьез
преимуще ственно</w>
гер мании</w>
за мен
цион ного</w>
на ступл
но вым</w>
точ ки</w>
це лью</w>
д митри
Гер мании</w>
вой сками</w>
зна чение</w>
к ер
e s
Р С
торго в
во к</w>
епархи и</w>
во ка
ли т
3 8</w>
ка с
у празд
ве лич
ре ц</w>
ви н</w>
е ц</w>
3 4</w>
долж ны</w>
ни ть</w>
прин ци
отли чие</w>
ма ми</w>
ст у</w>
поло жение</w>
г ат
само ле
шкорто стан</w>
с чет</w>
мо к</w>
стар ший</w>
совет ская</w>
бо га
под твер
Д лина</w>
строитель ства</w>
ров ка</w>
игра х</w>
под ви
регу ляр
бе л
извест ный</w>
дел ать</w>
з рения</w>
прожи вало</w>
По ль
сред ний</w>
ре мон
техно логи
до сто
со ст</w>
ча л</w>
т ский</w>
193 0</w>
не посред
де ло</w>
й м
име ется</w>
де мон
тео рии</w>
свя той</w>
апре ле</w>
тель ной</w>
тон ны</w>
ми но
но мина
в ступил</w>
актив но</w>
завод а</w>
ла й
ф ы</w>
Ко ро
ру ют</w>
пу ска
эки па
кон ф
штат а</w>
различ ные</w>
u n
Э тот</w>
а л</w>
А каде
спо н
раз работа
стат ьи</w>
го ль
Государ ственный</w>
ко пи
библиоте ка</w>
мер е</w>
сто го</w>
тре бу
воен ной</w>
да ли</w>
о но</w>
немец кий</w>
ты ми</w>
послед ние</w>
ате ли</w>
ст ать</w>
сти ки</w>
П ар
в ская</w>
ком мер
по явл
3 7</w>
196 5</w>
вши хся</w>
э ль</w>
кобрита нии</w>
мат чей</w>
хра ма</w>
но ябре</w>
Д митри
ро вич</w>
193 9</w>
бе д
уез д</w>
о чер
Р я
ку з
ма лень
щ ено</w>
до ме</w>
пере у
198 6</w>
производ ство</w>
ен ный</w>
201 6</w>
ро н</w>
воз ду
э кра
ш тур
198 5</w>
до бы
милли ар
искус ств</w>
дис сер
г ского</w>
влия ние</w>
пор тре
во евод
бра ть
192 0</w>
свя того</w>
музы ки</w>
ни кам</w>
ле ген
ленин град
20 0</w>
по ис
ре н</w>
каж до
составля ла</w>
ци они
обще ство</w>
кате го
че скими</w>
офи це
194 0</w>
вла сть</w>
двена дцати</w>
девя но
евро пы</w>
до вольно</w>
Геро и</w>
в ри
т т</w>
со кра
не м
фрон та</w>
по ста
Х и
Евро пы</w>
педаго ги
бе ль
крест ья
запа де</w>
ва ли
ре бен
за ли
у бе
чи ков</w>
значи тельно</w>
ров ки</w>
пад ения</w>
су дь
сед ьмое</w>
м .</w>
пят надцати</w>
девяти сот</w>
мер ы</w>
ар мию</w>
вы бра
позво ляет</w>
а фри
за коно
ско хозяй
та кой</w>
т ка</w>
с кло
ту ре
включа я</w>
вши м</w>
следу ет</w>
со прово
е ром</w>
вши еся</w>
ро слав
о пас
о гром
ру беж
С ы
ту га
ри со
мо ре</w>
дер ж
190 7</w>
нау ки</w>
на ли
сбор ник</w>
чи на</w>
оди но
Та к</w>
террито рия</w>
Ма й
ю н
чи ть</w>
шо у</w>
ви це</w>
Пер вый</w>
не одно
кон серва
муж чины</w>
ле тия</w>
ко вые</w>
щ ении</w>
любо в
гра фа</w>
дер жи
де ли
националь ный</w>
тиче ских</w>
бю ро</w>
ма к
с вер
ст ера</w>
до ров
м м</w>
чер но
ни ях</w>
че в</w>
щен ы</w>
в место</w>
Б ра
бо ях</w>
ни л</w>
ве ще
яти я</w>
до гово
ск ри
с ли</w>
по й</w>
само стоятель
вля ется</w>
г рес
сто к</w>
гер ман
имен ем</w>
го е</w>
тиче ские</w>
Энциклопеди ческий</w>
соста ва</w>
тель ного</w>
февра ле</w>
X X</w>
l e</w>
про шел</w>
националь ного</w>
после ду
игра ть</w>
ва й
рай она
ре б
д я</w>
стат у
по береж
рас сматри
чи ла</w>
населен ные</w>
рабо та</w>
за ция</w>
ре ак
ви е</w>
сси я</w>
раль ной</w>
Зат ем</w>
официаль но</w>
на след
брон зо
мест ного</w>
постро ен</w>
ги е</w>
на ря
воен ных</w>
начина ется</w>
Сред и</w>
зи ден
на за
Ни ж
обще го</w>
монасты ря</w>
лен ный</w>
англи йский</w>
раз иль
восто ку</w>
с м</w>
сред ней</w>
с пис
ре к</w>
до би
2 4
ни ку</w>
располо жен
че к</w>
по скольку</w>
ли зи
желез ной</w>
со сед
музе я</w>
по ка</w>
груп пу</w>
корпу с</w>
рова ны</w>
экспер имен
пар к</w>
на ходя
жи ла</w>
ка д
ни це</w>
под ро
у ра
ди ректор</w>
фор ма</w>
науч ных</w>
еписко п</w>
ев рей
принадле жа
лен ные</w>
табли ца</w>
пред ме
вз ры
Во ро
ку да</w>
ста ры
о ст
рас стояние</w>
М ор
не де
на па
по каз
ор ден</w>
кра тно</w>
гото ви
ри н</w>
начина ет</w>
ан на</w>
э ска
вари ан
объ я
крас ной</w>
реги оне</w>
рова ли</w>
влади мир</w>
само й</w>
чи я</w>
нача лась</w>
сты е</w>
свя зан
Влади мир</w>
началь ник</w>
зо н
мы м</w>
дж ан
ли ца</w>
со зд
ы м</w>
выпол ня
митро поли
за боле
бар ди
вто рая</w>
и ла</w>
централь ной</w>
К ита
раст ений</w>
мы е</w>
со мо
Меж дународ
пробле мы</w>
сель скохозяй
носи т</w>
вос пи
к с
ь ков
198 4</w>
г -</w>
нача лось</w>
л ла
r u
сей час</w>
вы бор
мет р</w>
Д ан
си лий</w>
ор ке
ассо циа
ш ер
т одо
к л</w>
ко мен
разме щение</w>
жер т
з ри
рам ках</w>
В ос
ят а</w>
ди й</w>
кня же
щи к</w>
фа бри
замести тель</w>
теле вид
сво й
рован ных</w>
дол го</w>
оде й
Ш е
Т ро
ши ми</w>
ве н</w>
располага ется</w>
внима ние</w>
дей ству
вс ю</w>
а зербай
хок ке
доро га</w>
газе ты</w>
Ч ем
позво ли
про дю
само го</w>
на се
ито ге</w>
вод у</w>
in g</w>
пред полага
ев на</w>
председ атель</w>
ев ской</w>
Ц ер
2 8
трен ер</w>
актри са</w>
москов ского</w>
памят и</w>
до р</w>
осно вания</w>
дан ный</w>
верси я</w>
ко л</w>
упомина ется</w>
ти лся</w>
спорт смен
использо вать</w>
созда н
чи ка</w>
запа ду</w>
откры т</w>
на писал</w>
ж ского</w>
воен ный</w>
финан со
команди р</w>
кан тона</w>
те перь</w>
й ор
ти ви
пре ду
тю рь
мат ери</w>
рус ские</w>
зем ле</w>
7 5</w>
ж де
лен ной</w>
слу жа
раз а</w>
Второ й</w>
меда ль</w>
пунк та</w>
пи ра
198 3</w>
сол дат</w>
ком би
дочер и</w>
населен ным</w>
о ф
материа лы</w>
потер я
ли зо
на ло
со ба
кре й
си д
вани ях</w>
тран с
наро дов</w>
дей ство
Д ер
сою з</w>
тель ных</w>
ч ь
оцен ка</w>
цион ные</w>
ко ма</w>
веден ы</w>
до ктор</w>
до не
мо т
ван ный</w>
называ ют</w>
бассей на</w>
ри ю</w>
су пру
с н
меся цев</w>
бо ра
не которое</w>
никола й</w>
ля ции</w>
из уча
Никола й</w>
ль ную</w>
l e
3 9</w>
глу бо
6 5</w>
м нению</w>
сем ья</w>
безопас ности</w>
ис ка
су да</w>
поги б</w>
экс плу
импера тор
промышлен ности</w>
те н</w>
л ера</w>
ос ен
до мо
ин ской</w>
кос ми
зи н</w>
Во ло
во шел</w>
раз ре
реа т</w>
реги ональ
ющи ми</w>
6 4</w>
о пре
за мет
выстав ка</w>
мат ч</w>
б рю
систем е</w>
195 9</w>
юри ди
окон чатель
ли ге</w>
э пи
пре сс</w>
встре чается</w>
эффек тив
ви на</w>
у т
произ ведения</w>
но с
нов ский</w>
те пло
груп пе</w>
й ским</w>
щи на</w>
кни г</w>
З е
о хот
ве дена</w>
ст я
об щ
Ко гда</w>
свиде тель
съ ез
дивизи я</w>
информа ции</w>
мо г</w>
полков ник</w>
ющи еся</w>
сан ти
ново е</w>
о ч
пес ня</w>
про сто</w>
пре доста
тодо ро
о го</w>
то ва</w>
ствен ном</w>
услови ях</w>
до ви
те л</w>
говори т</w>
бы вший</w>
ре ль
Чем пи
девя тое</w>
про з
ч не
i a</w>
п и</w>
С ло
по том</w>
17 9
кана л</w>
189 0</w>
мар ки</w>
ми хай
Со вета</w>
фор ме</w>
по степен
о ши
чи ная</w>
при род
игро к</w>
18 0
ше к</w>
коро ль</w>
поль ского</w>
О .</w>
ни ках</w>
ли не</w>
o l</w>
ж у</w>
тра к
маг ни
коми ссии</w>
З ем
прем ьер</w>
тру да</w>
ли ней
с вед
пред ы
футбо лист</w>
р ение</w>
мат ча</w>
лет ний</w>
ж ению</w>
при чина
коман д</w>
197 9</w>
Вер х
ке р</w>
колле гии</w>
и е
име ли</w>
на сле
ру д
ма ло</w>
ав тодоро
198 1</w>
под о
е мой</w>
ма стер</w>
ули ц</w>
чи й</w>
197 5</w>
широ ко</w>
монасты рь</w>
А на
ц кая</w>
рус ском</w>
чемпи он</w>
тру до
стра нах</w>
воз ра
у мень
ок ра
турни ра</w>
ци ями</w>
глав ной</w>
су н
вос ьмое</w>
произо шло</w>
ющи хся</w>
Ка ли
3 0
В ар
прак ти
аль ный</w>
председ ателем</w>
тиче ского</w>
со ва</w>
ав стра
ав тор
использу ются</w>
ин ду
ве ли</w>
ча х</w>
проце сс</w>
И м
обла да
вклю чает</w>
195 0</w>
пе сен</w>
ни дер
ш ав
Н ью</w>
времен ем</w>
т рас
вы играл</w>
об ита
196 4</w>
сторо не</w>
фе ль
нен ы</w>
ин ского</w>
сериа ла</w>
ни цей</w>
Ж е
дальней шем</w>
вла дель
об щины</w>
действи е</w>
яб рь</w>
де ла</w>
со зна
т ать</w>
запис и</w>
Ми хай
вы п</w>
за й
ле ва</w>
в ходил</w>
5 00</w>
ж о
мини стра</w>
И спа
то вари
чен ных</w>
в ной</w>
ства ми</w>
o m
сти ческого</w>
ули це</w>
198 2</w>
двор ян
ша ется</w>
l i
раз ли
гла ва</w>
192 9</w>
Д ру
сво ими</w>
казах стан</w>
использо вался</w>
Ф СР</w>
ши н</w>
е катер
самы й</w>
сла ва</w>
Казах стан</w>
д э
Т ре
ис пыта
са ра
преды ду
Рас поло
ста в</w>
основ ные</w>
дина сти
ве ц</w>
ье вич</w>
при води
фор му</w>
чи вается</w>
реши л</w>
тель ные</w>
в ью</w>
ло м
Нау ка</w>
посел ке</w>
ва силь
коман де</w>
сторон у</w>
РС ФСР</w>
196 7</w>
с кры
географи и</w>
на с</w>
не ш
u r
от деление</w>
завер ши
постоян но</w>
большо го</w>
у потреб
ра ция</w>
с но
у гро
помощ ь</w>
ш вей
очеред ь</w>
а р</w>
сери я</w>
тат ар
л га
ры н
с начала</w>
называ ется</w>
лен ных</w>
дли ной</w>
a d
па ль
гра да</w>
гла ве</w>
на рода</w>
современ ной</w>
пред лага
Б ри
ка н</w>
об служи
го лу
би ли
му ю</w>
статисти ке</w>
авто бу
й ный</w>
жи тели</w>
ре зер
фор му
u s</w>
пере ехал</w>
197 8</w>
дви ну
Ва силь
иг ра</w>
у станови
197 4</w>
институ те</w>
бо я</w>
ар ми
ок рест
Н ор
руб лей</w>
ро ман
Ин тер
бо ю</w>
занима л</w>
зе ме
истори ю</w>
197 6</w>
сегод ня</w>
ли ть</w>
рас стоя
ба зе</w>
ис ла
четвер тое</w>
ил лю
ка й
дале ко</w>
ке т
стро в</w>
ос ад
вторы е</w>
лы м</w>
ш лось</w>
жа н</w>
Рес публи
ве сти
ен о
выпу ск</w>
ат ри
не извест
Ч и
рован ный</w>
а ль</w>
филь мов</w>
путе шест
му н
у дар
княз я</w>
луч ших</w>
лю д
и ван</w>
фу н
ан то
моск вы</w>
спор т</w>
ве ща
ги н</w>
дво ров</w>
щ и</w>
ще м</w>
ре ж</w>
И ван</w>
Ч у
Л он
ствен ную</w>
ко н</w>
из мени
два жды</w>
журна ли
7 2</w>
теат ре</w>
постро ена</w>
жда ет</w>
Моск вы</w>
три дца
а ра
му суль
выпу сти
съ ем
Окон чил</w>
зна чения</w>
коми тет</w>
наблю д
рес урсы</w>
росси я</w>
ер ы
постро й
вза им
А О</w>
вре мен</w>
то рия</w>
с пас
кни ге</w>
не уда
работа ла</w>
ев е</w>
си гна
на писан
раз би
по вре
раба ты
ни же</w>
муниципалите т</w>
сист ем</w>
би и</w>
про па
Й ор
се мина
го л
фор м</w>
присоеди ни
эпиз од
диа лек
ар мян
К ан
4 4</w>
пер вен
Ин ститу
пре фек
ле е</w>
че т
заслу женный</w>
фон ный</w>
ход ов</w>
ра ство
за пу
к нов
бое вых</w>
по тен
мо н</w>
звез ды</w>
че ства</w>
период а</w>
к ла</w>
Е катер
входи ла</w>
чемпи оном</w>
ва х</w>
ко ст
ге н</w>
и стре
зи м
ве сь</w>
ла бора
сю же
Росси я</w>
Чере з</w>
е к</w>
при бы
бе ла
ч ными</w>
5 5</w>
193 7</w>
сти ле</w>
наз ван</w>
следу ющий</w>
возгла вил</w>
пе р</w>
мы й</w>
ис че
й н
происхо ждения</w>
197 3</w>
жен ат</w>
в яти
ло го</w>
озер о</w>
197 1</w>
сков ской</w>
гра де</w>
то же</w>
под писал</w>
за веду
кри ста
мор ской</w>
бо к
л лы</w>
кори чне
196 3</w>
относи тельно</w>
ц у
ха н</w>
авто мати
пу тем</w>
тех ники</w>
четыре хсот</w>
кораб ль</w>
высо ко
щ ер
ради о</w>
о цени
ле са</w>
щи ков</w>
уров ня</w>
Б ла
аль ной</w>
ль ской</w>
об а</w>
197 2</w>
материа л</w>
проду кт</w>
ад мира
ты с.</w>
Г ре
196 8</w>
об ер
ква ли
вос помина
раз о
Г ла
полови не</w>
ю но
появи лись</w>
наз ваний</w>
програм ма</w>
окру ге</w>
спек так
ге о
причина м</w>
ш ар
ря ды</w>
степен ь</w>
образ и
администра ции</w>
сло во</w>
совет ских</w>
сти ческой</w>
ле то
россий ского</w>
XV III</w>
ди ть</w>
тра в
ку бка</w>
ге р</w>
по является</w>
конструк ции</w>
сер гей</w>
же сто
турни ре</w>
Сер гей</w>
кав каз
со против
ю щую</w>
Мо л
рова лся</w>
тем пера
бом барди
г ры
установ лен</w>
А Т
от правля
тро и
4 8</w>
а с
2 9
5 2</w>
стро й</w>
пу ш
диссер та
катего рии</w>
международ ного</w>
А б
пре сто
193 8</w>
искус ство</w>
шен а</w>
дел ению</w>
на сто
197 7</w>
про вер
удо сто
ме т</w>
кон ститу
до ступ
го л</w>
бер т</w>
Мини стер
основ ных</w>
ве к</w>
6 3</w>
кур с</w>
пар тия</w>
остро вов</w>
филосо фии</w>
м ский</w>
оста ви
пре до
побе ду</w>
присво ено</w>
от деления</w>
чен ные</w>
ми на</w>
кра й</w>
Ч лен</w>
ос а
сред ства</w>
внутрен ний</w>
по казыва
па ле
вой ну</w>
у виде
гру зо
ва ми</w>
восем надцати</w>
импера тора</w>
ш у</w>
х ло
фан та
смо г</w>
191 9</w>
бу к
С правочник</w>
a g
сло в</w>
пяти сот</w>
кла д</w>
a l</w>
зо н</w>
под писа
д з
пла в
меха ни
ва м</w>
клу бе</w>
ро с</w>
сер дц
З оло
нимат ься</w>
Все российская</w>
наза д</w>
ства х</w>
гор ь
с не
тур у</w>
ска з
б ру
ро до
пред назна
нико гда</w>
запа д</w>
ен ных</w>
ш вед
тысяч ных</w>
ко сти</w>
тиче ская</w>
су д</w>
памят ь</w>
ито ги</w>
Н е</w>
д ра</w>
ка зом</w>
се ти</w>
ска за
ю ге</w>
ш те
зависи мости</w>
совмест но</w>
y i</w>
перво начально</w>
мо з
ори ен
Па мят
комплек с</w>
в ру
результат ы</w>
ва ку
постепен но</w>
у луч
выбо рах</w>
Ген е
режис сера</w>
ми хаил</w>
про ходил</w>
ре кор
президен том</w>
круп ных</w>
жд ений</w>
Ми хаил</w>
о л
то ва
вдо ль</w>
ход ы</w>
жа ло
север е</w>
ден ь
се ром</w>
196 9</w>
ни цу</w>
емо го</w>
объ яв
выбо ров</w>
каж дой</w>
москов ский</w>
а ку
i m
ност ях</w>
все российская</w>
ха м
ста м</w>
приня ли</w>
пото м
ку ро
спо со
дж а</w>
У ни
уров ень</w>
яти е</w>
внутрен них</w>
б оди
и дет</w>
язы ков</w>
раз мер</w>
мини стр</w>
пре с
доку мента
Б ур
выступа ет</w>
це лом</w>
Ф ор
вля ет</w>
филосо ф
вз гля
мор ского</w>
капита н</w>
из о
сред неве
появи лся</w>
дирек тором</w>
с ена
ту ю</w>
фа ми
соответ ству
рован ные</w>
меда ли</w>
орга н</w>
т ка
ти ла</w>
тео ре
министер ства</w>
ма сси
моде ли</w>
ющи йся</w>
ко му</w>
Б ал
мо гли</w>
за ми</w>
геро я</w>
жени лся</w>
Бе ла
са д</w>
Пос лед
жен ные</w>
д ный</w>
оказа лся</w>
u s
ж ской</w>
би о
8 5</w>
са я</w>
вы игра
ли тов
ч ности</w>
воро та</w>
участ ников</w>
действи й</w>
па лат
ко смо
ф и</w>
об щая</w>
комби на
го ры</w>
а раб
195 8</w>
высо те</w>
стро м</w>
приз ван</w>
ж ный</w>
побе ды</w>
Г ар
соста вил</w>
фи гу
све т</w>
само м</w>
встре чаются</w>
сь ма</w>
в ходят</w>
гвар дей
ши на</w>
золо той</w>
по нима
поэ т</w>
ступа ет</w>
К ре
оста ется</w>
о стат
ж ский</w>
эт но
поверх ности</w>
по мимо</w>
в ме
ми сси
ати в
ле с</w>
ру ссии</w>
прав да</w>
лейтен ант</w>
об уча
куль тура</w>
при шлось</w>
ц ком</w>
И ме
О цен
публи ка
ва лен
з атель
в ском</w>
за се
муль т
195 7</w>
лу м
эксплу ата
боль шим</w>
от прав
храни ли
отде ла</w>
мо не
произ веден</w>
я й
ве сьма</w>
вну три</w>
пря мо
4 2</w>
преж де</w>
архитек туры</w>
о го
Л ени
не при
тек ст</w>
александ ра</w>
ини ци
появи лась</w>
n e
Александ ра</w>
коло н
пара лле
ди ю</w>
тро пи
бро не
кана ла</w>
ме ро
х ос
пар т
слова м</w>
ор дина
спу т
дру га</w>
п ье
ти ем</w>
оконча нии</w>
федераль ная</w>
жа ли</w>
рас па
х ле
об ви
С С</w>
196 1</w>
г л</w>
жи вет</w>
полно мо
шест надцати</w>
На и
Административ но</w>
н ере
части чно</w>
ль ными</w>
шесто е</w>
май ор</w>
п лен</w>
х ен
находи лись</w>
ло с</w>
О О
долж на</w>
196 2</w>
нов ка</w>
защи ты</w>
член ы</w>
княз ь</w>
завод е</w>
эк спо
та й</w>
тр ени
буду т</w>
в ступи
та ет</w>
да ния</w>
э ль
В иль
К ли
ча ще</w>
ч ата
полу чает</w>
ис п</w>
уст ье</w>
ш ка
ло га</w>
иг ры
рова я</w>
T h
пу ле
мест ных</w>
ме мори
лов ский</w>
во к
успеш но</w>
о ль
М но
неодно кратно</w>
лу р
бе н</w>
ко й
кор ре
сла вы</w>
офи цер
Оцен ка</w>
194 6</w>
по я
ката стро
ме диа
ста не</w>
д я
част ей</w>
возмож ности</w>
кар те</w>
С пи
архи в</w>
двена дцатом</w>
С т
195 6</w>
хан гель
с нима
кро ви
С мо
ру сь</w>
го р</w>
со че
осно вана</w>
иностран ных</w>
милли метров</w>
бо ра</w>
э й</w>
от ряд</w>
ров ский</w>
экономи ки</w>
г да
Те ле
р д</w>
Крас ной</w>
кон так
э с
е мая</w>
ли п
фи я</w>
состоя ние</w>
7 6</w>
к лет
пе ви
те ром</w>
те ло</w>
ь ями</w>
ц ере
ита л</w>
объек т</w>
ж ных</w>
ав стри
ниче го</w>
Д он
о писы
чи ной</w>
из у
разиль ский</w>
м оди
А й
наци она
фи л
грани цы</w>
у казыва
граждан ской</w>
характер и
Л ь
г ений</w>
пере д
П ла
пл ения</w>
ли ния</w>
год ом</w>
по кол
6 8</w>
стра те
боль шие</w>
По з
нико ва</w>
оте че
ска н
п то
председ ателя</w>
4 3</w>
На род
ден ы</w>
сред ств</w>
шен ы</w>
необходи мо</w>
один надцатом</w>
чер та</w>
не большой</w>
деся ти
име ла</w>
мо ва</w>
свя зь</w>
пар ка</w>
тер ро
сво ему</w>
вы ход
га ни
i r
турни р</w>
квадра те</w>
э фи
ре в</w>
ра б</w>
Г ру
населен ный</w>
генера ла</w>
пло ть</w>
международ ных</w>
худож ника</w>
созда на</w>
ща л</w>
5 1</w>
маш ины</w>
К П
те ме</w>
к са</w>
Все го</w>
меха низ
началь ника</w>
З десь</w>
на пря
ч ению</w>
си и</w>
ве ла</w>
нен а</w>
э ко
современ ного</w>
о хра
ли зации</w>
o t
ров ской</w>
игра ет</w>
находи лась</w>
состоя л</w>
син те
Я .</w>
пунк там</w>
ма м</w>
политиче ской</w>
сты х</w>
слав ян
име ются</w>
ги та
тель ное</w>
вопро с</w>
содер жит</w>
под вод
5 4</w>
ж ной</w>
ла т</w>
оста лся</w>
га я</w>
ита лии</w>
чи т</w>
горо ди
вероят но</w>
то вой</w>
из обре
симво л</w>
Ита лии</w>
тра м
факуль тета</w>
брига ды</w>
р ян
ти ра
измен ения</w>
195 4</w>
железнодорож ная</w>
покину л</w>
ба зи
гал ере
у ме
Т ру
ком на
пла н</w>
про си
с верх
направл ении</w>
Ге рой</w>
футбо лу</w>
за ниматься</w>
Р ы
Пло щад
п ры
ру ются</w>
ле г</w>
Б ли
препода вал</w>
6 6</w>
зем ле
Рас стояние</w>
ше ви
ки не
чен ный</w>
рабочи х</w>
истре би
ста я</w>
г ви
су хо
кава лери
ст ка</w>
5 28</w>
го ре
вер и
сол не
бра та</w>
в спо
на помина
а да
един ственный</w>
еписко па</w>
ля бин
6 2</w>
орден ами</w>
чи ли</w>
прин ято</w>
ко т
4 1</w>
а гентство</w>
ле вой</w>
у па
ли лся</w>
на в
игро ка</w>
e m
ш ве
представи телей</w>
са до
ра ды</w>
5 6</w>
озна чает</w>
жи ву
п се
нов ского</w>
описа ние</w>
й ское</w>
ле тию</w>
най ти</w>
оружи я</w>
груп п</w>
Т ем</w>
крас ного</w>
медици н
зо не</w>
г ря
ис а</w>
дцат ью</w>
от вер
за рубеж
харак тер</w>
аресто ван</w>
реда ктор</w>
мо ст</w>
Боль ш
кло н
да ется</w>
оружи е</w>
ен ные</w>
Ка на
отстав ку</w>
су пер
пре вы
ка ри
окру жа
ре чной</w>
нов ую</w>
до сту
пя тое</w>
Ка ра
з доров
Та ким</w>
у раль
при ток</w>
Ма ри
192 6</w>
мета лли
рован ной</w>
ва го
бо та
россий ских</w>
ти нен
уров не</w>
ля ются</w>
аль фа</w>
предприяти я</w>
l a
у во
функ ции</w>
м одер
га зо
фрон т</w>
еха ла</w>
Г У</w>
Боль шая</w>
ле со
гру з
Э та</w>
ти по
результат ам</w>
193 6</w>
след ствие</w>
попа л</w>
Го род</w>
с делать</w>
за мок</w>
К О
рас стре
тель ная</w>
Э р
кра е
сти хи</w>
ти ческий</w>
с э</w>
c _latin</w>
бе ль</w>
вы ходит</w>
ван ных</w>
кон цеп
депута тов</w>
ф аль
началь ником</w>
фина ле</w>
мл н</w>
обя зан
конф лик
Феде ральная</w>
сем надцати</w>
до не</w>
ра л</w>
ти ва</w>
созда ние</w>
ри х</w>
рав но
ба ро
при ходится</w>
те ров</w>
Площад ь</w>
де во
доро ге</w>
на шей</w>
высо та</w>
ч ью</w>
ме кси
p h
ч ений</w>
Н ес
стре ми
e l</w>
бе спо
сдела л</w>
времен а</w>
наз вана</w>
ви ды</w>
кни гу</w>
ве ков</w>
продол житель
об нов
нача лом</w>
мен я</w>
си би
о ре
Э ти</w>
о пу
В скоре</w>
законо датель
хот вор
шах мат
г ский</w>
нен ных</w>
Е сли</w>
зна к</w>
ре комен
пор туга
исследо ватель
4 6</w>
получи ть</w>
пенси оне
чин е</w>
ли к</w>
ка за</w>
корре спон
4 7</w>
систе му</w>
рей тин
погиб ли</w>
обя затель
карьер ы</w>
де ти</w>
интер ес
составля л</w>
использо вания</w>
194 8</w>
ро мана</w>
реги стри
с мени
д лов
организа ция</w>
цион ная</w>
выс шей</w>
трен ером</w>
про ведения</w>
ш от
ров ского</w>
поло жи
глав ных</w>
переу лок</w>
ива нович</w>
а но
Ан г
осво боди
ле жа
О к
стра и
стой чи
ча лась</w>
Ива нович</w>
в тор
пере ме
цере мо
га й
кон цу</w>
недо ступ
гвар дии</w>
зи ю</w>
ят ы</w>
ле ц</w>
у де
компью тер
петербур г</w>
193 5</w>
женщи на</w>
на чиная</w>
ва телем</w>
оста нови
С ен
восто ка</w>
д вой
ши р
7 1</w>
пере гово
воен ные</w>
8 4</w>
С то
Е е</w>
специали зи
ру мы
поль ский</w>
территори ю</w>
мя г
до мов</w>
ме сторо
закон чил</w>
ви зан
ба х</w>
О т</w>
беж ать</w>
Х у
рус ская</w>
Ф ри
исклю чи
А т
л лек
ли де
вторы м</w>
про шли</w>
сопрово жда
б лю
XV II</w>
ку т
Т ат
фина л</w>
од ес
секрета рь</w>
де с
стре ль
про возгла
ря д
интер нет</w>
ту да</w>
основ ным</w>
ер ы</w>
ро з
де та
хо лод
i g
ви к
во и
ше в</w>
литера тура</w>
принадле жит</w>
d e</w>
ло ви
C h
само лет</w>
компози тор</w>
при зер</w>
за д
ли ю</w>
Ф а
Л ат
ло ва
ви но
провин цию</w>
обра з</w>
лы ми</w>
ре шения</w>
буду чи</w>
олимпи йских</w>
й ной</w>
во шли</w>
Я вляется</w>
собо ра</w>
уста навли
восто ч
ур ы</w>
ри к</w>
кра си
откры та</w>
ра нен</w>
в плоть</w>
же ст
су ме
ки тай
Рес урсы</w>
хозяй ств</w>
лейтен ан
редак ции</w>
6 7</w>
та н</w>
макси ма
лич но</w>
ко сая</w>
b o
ссы лка</w>
вы хода</w>
рас т</w>
ана то
г но
кораб ля</w>
год ской</w>
ана логи
ва тели</w>
представи тели</w>
пере вод</w>
каждо го</w>
да р</w>
th e</w>
да ние</w>
голо со
раст ения</w>
Ан то
ка но
созда л</w>
ге й
выступи л</w>
с мыс
материа лов</w>
га м
i s</w>
8 8</w>
ней ших</w>
лен но</w>
архе ологи
под ъ
чи ки</w>
ко вом</w>
пре мию</w>
вынуж ден</w>
энциклопеди и</w>
лу ю</w>
чис ла</w>
дер а</w>
сериа ле</w>
не сен
пу сты
обуч ения</w>
извест ных</w>
т ном</w>
реа лов</w>
собы тий</w>
ст рии</w>
вари ант</w>
ен ной</w>
ме й</w>
л ении</w>
л ением</w>
пере раб</w>
ме стах</w>
в ки</w>
без работ
ди е</w>
щи хся</w>
приня т</w>
се ть</w>
непосред ственно</w>
народ ного</w>
ву л
вод е</w>
х ри
чемпи он
ту аль
под ня
при гово
ла р
Вы со
ка п
гидро логическая</w>
лен ная</w>
луч ший</w>
с да
ру ки</w>
ав ри
тех ниче
стат ей</w>
Т ор
б ата
пре мия</w>
I V</w>
при ходи
Ко ман
Гидро логическая</w>
по ля
ком сомо
фа на
ито гам</w>
зан ской</w>
собо р</w>
пыта лся</w>
ад ы</w>
состави ла</w>
про б
ря де</w>
Петербур г</w>
нор ве
ев ка</w>
про све
Больш ой</w>
эк зем
заму ж</w>
Мак си
Но в
до ль
По че
моде ль</w>
два дца
уса дь
те лям</w>
акаде мию</w>
ги т
У ст
которо му</w>
си лу</w>
Поз же</w>
ха ила</w>
У мер</w>
профессо ра</w>
интер вью</w>
e d
следу ющем</w>
сред нем</w>
право м</w>
мен том</w>
сту дии</w>
з в
пре сси
во шла</w>
ш ос
дра мати
под чер
командо вал</w>
правл ение</w>
ле ги
К ав
ме даль
актив ными</w>
конферен ции</w>
194 9</w>
н .</w>
рус и</w>
борь бе</w>
По ли
Ш у
дирек тора</w>
выпу щен</w>
пси хи
обла д
З вез
191 4</w>
192 4</w>
рова ла</w>
горо дах</w>
отправи лся</w>
су деб
относя тся</w>
по чита
ко п
ки и</w>
собы тия</w>
корреспон ден
ди т</w>
ре ку</w>
борь бы</w>
про стра
за н</w>
использо вание</w>
насе ком
болез ни</w>
o s
ма ния</w>
о собы
использу ют</w>
193 3</w>
со пер
пись мен
административ ного</w>
ге т
г ,</w>
кон тинен
студен тами</w>
ве чер
ста би
со зы
ру р
ч ность</w>
состоя нии</w>
фак тически</w>
музы ка</w>
душ у</w>
Си би
увели чи
ч рез
ат у
уби т</w>
пис ателей</w>
о зе
л ению</w>
д ных</w>
се ст
К ни
учени ками</w>
194 7</w>
вели кого</w>
кла ды
день ги</w>
мо мента</w>
ем ы</w>
возглавля л</w>
смо лен
прези дент
экономи ческих</w>
ми не
ежегод но</w>
Ф ер
ска зал</w>
м бо
пе т
за мени
ла с</w>
ча са</w>
ье т
карти ны</w>
бы вшего</w>
мо ле
продолжа л</w>
ре е</w>
195 5</w>
принима ет</w>
у шел</w>
ме то
визи он
экзем пля
фай лы</w>
грам ма</w>
обла дает</w>
ся т</w>
пыта ется</w>
а ф
горо дом</w>
позво ля
пре ступл
архитек тур
в падает</w>
ш ь</w>
192 2</w>
с х
ви ду
ак тер
от дел
ассоциа ции</w>
пл од
сло в
7 4</w>
год о
ле вому</w>
Пер во
современ ных</w>
ча сто
6 1</w>
По что
сер ге
192 5</w>
По л
фили п
пос лу
образо ватель
продол жил</w>
транспор та</w>
ди ри
я понии</w>
ре кла
ад ре
си х</w>
Я понии</w>
из гото
сы ном</w>
ван ной</w>
ро зо
Сер ге
у велич
си г
ша л</w>
ж ать</w>
т ность</w>
патри ар
о ны</w>
Ар мии</w>
Не которые</w>
хи н</w>
Т ри
за ла</w>
9 6</w>
об работ
информа ция</w>
8 3</w>
согла си
рес ур
Э .</w>
жа ется</w>
Са н</w>
меся ца</w>
со м
у са</w>
поддерж ку</w>
лау реат</w>
Б ен
дале е</w>
по жар
195 3</w>
ши ри
ре став
Во й
крепо сти</w>
бли з</w>
ль ник</w>
прем ьера</w>
жда я</w>
стан тин</w>
ду т</w>
двена дца
ко ви
ш ко</w>
Х удо
четыр надцати</w>
5 8</w>
че б
С им
приро ды</w>
при вле
гре б
го лов</w>
сотруд ниче
ч т
рован ная</w>
ч ку</w>
пото му</w>
пере числен
виде о</w>
i c</w>
прибли зи
гос пита
гидро метеоиздат</w>
Гидро метеоиздат</w>
за явил</w>
док тора</w>
истори ческий</w>
Т ом</w>
тре мя</w>
дру гом</w>
ко сть</w>
пл ати
наступл ение</w>
бит ве</w>
Н И
0 2</w>
все союз
то пли
вы чай
но мер</w>
Ав тор</w>
руковод ство</w>
спе ц
команди ром</w>
5 3</w>
со т
Ра й
o g
дан ной</w>
А вто
уси ли
кораб лей</w>
193 4</w>
бу ма
ро во
Су ще
ви р
у слу
ня ми</w>
мень ше</w>
3 00</w>
девят надцати</w>
191 5</w>
н ена
нача лу</w>
Националь ный</w>
192 8</w>
ло е</w>
сти хотвор
соче та
бас кет
три надцатом</w>
регу ли
составля ют</w>
бер та</w>
сред няя</w>
тради ции</w>
от ды
гор ь</w>
a u
р эн
со лю
та лан
состоя ния</w>
щи ка</w>
К уз
ленин градской</w>
фестива ля</w>
ра ско
На ходится</w>
тель ности</w>
за кан
д ные</w>
луч шим</w>
ен ная</w>
о си
эпо хи</w>
арти ст</w>
полити ки</w>
С ин
ь ей</w>
административ ному</w>
ш ать</w>
устрой ство</w>
крас ный</w>
7 7</w>
дж и</w>
клас сов</w>
боль шей</w>
4 9</w>
S h
Москов ского</w>
ка ре
жи д
ве дет</w>
9 5</w>
в ро
руководи л</w>
круп ные</w>
евре ев</w>
изда ния</w>
сбор ная</w>
С ла
команди ра</w>
Бе л
тель ным</w>
По лу
истори ческих</w>
ав тором</w>
о фор
я дер
вы зыва
мот ря</w>
co m</w>
редак цией</w>
зо на</w>
не у
астро но
восста ния</w>
192 3</w>
р хи
би на</w>
Та бли
зо ны</w>
защит ник</w>
за кре
де ле</w>
Пер вая</w>
ни ями</w>
зо р</w>
обуч ение</w>
Нес мотря</w>
млад ший</w>
хозяй ство</w>
от ри
д ного</w>
192 1</w>
Пер вой</w>
случа й
зда нии</w>
не активных</w>
. ru</w>
лле р</w>
но чь</w>
е ма</w>
пассажи р
Исто ри
S t
живо писи</w>
Об ще
студен тов</w>
ва сто
кон суль
соответ ственно</w>
испол нитель
инжен ер
рази лии</w>
С пе
пу ль
Се ло</w>
Д аль
смер ть</w>
та бл</w>
недоступ ная</w>
руководи тель</w>
в ные</w>
ня ет</w>
инди виду
э ли
отнош ении</w>
цо ва</w>
международ ный</w>
Вы с
глу б
1 000</w>
en t
сек су
5 7</w>
Д жа
меро прияти
р ю</w>
связа но</w>
контро ли
по строи
ку пи
з ре
расстоя нии</w>
до б
г г</w>
сам б
чис ли
соро м</w>
переда чи</w>
пенсионе рами</w>
жи теля</w>
ж дена</w>
Ар хи
династи и</w>
а сси
посо би
х реб
вопро сы</w>
ше ствен
язы ки</w>
ч ени
мен е
все мир
гу н
де сан
9 9</w>
поли це
республи кан
игро ком</w>
совер шил</w>
э ваку
наде ж
ры й</w>
м ении</w>
состоя лось</w>
ди ума</w>
з вания</w>
И ль
Д э
та кого</w>
уча сток</w>
Со л
По хоронен</w>
вен гер
ко на</w>
На звание</w>
д ни</w>
с рок</w>
ново сти</w>
ис пании</w>
хи рур
пре два
дат ы</w>
Испа нии</w>
клу бом</w>
боль ших</w>
груп пой</w>
извест на</w>
0 1</w>
фе ро
многочислен ные</w>
оста льные</w>
мо е</w>
ван ные</w>
взаим одей
гово ря
отнош ений</w>
Цер ков
0 5</w>
вы я
193 2</w>
от да
кур сы</w>
Ос но
195 2</w>
санти метров</w>
ве с</w>
С лу
по вто
четыре х
це лая</w>
аэро пор
фон д</w>
Д не
ка л
тель ство</w>
при ход
пре образо
ви ли</w>
энер гии</w>
вос кре
ка лен
ни ки
созда нии</w>
па у
фло т</w>
переимено ван</w>
высо кой</w>
ла на</w>
О дин</w>
воз раст</w>
Табли ца</w>
з во
ты ш</w>
бро си
ро сто
груп пи
193 1</w>
род ствен
Са ра
Ви к
явл ение</w>
департа мент</w>
заня ла</w>
ю г</w>
пре следо
вен е
ос на
энер ге
Сред ний</w>
сцена ри
В ал
собра ние</w>
соответ ствии</w>
су до
5 9</w>
ско лько</w>
воз вы
ла м
7 3</w>
ван ная</w>
ско р
Ленин градской</w>
ко вая</w>
Из д</w>
тен а</w>
право му</w>
ъ ек
ша яся</w>
ж ев
7 9</w>
не активными</w>
поль зу
фрон те</w>
ак у</w>
бал ти
ва теля</w>
осуществ ляется</w>
са к
замести телем</w>
ра сти
ar d</w>
e c
ко вым</w>
ау ди
га ли
У част
б ке</w>
вес ной</w>
све та</w>
че скому</w>
ь ше</w>
участи я</w>
безработ ных</w>
крестьян ской</w>
вер а</w>
то ре</w>
ге орги
ри са</w>
грам м</w>
Де й
пес ню</w>
позна коми
рас поря
би т</w>
суще ствуют</w>
6 9</w>
водо хранили
дво е</w>
О ль
м не</w>
нача лись</w>
фа ши
ав торов</w>
се стра</w>
иг ру</w>
сол н
по л</w>
Акаде мии</w>
ро и
за повед
а ген
Андре й</w>
ж ные</w>
пре ступ
190 5</w>
пора жение</w>
тысяч ного</w>
удо б
азербай джан
мо г
ти к</w>
мо то
профе с
за регистри
ди на</w>
отли чается</w>
на следо
дан ного</w>
пе в
осуществ ля
объек тов</w>
тя ну
андре й</w>
Смо лен
a v
Энциклопеди я</w>
ц и</w>
бе зу
а х
9 2</w>
ан ы</w>
в ся</w>
ью стами</w>
Ф ло
нуж но</w>
Ф ин
техно логии</w>
ку бок</w>
отказа лся</w>
го рий</w>
Б ере
бе й
Алексе й</w>
вше йся</w>
ше в
ого нь</w>
ку ра
иници ати
ни ли</w>
фра г
алексе й</w>
а посто
само лета</w>
рас простра
XV I</w>
в .</w>
Ре чной</w>
цар я</w>
проис ходи
с выше</w>
ез д</w>
окку пи
пе й
195 1</w>
ко ме
до на</w>
из мер
скла де</w>
ма ну
пере веден</w>
i d
бо н
ден ти
ме ч
коло ни
чи ком</w>
иль я
би н</w>
сто н</w>
ре формы</w>
l o
по стра
П ен
международ ной</w>
за каз
ма с</w>
ду б
контро ль</w>
функ циони
пис ать</w>
ди к
Р обер
кар то
192 7</w>
четыр надцатом</w>
псе вдо
мат ер
логи ческий</w>
ос вя
куз не
лени на</w>
кана ле</w>
рос стат</w>
пи и</w>
от рас
Рос стат</w>
со н
лиш ком</w>
соедин ение</w>
потен циа
игро ков</w>
ны неш
э д
ма рия</w>
го ра</w>
истори ко</w>
лян дии</w>
учили ща</w>
Б ан
Стра ны</w>
то вых</w>
зы вал</w>
воен ную</w>
за ло
К А</w>
Та бл</w>
все российской</w>
уго лов
ка са
ко вый</w>
окончатель но</w>
дей ствует</w>
Та й
ра на</w>
звез да</w>
ди ли</w>
н ении</w>
ви ду</w>
соедин ения</w>
про ходят</w>
верхов ного</w>
i e</w>
ата ко
фрон тах</w>
сем у</w>
воз ле</w>
футбо ли
отде л</w>
Р од
Олимпи йских</w>
соревно ваниях</w>
православ ной</w>
мат чах</w>
с ных</w>
Н ар
предло жил</w>
х ер
ново сибир
д ной</w>
науч ной</w>
до ход</w>
т та</w>
да в
экономи ко</w>
а зи
населен ного</w>
П ок
би ологи
мен те</w>
ру н
кон станти
сю да</w>
объ яви
метал лур
Чемпи она
середи ны</w>
тю р
А фри
ча лись</w>
тор же
за р
дипло мати
окку па
занима ется</w>
во ин
пра в</w>
визан ти
теле визион
оригина льной</w>
Х е
А м
ма сте
ли ц</w>
Фи лип
автоно м
Б ор
один надцати</w>
аль ная</w>
ю гу</w>
ер уса
не много</w>
полу чения</w>
с ур
про фи
ы ми</w>
э л
опера ция</w>
случа ях</w>
Москов ский</w>
тив ной</w>
Совет ская</w>
ви та
0 8</w>
за в
бе ли</w>
пре пара
науч ный</w>
т ская</w>
а но</w>
о се
еруса ли
А зербай
с лишком</w>
подро б
е вича</w>
ль ская</w>
утвер жда
ев ском</w>
успе х</w>
е вой</w>
па ния</w>
пла сти
дви га
вше гося</w>
процес се</w>
маги стра
Лени на</w>
мо вич</w>
де кс</w>
мо го</w>
ра ста
ра т</w>
положи тельно</w>
про шла</w>
У ча
зако н</w>
го го</w>
командо ванием</w>
Север ной</w>
медиа файлы</w>
ли т</w>
8 1</w>
ья на</w>
С во
бур га</w>
фика ция</w>
но с</w>
не ль
па х</w>
чи в</w>
мо ти
мето д</w>
фи гур
ня х</w>
лов ского</w>
х та</w>
но ва
де кора
тер мин</w>
вы ста
ст ены</w>
ду ар
умер ла</w>
американ ской</w>
предприяти е</w>
крепо сть</w>
то рами</w>
диссерта цию</w>
Кра т
ки складе</w>
8 9</w>
хор ва
сохран я
пер спек
вод ос
факуль те
осен ью</w>
в на</w>
нача лся</w>
напа да
ни мать</w>
ля н</w>
та кое</w>
Уни версите
при был</w>
Ц е
отли чи
художе ственный</w>
по един
которы ми</w>
государ ство</w>
потер и</w>
Та м</w>
г ать</w>
сцен е</w>
по крови
за хо
ху тор</w>
ге кта
лю бой</w>
инжен ер</w>
из раи
из начально</w>
музы ку</w>
а зии</w>
бол га
вер х</w>
вос станови
ты вает</w>
бур ге</w>
a _latin</w>
Ди на
ци оне
слова ря</w>
Уст ье</w>
явл ения</w>
И х</w>
в сему</w>
за писа
н ера</w>
по м
Из раи
о хва
аэро порт</w>
лен ного</w>
жен ой</w>
Th e</w>
тив ы</w>
симво лизи
ба к
дру з
мет ро</w>
деся тью</w>
с в</w>
подготов ки</w>
пери оди
поряд ка</w>
тель ность</w>
само управления</w>
да ни
об су
пе чата
возвра щается</w>
т ских</w>
у точ
авиа ции</w>
ф у</w>
Ма рия</w>
приводи т</w>
поль ской</w>
виде о
ем е</w>
ча ли</w>
И то
ща яся</w>
за би
пе тр</w>
М ен
Ко ми
ми ру</w>
0 3</w>
скоро сть</w>
фе р</w>
музе е</w>
у д
любов ь</w>
пис ателя</w>
лан д</w>
мен о
191 3</w>
кажд ые</w>
тыся чей</w>
1 1
ю ни
экспеди ции</w>
един ственным</w>
З и
ж ного</w>
шос се</w>
го вой</w>
ши ть</w>
в клад</w>
бе р</w>
у ди
аль ных</w>
па ми</w>
ба шкортостан</w>
дина ми
Ба шкортостан</w>
бол гар
Ку бка</w>
е х
э сто
М ер
бан к</w>
К П</w>
язы ках</w>
литератур е</w>
За слу
гне з
фестива ль</w>
ан самб
извест ны</w>
петербур ге</w>
ша ют</w>
мат а</w>
проходи ли</w>
дж ор
боль шеви
на бра
аб солю
Мо лод
муниципа льное</w>
щи ми</w>
молод ых</w>
ком мента
Петербур ге</w>
направл ения</w>
дис ци
фи кси
ка пи
ки ри
бе к
специаль ности</w>
край не</w>
э ры</w>
зем лю</w>
ль да</w>
аль ного</w>
Пра ви
ман ской</w>
о собо
Ге орги
л э
поль ск</w>
пти ц</w>
при то
пор тал</w>
п ки</w>
послед него</w>
бое вой</w>
от ряда</w>
кораб ли</w>
характер изу
ц к</w>
сериа л</w>
ду ма
ар а</w>
изобре т
a p
го сти
дре вне
комплек са</w>
выбор ы</w>
народ ный</w>
дво рец</w>
мас шта
учен ый</w>
ло на</w>
на имено
раз ные</w>
ж ав
го ря
канди дат
ве де
из де
су дов</w>
8 7</w>
эле менты</w>
жд ению</w>
о пти
С бор
а ка
u l
Я н
рас кры
анг лии</w>
я ко
оч ков</w>
мо ни
и с</w>
Ка м
т ными</w>
воен но
Из датель
тив ных</w>
д зе</w>
Ав стра
В первые</w>
окру гу</w>
собра ния</w>
прави л</w>
оказыва ется</w>
представ лена</w>
поли ции</w>
ме че
го вор
бу н
от мен
обнару жи
ново м</w>
ат мо
семей ства</w>
я на</w>
ше т</w>
нов од
неф те
дела ет</w>
де ль</w>
ба ев</w>
осно вал</w>
ни тельно</w>
вели кобритании</w>
с наб
i on</w>
Вели кобритании</w>
политиче ских</w>
ча я</w>
ди ф
зо й</w>
самоле тов</w>
да вно</w>
результа т</w>
орга нов</w>
миро вич</w>
коман дой</w>
прожи вает</w>
под ру
Анг лии</w>
цар ь</w>
я рослав
сре до
пр еры
ха на</w>
но ме
оста нов
зри телей</w>
Ф иль
полови ны</w>
м с</w>
в ят
моле ку
да ла</w>
Наи более</w>
управл ению</w>
не далеко</w>
гре сси
к н</w>
про вед
имен а</w>
ван ного</w>
И мен
компа нией</w>
европе йской</w>
подчер ки
ми фо
ци р
еписко пом</w>
ф ом</w>
у зе
молод ой</w>
об вин
воору женных</w>
ин тен
Ново сибир
демон стри
автоно много</w>
т с</w>
бер ет</w>
вы стре
бли зи</w>
отде льных</w>
три надцати</w>
бо и</w>
В С</w>
ство вали</w>
ре сто
пов тор
0 4</w>
проек ту</w>
Пе тр</w>
завое вал</w>
железнодорож ной</w>
крупней ших</w>
дж он</w>
со вой</w>
следу ющие</w>
ле вом</w>
цион но</w>
с э
написа нии</w>
Пер вые</w>
гос под
кафед ры</w>
те п
представ лен</w>
установ лена</w>
пред при
Рус ский</w>
чрез вычай
ра иль
лег ко</w>
кир пи
евро пе</w>
ан ь</w>
з дра
го сла
а з
составля ли</w>
ар ген
кине мато
ран ьше</w>
Евро пе</w>
тив ные</w>
бере га</w>
объ явил</w>
си но
образо ваний</w>
со общества</w>
ме зо
фото графи
почто вый</w>
особен ности</w>
190 6</w>
п ро</w>
п ать</w>
В ин
9 8</w>
су лта
соревно вания</w>
существо вание</w>
сту ди
зо к</w>
территориаль ного</w>
А С
име ть</w>
фе й
Дер ев
интере со
по ступи
ч ке</w>
фо ль
191 2</w>
А зии</w>
д ко</w>
ка би
проб лем</w>
при чиной</w>
север у</w>
ри сун
е жи</w>
г рии</w>
сы но
Л ин
люб ви</w>
рель е
стар ше</w>
ри л</w>
подвер га
гла вы</w>
раль ным</w>
мор ских</w>
бан ка</w>
исключи тельно</w>
ке ль
Кон станти
освобо ждения</w>
a r</w>
дмитри й</w>
изуча л</w>
сти я</w>
ве ло
т ную</w>
импера тор</w>
эле ментов</w>
поез да</w>
д т</w>
геро ев</w>
от о</w>
выпу ска</w>
с ной</w>
подчин яется</w>
Ленин град
бер га</w>
девяно стом</w>
на жды</w>
сооб щи
ка мер
ос т</w>
юно ше
ти хо
ру бе
ча н</w>
под оз
по те
ш ении</w>
гар ни
гори т
лет них</w>
кра со
девяно стого</w>
гра мо
ли л</w>
американ ского</w>
у каз
вз рос
при ез
конкур са</w>
По зд
м ра
М ек
д ати
у тра
проводи тся</w>
по й
послед них</w>
опы т</w>
пра вед
медаль ю</w>
автодоро ге</w>
доро г</w>
С ле
Э кс
тро м</w>
официаль ном</w>
а с</w>
Рабо тал</w>
лен д</w>
гимна зии</w>
при каза
бо гат
пита ния</w>
побереж ье</w>
ь ева</w>
ма р</w>
ме д</w>
рован ного</w>
сотруд ни
сту ю</w>
фина ла</w>
рас следо
зи на</w>
микро н</w>
сту пен
ред ко</w>
щен ный</w>
д но</w>
Чер но
европе йских</w>
дру ж
че ш
че ство</w>
сыно вей</w>
архитек тор</w>
сер б
бит вы</w>
a b
лу н
тео рия</w>
оста вил</w>
вер ти
щ ением</w>
вы ходи
буд ди
француз ской</w>
мер т
бе лый</w>
ре шает</w>
воен ное</w>
земе ль</w>
гори зон
деся т
струк туры</w>
Дмитри й</w>
ло во</w>
по нен
X X
существо вания</w>
и денти
основ у</w>
объедин ения</w>
ме с
воспи тан
o d
на та
г г.</w>
С ти
не ожи
0 9</w>
верну ться</w>
ш ению</w>
ма ра</w>
я з
лен ное</w>
использу ет</w>
зна ком
защи тил</w>
бе к</w>
доку ментов</w>
кон грес
попыт ки</w>
ня ется</w>
еди но
К ру
тат ы</w>
Г ос
созд ать</w>
ща ют</w>
м м.</w>
мет оди
си лами</w>
да нии</w>
француз ского</w>
района х</w>
з я</w>
Верхов ного</w>
рова лась</w>
пре тен
зу б
p _latin</w>
изобра жения</w>
ка над
ност ями</w>
немец ких</w>
Ж у
кров и</w>
же р</w>
полков ника</w>
а спи
представ лены</w>
сти ль</w>
ро зы
про долж
сиг ма</w>
предприяти й</w>
сов хо
ц ева</w>
ери я</w>
дво ра</w>
0 7</w>
победи л</w>
ш ат
Пре зиден
ю би
ш ено</w>
о микрон</w>
Дж он</w>
в шаяся</w>
нес ли</w>
ья н</w>
хос лова
с ке
ште йн</w>
м ю
разно образ
ствен ности</w>
ли ны</w>
интере с</w>
То гда</w>
секрета рем</w>
ду мы</w>
вклю чен</w>
административ ным</w>
поло житель
жен ность</w>
верх ней</w>
ль д</w>
Д ок
до ра</w>
шести сот</w>
зна мен
кост ю
са ма</w>
ствен ными</w>
и мо
баталь она</w>
приве ло</w>
поло жения</w>
е гип
сер ви
централь ный</w>
емы м</w>
со ци
o w
ф из
при чем</w>
кла сс</w>
взя л</w>
i v
восста ние</w>
Л уч
пере ехала</w>
депута том</w>
лли н
ос ве
за х</w>
б ки</w>
ти ны</w>
маши н</w>
насле дия</w>
про до
откры тие</w>
нови ча</w>
й скую</w>
про ка
Т ю
i an</w>
страте ги
чи х</w>
гене рального</w>
й цев</w>
ли сти
про спек
ль во
жа ют</w>
объ ем</w>
физи ки</w>
ж ник</w>
тер на
мол да
ло жение</w>
я ния</w>
ци н
вер то
ва в</w>
лет него</w>
ле тов</w>
использо вались</w>
П уш
воло сть</w>
ев ская</w>
хо ва</w>
ган ы</w>
счита ет</w>
сты й</w>
творче ства</w>
0 6</w>
рабочи й</w>
ме стом</w>
дости га
ь ков</w>
сер жан
ки т</w>
па н</w>
до мой</w>
кра тный</w>
послед нее</w>
наз вал</w>
при шел</w>
о чи
коло ва</w>
e v
о став
Дж ор
Мно гие</w>
профес сором</w>
афри кан
Все российской</w>
офице ров</w>
ба ты
наря ду</w>
ра до
191 0</w>
u b
про хо
закон чи
се вер</w>
го н</w>
при су
услови я</w>
Спи сок</w>
уни ка
ко ордина
На ча
Э й
ли цен
вопро сам</w>
от вет</w>
кам пании</w>
исче з
ва силий</w>
бе ки
н ять</w>
у стойчи
Ва силий</w>
я з</w>
Пре м
щи ком</w>
высо той</w>
мод у
жиз нен
ло ко
с част
получи в</w>
источ ник</w>
йм с</w>
лев ской</w>
д ского</w>
исклю чением</w>
восточ нее</w>
Е ще</w>
П ис
А .
при влека
ст ской</w>
обла дают</w>
техни ку
ра ви
мат чи</w>
три надцатое</w>
тен ни
Л ан
фа ви
гра ции</w>
Ро сто
на си
ку ри
ис пр</w>
республи ка</w>
стрелко вой</w>
ре ше
у по
трен ера</w>
ф рак
ше му</w>
девят надцатом</w>
приблизи тельно</w>
предпри нимат
иде и</w>
стви ем</w>
рус ско</w>
си й</w>
h t
щ ать</w>
постро ено</w>
ми ся</w>
По этому</w>
ка р</w>
Ле й
американ ская</w>
лин ской</w>
за п
со средо
ча ми</w>
перечислен ных</w>
арми ей</w>
В месте</w>
4 00</w>
ис ход
еди ниц</w>
доку мен
гру зин
обеспе чения</w>
жа я</w>
пере мен
последо ватель
вра же
Со времен
щ ений</w>
ни зи
финан си
из раиль
191 1</w>
Север о</w>
ти пи
о с</w>
у стро
извест ного</w>
фестива ле</w>
ко рен
пят надцатом</w>
сло бод
рез ко</w>
аль ные</w>
организа ций</w>
пла н
об е</w>
ча н
вы игры
Ча сть</w>
девяност ых</w>
гла за</w>
цион ное</w>
не в</w>
государ ственных</w>
хи мии</w>
республи ке</w>
ре зиден
ок рас
канди да
выступл ения</w>
пор та
в близи</w>
o v
му чени
компози ции</w>
ти ке</w>
рас че
в ся
ба н</w>
Оте ц</w>
191 6</w>
распростран ение</w>
по сад
по ла</w>
яб рь
префек туры</w>
четыр надцатое</w>
Л ,</w>
изобра жение</w>
п ь
посо ль
ни ми
ше ва</w>
кре ди
зи мой</w>
нови д
ката лога</w>
у вер
грани це</w>
э ро
ди сло
удо в
пропа ган
уда ется</w>
сме шан
зда ний</w>
за бо
послед ней</w>
й дя</w>
му ж</w>
пре облада
сторо н</w>
сем ью</w>
пси лон</w>
еди ница</w>
Цент р</w>
продук ции</w>
укра ина</w>
из гна
в не</w>
ка кой</w>
вы ход</w>
нов ения</w>
лик види
ата ки</w>
Л ен
джа на</w>
кру г
Д об
Им пера
ство вать</w>
Укра ина</w>
м б
чи нов
кли мат</w>
ь ях</w>
ра ка</w>
откры тия</w>
свобод ы</w>
казах стана</w>
з ор
з ло
во ениздат</w>
запис ы
Во ениздат</w>
деятель ностью</w>
х ин
добро воль
товари ще
приме чатель
направ лен</w>
с ход
мини стром</w>
фи с</w>
Ито ги</w>
ко ла</w>
Казах стана</w>
э волю
Сы н</w>
метод ы</w>
Ба й
чен ной</w>
ту н
со ли
выпу ск
отсут ствует</w>
звез д</w>
в ни
шин ство</w>
9 7</w>
счита ют</w>
Но вый</w>
сов ме
от цом</w>
л ле</w>
Тер рито
га стро
метро в.</w>
немец кого</w>
лин ского</w>
ин струк
ью десятью</w>
15 0</w>
логи ческих</w>
пи шет</w>
восьми сот</w>
круп ный</w>
вше е</w>
бра к</w>
пос ла
си н</w>
ти лись</w>
я ков
г ва
по грани
ма ке
на каза
ле чения</w>
га ри
устрой ства</w>
ведо м
П ес
с ведения</w>
пре бы
построй ки</w>
то ма</w>
е ви
д же</w>
Филь м</w>
удосто ен</w>
челове ческого</w>
С кон
а не</w>
ли бе
Со вет</w>
ша й
представи тель</w>
ци фро
воро т</w>
Бо лга
нар ко
эта пе</w>
u t
ност и
обязан ности</w>
вы шли</w>
народ ной</w>
соро кового</w>
ди зай
Г он
Ц и
an d
оди на
к ра</w>
док тор
командо вание</w>
ло го
род ной</w>
запад ная</w>
9 1</w>
ко вод
помо га
пле мян
заслу ги</w>
аспи ран
ги ль
убий ства</w>
не г
пла стин
Да ни
ра к</w>
под зем
Се й
обра тно</w>
извест ность</w>
сооб щение</w>
зависи т</w>
ча сов
расска зывает</w>
чу к</w>
ю рий</w>
ту т</w>
Ю рий</w>
про петро
пу т
об ли
ко лов</w>
сохрани лись</w>
ле ст
свя зыва
сня т</w>
па ци
роди тели</w>
п ати
с ку</w>
доро вич</w>
ци ям</w>
ку стар
189 7</w>
пись ма</w>
вя з
бо ли
ур у</w>
существо ва
ч ом</w>
пре ем
це ли</w>
ше й
персона жей</w>
оказа лась</w>
уст ья</w>
ща ются</w>
тиче ское</w>
мо ста</w>
ль е</w>
пе ш
на пад
верх няя</w>
капита на</w>
парти ю</w>
че ва</w>
под ав
ки ев</w>
при ем
шин г
Заслу женный</w>
филь мах</w>
ен ного</w>
до каз
Почто вый</w>
де ми
фе кт</w>
б рас
восем надцатом</w>
Г руп
Ана то
меся ц</w>
ор би
на конец</w>
С тан
об ще</w>
метро поли
пре вос
Участ ник</w>
про сто
па то
o r</w>
немец кой</w>
авто ри
ка у
ин дей
дисци пли
оказа лись</w>
и ско
с ный</w>
би я</w>
дро й</w>
o p
по хи
долж но</w>
ф ур
ро ст</w>
в ных</w>
влад ения</w>
уво лен</w>
гу мани
с ные</w>
совершен но</w>
пи сей</w>
19 00</w>
ту рой</w>
бе й</w>
к ко</w>
Ка зан
u m
вод ой</w>
То л
ти ру
оста вался</w>
бра ка</w>
независи мости</w>
се мей</w>
свед ениям</w>
луч ше</w>
ци лин
жен ного</w>
ба за</w>
М э
ар ме
обо их</w>
отно шение</w>
ста рей
юж ет</w>
ор ен
дол гое</w>
сти ть</w>
От кры
челове ком</w>
бу х
пл ение</w>
190 8</w>
o c
происхо ждение</w>
програм ме</w>
стан ций</w>
ост рова
се ц</w>
Юж ной</w>
А х
интен си
емо е</w>
объя сня
губерна тора</w>
четыр ь
при ят
ви ть</w>
Ви ктор</w>
техни ческих</w>
си ла</w>
ре и</w>
кило метр</w>
про сь
представля ют</w>
осно вано</w>
ви ктор</w>
столи цы</w>
запис ь</w>
петербур га</w>
торгов ли</w>
север ный</w>
выра щи
сво б
приня ла</w>
окон чила</w>
сен т</w>
ма нов</w>
А гентство</w>
приходи лось</w>
на чат
извест ным</w>
монасты ре</w>
формиро вания</w>
брига да</w>
ь и
молод ежи</w>
ве че
с хва
тив ный</w>
рон у</w>
не обы
сотруд ник</w>
це ль</w>
сфер е</w>
ш кин</w>
С ар
пер ев
Во енно</w>
город ским</w>
Петербур га</w>
ф ера</w>
продолжа ет</w>
реш ением</w>
применя ется</w>
ев ро</w>
да ции</w>
точ но</w>
вид но</w>
установ лены</w>
В .
т ли
петербур гской</w>
П ан
са мая</w>
Де парта
Церков ь</w>
предва ритель
режис сером</w>
дер и
Х ан
депута т</w>
д ро</w>
ста ра
т ском</w>
суще ству
бо ев</w>
ци она
фон да</w>
примен ение</w>
за и
с си</w>
миллиар дов</w>
мо ро
ук ра</w>
один надцатое</w>
а к</w>
та ция</w>
В последствии</w>
а д</w>
об стоятель
Д жи
пере воз
щи ки</w>
Ни ки
ма ном</w>
прин ять</w>
украин ской</w>
сооб щения</w>
фо не</w>
коро лем</w>
способ ности</w>
Ф о
сте п
назна чения</w>
Кни га</w>
служ бе</w>
мо на</w>
ал та
дв ер
пись мо</w>
епархи я</w>
лет ней</w>
О дес
у жа
ъ ю
вл ением</w>
стол кнов
наз ваны</w>
о че
Т ар
раун де</w>
потре бо
пов стан
самы е</w>
офор м
се ров</w>
райо ны</w>
гит ле
тив ного</w>
специаль но</w>
жда ется</w>
ж ье</w>
тем но</w>
Ко д</w>
ле кар
л ло
в в</w>
Ки р
ху д
тро в</w>
ологи я</w>
К ла
ца рии</w>
парла мента</w>
эксперимен та
выстав ки</w>
К ата
живо пис
п лей</w>
зв уча
биз не
ребен ка</w>
бо ри
герцо га</w>
ни ям</w>
9 4</w>
количе ства</w>
Вы п</w>
пора жения</w>
о со
кры ль
де лега
9 3</w>
от в</w>
истори к</w>
жен ной</w>
государ ств</w>
удов лет
срав нению</w>
ци ан
по жа
памят ника</w>
голо вы</w>
пособи е</w>
тив но</w>
Б ель
компа ний</w>
в падения</w>
ве ль
баш кир
откры л</w>
Но вая</w>
ко вич</w>
бого сло
съ емо
пл одо
гре ч</w>
дина мо</w>
нор ма
не та</w>
голо сов</w>
ал горит
стро ения</w>
сен а</w>
образу ет</w>
мет ре</w>
поль зу</w>
проце сса</w>
осно вании</w>
доку менты</w>
канди дат</w>
Свя того</w>
запад ном</w>
теат раль
в следствие</w>
Ф у
способ ность</w>
проводи т</w>
Р им
па вел</w>
основ ы</w>
журна ле</w>
континен та
явля лась</w>
ен ным</w>
Я рослав
возра ста</w>
О круг</w>
народ ных</w>
кры м
ста ни
брать ев</w>
га лак
тер ми
дол го
ез да</w>
вул ка
рова лись</w>
дерев ню</w>
к ского</w>
стрелко вого</w>
Бли жай
Па вел</w>
КП СС</w>
преде лах</w>
e t</w>
муль ти
опер ы</w>
съем ки</w>
пе л</w>
й бы
an d</w>
Ч ар
гру н
убий ство</w>
ере б
техни ческого</w>
пес ча
конструк ция</w>
u m</w>
ст ки</w>
сове те</w>
ви й</w>
а гент
Р АН</w>
тех ника</w>
американ ских</w>
н ском</w>
девуш ка</w>
ве си
я че
сти ка</w>
учен ых</w>
ден еж
уда р</w>
треть ей</w>
По мимо</w>
об шир
вер са
в печат
ю ся</w>
ня ш
за строй
мат ы</w>
во ра
ри ка</w>
крат кий</w>
ф ен
Ки ев</w>
большин ства</w>
основ ная</w>
теле фонный</w>
Ок тя
называ ли</w>
вла ст
с право
Националь ной</w>
дво ря
со й</w>
ло жения</w>
фла г</w>
направл ение</w>
д ской</w>
ору дия</w>
ре чи</w>
оста лись</w>
англи йского</w>
нико лая</w>
в ный</w>
ц атель
шко л</w>
министер ство</w>
ф ос
большин стве</w>
рав ни
аэ род
ми т</w>
захо рон
Нико лая</w>
ак тиви
вои нов</w>
централь ного</w>
пол ный</w>
коми сса
об у
Х ри
пи н</w>
ш ад
те б
успе ха</w>
раз ы
P .</w>
ы р
поез д
па ра</w>
вер ш
кон кре
проз ви
хо чет</w>
Р И
ьет на
догово р</w>
на ка
са да</w>
Октя б
на ходит</w>
бю дже
по стави
ми ни</w>
Ре й
по ход</w>
пи сто
мест ные</w>
к но
зна ния</w>
пре пят
ни ческой</w>
неде ли</w>
се т</w>
рова лось</w>
н ный</w>
тру ды</w>
Дина мо</w>
a s</w>
совершен ство
библиоте ки</w>
190 9</w>
бело го</w>
ша ла</w>
со звез
пре ми
бу ль
начина ют</w>
ко рей
с наря
и ко
нов ской</w>
бое вые</w>
б н</w>
соревно ваний</w>
очер к</w>
отсут ствие</w>
ма к</w>
об щи
от лич
ленинград ских</w>
те пи
предло жение</w>
строитель стве</w>
ч ья</w>
свя з
г ском</w>
благо тво
меда лями</w>
вя т</w>
за ста
зо ва</w>
колхо з</w>
Ку ль
энер ги
баталь он</w>
тро л
вза имо
проек ти
ми ло
ор гия</w>
проводи лись</w>
духов ной</w>
Все союз
украин ский</w>
газе те</w>
ход ом</w>
вы бира
бе жал</w>
ви ш
пере селен
В Д</w>
участво вала</w>
не сти</w>
воору жение</w>
струк тура</w>
п лю
провод ятся</w>
тов ского</w>
год а
кар тина</w>
ва си
л ке</w>
спе ци
празд ник</w>
Т вер
оборо т</w>
зада чи</w>
примен ения</w>
ва ясь</w>
независи мость</w>
само е</w>
пари же</w>
во обще</w>
Ш ар
со с
нен ные</w>
з вании</w>
ги ган
дж о
Ба ш
Пари же</w>
фун да
Ки ри
по ва</w>
Ста р
стар то
ви к</w>
музыка льный</w>
мат ур
аль терна
попу ля
призна н</w>
й ных</w>
фа н</w>
каче ства</w>
До л
крестья н</w>
та ра
три дцатом</w>
слож ности</w>
на до</w>
смо тре
пла не</w>
п лы
сегод няш
участ ники</w>
ш тей
рас се
бло ки
Би бли
кре ст</w>
про ли
австра ли
г э
ш пи
ниж ней</w>
обо сно
инте ллек
восьми десятых</w>
биз нес</w>
запад нее</w>
печат и</w>
при мы
два дцатом</w>
С вер
реши ли</w>
ни же
ат ле
феде ра
Ва лен
из бран
по лез
уг ле
лен ным</w>
запа да</w>
од ному</w>
чу ть</w>
ад вока
гер б</w>
гра на
престо л</w>
190 4</w>
стра ции</w>
при каз
участво вали</w>
фор д</w>
изуч ения</w>
красно яр
o f</w>
регуляр но</w>
ни го
ги б
ш ля
каж дом</w>
Об щая</w>
баш ни</w>
ни ческого</w>
итальян ский</w>
авто ра</w>
по являются</w>
автомоби лей</w>
работа ют</w>
влия нием</w>
противо ре
деся тые</w>
при з</w>
вани ями</w>
воз об
ро вой</w>
за яви
ва тельно</w>
буду щего</w>
о па
дж он
фор тепи
насеком ых</w>
прин це
коммуни ка
ле вый</w>
о п</w>
тор пе
лин ский</w>
стра ница</w>
с пар
Ш ве
г ле
й ного</w>
сва дь
Те ат
з ени
мон го
Позд нее</w>
e a
в люб
язы чный</w>
н ений</w>
ж но</w>
та ври
цен три
высо ты</w>
в перед</w>
Ла у
ру к</w>
на ших</w>
зем ля</w>
окрест ностях</w>
маши ност
кар дина
тысяч ах</w>
нали чие</w>
спе кт</w>
Ко ло
сты м</w>
сред не
ку рен
x _latin</w>
эта п</w>
поче тный</w>
семи сот</w>
больш ом</w>
Скон чался</w>
скри п
экипа жа</w>
ан н</w>
националь ных</w>
рабо той</w>
програм м</w>
ж ки</w>
руководи телем</w>
Ли т
победи тель</w>
стоя л</w>
ра ми
се ло
жд ено</w>
чер ный</w>
ке вич</w>
нов на</w>
Д ом</w>
ма стера</w>
до вой</w>
недо стат
м бу
й цы</w>
Д рев
ши рина</w>
от казыва
ден е
йо та</w>
ро ви
Ф он
s h
усло в
укра ине</w>
са ми
фи ни
совет у</w>
Уча ствовал</w>
ци ви
an g</w>
жер тво
лек си
ги бели</w>
артиллери и</w>
дости гает</w>
кре сто
опублико вал</w>
правед ли
неболь шие</w>
Укра ине</w>
автомоби ль</w>
ба ми</w>
памят ники</w>
консерва тории</w>
ро на</w>
вши ми</w>
прожи вал</w>
Т ран
муж чина</w>
до мини
ре я</w>
ков ской</w>
Ле том</w>
при ходит</w>
Му зы
ря дов</w>
стра хан
противо поло
лагер ь</w>
роди ну</w>
П обе
бра том</w>
пар ке</w>
х во
клю че
высту пать</w>
пре одо
окт ябрь
га за</w>
живу т</w>
дво ре</w>
нере дко</w>
оборудо вания</w>
бо рис</w>
коло коль
пассажи ров</w>
при вод
прожи вали</w>
сред него</w>
источ ников</w>
та у</w>
ко лум
счита л</w>
ни ческий</w>
япон ской</w>
Ма с
Ко л
о ран
а ван
тори ю</w>
сем ьей</w>
за то
Бо рис</w>
го раз
ото бра
дел ю</w>
х э
ги тари
кре м
раз рабаты
мар ка</w>
бо же
дости жения</w>
учени ков</w>
отде льные</w>
те лю</w>
перевод е</w>
ти пов</w>
п сковской</w>
e d</w>
ря с
Издатель ство</w>
гер ба</w>
муниципалите та</w>
Па ра
акаде мия</w>
меда лей</w>
пря мо</w>
культур е</w>
анали з</w>
север а</w>
Ор ден</w>
побереж ья</w>
ро бо
Же лез
Х ор
полити ка</w>
полити ческий</w>
ографи я</w>
говори л</w>
коми те
тысяч ном</w>
Основ ные</w>
сел ения</w>
Крас ного</w>
Боль шинство</w>
хо й</w>
свед ений</w>
Пло тность</w>
эпо ху</w>
Теле фонный</w>
профессиональ ный</w>
четырь мя</w>
ж ю
б разильский</w>
у и
меня ется</w>
щ у</w>
ло ка
Ль во
ко р</w>
сра жении</w>
дет ства</w>
го та
ва ющих</w>
тру д</w>
програм му</w>
язы ком</w>
ари сто
га з
ве д</w>
w w
s p
от зы
С тат
П сковской</w>
глав ная</w>
сцен ы</w>
Пра вослав
пре д</w>
входи ли</w>
чи вает</w>
ва ш
лов ка</w>
ран ен
ро вании</w>
послед ним</w>
карьер е</w>
вар шав
види т</w>
ен тов</w>
v _latin</w>
футбо ла</w>
бе лые</w>
вели ко
суб ъек
ан тро
км 2</w>
филь мы</w>
футболь ный</w>
ста рин
пти цы</w>
при каз</w>
ше б
многочислен ных</w>
вы те
режи м</w>
скоро сти</w>
подраз дел
тре уго
гла вой</w>
голов у</w>
вели кий</w>
лин гви
про чем</w>
поддерж ки</w>
област ного</w>
П атри
ско рее</w>
поверх ность</w>
дела м</w>
ствен ность</w>
бе лая</w>
реш ено</w>
участи ем</w>
Ста ро
Ц К</w>
ла йн</w>
коллек тив</w>
Петербур гской</w>
прави ла</w>
вой н</w>
Боль шо
редак тором</w>
Имен но</w>
тек ста</w>
ме ли
де фис</w>
стар шего</w>
охра ны</w>
но сят</w>
деся тое</w>
X V</w>
шести десятом</w>
ди зем
в семи</w>
ин фра
логи ческие</w>
ле та
о щу
стан цию</w>
зер ка
ф т</w>
Ре ка</w>
л ять</w>
т руп
рас пре
Г али
оло г</w>
С ост</w>
неожи дан
лейтенан та</w>
город у</w>
я ро
поэ та</w>
никола евич</w>
про ф
стар шим</w>
Никола евич</w>
ры бо
дра матур
певи ца</w>
ис а
созы ва</w>
ня к</w>
мир ской</w>
станов ятся</w>
се т
ник то</w>
пос мер
семи десятом</w>
ко го
совет ские</w>
ал фави
ц ких</w>
про меж
оказа лось</w>
хра ме</w>
Дж он
ю щаяся</w>
тирова н</w>
н ных</w>
пер а</w>
А ли
встре чи</w>
с хо
Мек си
О ста
требу ет</w>
департа мента</w>
муж а</w>
памят ников</w>
восьми десятом</w>
a k
у мира
О АО</w>
ба зы</w>
ж ная</w>
на правля
шен ной</w>
соро ковом</w>
ф ли
парла мен
ну ть</w>
за яв
у строи
сло жи
бай каль
иль ям</w>
На уч
сим фо
верну лась</w>
я ет</w>
присоедини лся</w>
Х от
ин вести
пря мой</w>
хо тел</w>
не делю</w>
ба с</w>
во т</w>
оста льных</w>
1 20</w>
ма ра
возду ха</w>
a y</w>
а гро
уч реж
бере г</w>
извест ные</w>
мест ной</w>
сле д</w>
XI V</w>
фоль кло
сти н</w>
хи и</w>
установ ки</w>
Ка мен
ле жит</w>
воз ника
влади мира</w>
музыка льной</w>
Э С</w>
ниж нее</w>
древ них</w>
до цен
про ф</w>
Пре зи
у е
тов ской</w>
Глав ный</w>
Г ан
у на</w>
Влади мира</w>
они д</w>
лей бу
та на</w>
при кры
воспомина ния</w>
V I</w>
хар ьков
о ва
Ш вей
откры то</w>
ж ность</w>
амери ки</w>
ех ать</w>
де по</w>
гота вли
пол ное</w>
пе тра</w>
ри т
те ку
оз ву
го ла</w>
вл ять</w>
ги на</w>
заведу ющий</w>
вы гля
физи ко</w>
обще е</w>
тор у</w>
пол у</w>
двор ца</w>
у страи
о м
об ез
ства м</w>
К ер
Б рю
сред ы</w>
слу жит</w>
гитле ров
прош лом</w>
И г
те мати
воро неж
а ва
зам ка</w>
л ло</w>
источ ники</w>
гла д
из готов
я с
сем надцатом</w>
Се н</w>
М арти
пи ще
В ес
тысяч ный</w>
гря з
реали зо
v ol</w>
це лой</w>
раз новид
н ян
де пу
благотво ритель
золо то</w>
ар хангель
под разде
неф тя
на мест
федераль ного</w>
in e</w>
ситуа ции</w>
писа ние</w>
189 6</w>
вра та
Крат кий</w>
уби ть</w>
верти ка
ар т</w>
а ла
фото графии</w>
по куп
ж ка</w>
ри ть</w>
ат лан
брать я</w>
случа ев</w>
содержа ние</w>
b er
ниж няя</w>
цент ра
ро во</w>
ство вала</w>
ри ха</w>
разработ ки</w>
д ья
ен ное</w>
Совет ской</w>
ОО Н</w>
чи т
с с
по ляр
розы гры
сочин ений</w>
потенциа ла</w>
с п
о он</w>
в ь</w>
боль шее</w>
роди телей</w>
сест ры</w>
по вести</w>
Евро пе
обще ственного</w>
ци кл</w>
жа ла</w>
по лета</w>
состави ли</w>
ш ением</w>
га на</w>
я ку
спо собо
проек тов</w>
Красно яр
ло р
Дерев ня</w>
ли стов</w>
ме сто
ш ле
телевид ения</w>
спосо б</w>
пра вый</w>
очер ки</w>
экипа ж</w>
г ни
созда ны</w>
моск ву</w>
Пе тра</w>
учи телем</w>
c e</w>
собо ре</w>
е ров</w>
Моск ву</w>
ра д
зи с</w>
стои мость</w>
во сть</w>
а лы</w>
атель ных</w>
фель д
тяже ло</w>
популяр ность</w>
экземпля ров</w>
александ рович</w>
желез ная</w>
кали фор
совет ник</w>
лек ции</w>
раз ры
сопротив ление</w>
музыка льных</w>
Александ рович</w>
ази ат
ну ля</w>
ч ков</w>
пере жи
отды ха</w>
обозна чения</w>
ком понен
Э лек
Перво начально</w>
Амери ки</w>
ли ли</w>
постро ены</w>
необходи мости</w>
це н</w>
ли сто
восем надцатое</w>
дене г</w>
Ка ре
при клю
ку с</w>
Из вест
про игра
ко марки</w>
вы жи
цион ную</w>
ген а</w>
При н
функ циональ
со ж
ба ль
Ж из
пол ку</w>
пози цию</w>
Н ат
e g
жен ная</w>
c h</w>
ти лась</w>
возвра щения</w>
Ш та
у ва
персона ж</w>
ш тра
поддерж ке</w>
пу ск</w>
шести десятых</w>
ма рии</w>
нель зя</w>
ку ли
смо гли</w>
пе ла
кор не
и д
ф лан
город ская</w>
кален дар
О соб
май ора</w>
дво р</w>
рова ться</w>
Е гип
насто яте
при чине</w>
иде я</w>
верну ть</w>
Т ан
ру ках</w>
вы двину
явля лись</w>
об стре
ис пы
пу р
кон су
социаль ной</w>
Ст атисти
губер ния</w>
ме та</w>
кафе дрой</w>
к э
о ра
упо мя
восьми стах</w>
расска зы</w>
га ль
суще ственно</w>
дру гого</w>
разви тию</w>
б ет</w>
ни кает</w>
те чет</w>
т ти</w>
до став
к ент
аль но</w>
Ва си
г ности
Ж ен
У з
свя тых</w>
спе ш
анали за</w>
не за
королев ства</w>
ду хо
бес плат
отправ лен</w>
перегово ры</w>
госла вии</w>
то не</w>
пер сид
использо ванием</w>
педаго г</w>
оке ана</w>
да на</w>
зна мени</w>
осад ков</w>
мо лит
награ ды</w>
Кав каз
оф ф</w>
суме л</w>
син гл</w>
ориен ти
Коро лев
хо н
вид ные</w>
принима ли</w>
мо гла</w>
крас ную</w>
дет стве</w>
ли цо</w>
ж ности</w>
М еди
П об
логи ческого</w>
по сту</w>
ж дан
счи тать</w>
ро ты</w>
кры ма</w>
В ну
че лябин
бор ного</w>
три бу
Министер ства</w>
Кры ма</w>
вы шед
л ку</w>
куро р
Ж урна
но чью</w>
ки я</w>
а ла</w>
за вед
Государ ственной</w>
стра хо
ган ской</w>
щен ко</w>
информа цию</w>
ход у</w>
материа ла</w>
ка ждая</w>
под поль
книж ка</w>
ва лери
стади оне</w>
промыш ленность</w>
ar t
э лли
победи телем</w>
связа на</w>
контро ля</w>
ли дер</w>
До не
шкорто стана</w>
ре цеп
неболь ших</w>
ат ы</w>
ле ты</w>
с ени
использо вал</w>
дерев ень</w>
с пин
производи тся</w>
от куда</w>
похо рон
пи я</w>
до жд
поэ зии</w>
моби лизо
ле вич</w>
крас ная</w>
вест ник</w>
не органи
иллю стри
ника ких</w>
ланд ский</w>
пис атель
Росси йская</w>
Ра ди
се ли
журна лист</w>
по пол
т ские</w>
пос ы
запа с</w>
ж ным</w>
организо вал</w>
заму жем</w>
мага зин</w>
британ ской</w>
да й
ща лся</w>
Са мо
у ско
трол лейбу
участ ке</w>
ен т</w>
ха л
де тек
м ми</w>
до в
оккупа ции</w>
де с</w>
ог не
полу острова</w>
говоря т</w>
ба х
ф ов</w>
го мо
в ного</w>
физи ческой</w>
пос вяти
ван ге
К ин
У ль
юж нее</w>
ти мо
ре с</w>
нен ное</w>
Д ж</w>
жд ением</w>
Д ар
на дцат
клу бов</w>
ин дии</w>
ща лись</w>
од об
Д ю
самостоятель но</w>
е ль</w>
И ску
Ин дии</w>
учеб ных</w>
паралле льно</w>
команду ющего</w>
Восто чной</w>
му м</w>
источ никах</w>
выс шего</w>
д ский</w>
d s</w>
ли це
об щий</w>
ц кое</w>
не известно</w>
топо графи
сосредо то
парти зан
спис ке</w>
ста дии</w>
дел у</w>
подраз деления</w>
воен ным</w>
опреде ля
ч ье</w>
завер шения</w>
Тро и
та л
А ра
Институ т</w>
Об ъ
Бла годаря</w>
из м</w>
дру зей</w>
то вые</w>
чен ным</w>
конкур се</w>
факульте те</w>
Департа мент</w>
здра во
н ь
возвы шен
са ха
Т аври
щи еся</w>
поче му</w>
вто рую</w>
p p</w>
экспо зи
i o</w>
экономи ческой</w>
стан ской</w>
творче ство</w>
гораз до</w>
специали стов</w>
терро ри
2 3
верхов ной</w>
квар та
Ан на</w>
ва р</w>
освобо жден</w>
V ol</w>
ч о</w>
пла на</w>
ки о</w>
же ле
восьми десятого</w>
потеря л</w>
ф ру
запад ного</w>
по к</w>
рен е
архитек тора</w>
заня ли</w>
столи це</w>
на против</w>
на мер
х ла
ент ы</w>
ан дже
помощ ником</w>
дли ны</w>
ше вского</w>
истори ческого</w>
семина рии</w>
сра жа
i k
лов ской</w>
да ль</w>
се г
тель ства</w>
утвер жден</w>
федераль ной</w>
ю сти
опре деления</w>
зе н</w>
ба ра
раз ъ
г г-</w>
са л
та ки</w>
ма й</w>
рабо чего</w>
б реж
использо вали</w>
ген о
Ма рии</w>
ог нем</w>
номина ции</w>
л с</w>
за им
ме га
ре ша
василь евич</w>
а то
тин г</w>
сти ческая</w>
Пер вым</w>
длин у</w>
государ ственная</w>
здоров ья</w>
Василь евич</w>
гер а</w>
выбо р</w>
обще стве</w>
Ни дер
з ме</w>
неф ти</w>
про веден
ни ческих</w>
кобрита ния</w>
ро ста</w>
про мы
щен ных</w>
произо шел</w>
ме ти
ро дов</w>
команду ющий</w>
А ,</w>
юще йся</w>
располо женный</w>
та кая</w>
дь ми</w>
княже ства</w>
соеди ня
сы нов
