. 18436661
в 16138490
, 10528840
и 10171763
- 6968496
с 5840570
на 5784535
года 4090362
тысяча 3841461
девятьсот 2908854
к 2653587
две 2527809
тысячи 2459839
по 2336231
из 2248702
году 2180850
т 1945717
а 1936529
В 1920356
не 1827694
л 1687952
р 1622937
м 1560561
от 1532476
н 1516391
был 1474935
но 1455761
у 1444981
у@@ 1356807
о 1318027
на@@ 1279463
за@@ 1279238
не@@ 1261804
двадцать 1256292
с@@ 1250340
ка 1245568
по@@ 1239609
ной 1229319
е 1217264
ли 1173158
ки 1167256
ла 1162272
до 1138269
за 1136801
: 1101470
ли@@ 1069955
ных 1059640
д 1048237
о@@ 1042339
он 1037670
я 1036026
его 1033219
ные 1030690
та 1019521
ко@@ 1017130
ка@@ 1007305
про@@ 995518
для 985561
ный 981378
ная 975684
при@@ 963379
ро@@ 942217
а@@ 938186
ного 931166
до@@ 905318
С@@ 893220
ма@@ 892975
и@@ 873985
ского 873358
что 872580
в@@ 867899
к@@ 855355
т@@ 853107
г 849260
но@@ 835460
ни@@ 831065
как 816207
ской 814576
ва@@ 808008
й 802588
ви@@ 800305
девяносто 798196
ти@@ 793552
ский 790341
ре@@ 764851
ное 760875
ле@@ 756546
ми@@ 756127
ра@@ 747056
м@@ 745195
ным 742580
ном 736048
то@@ 735745
д@@ 735157
со@@ 732645
/ 732106
вы@@ 729950
во 729475
пять 729191
ри@@ 725818
три 725353
я@@ 705865
ба@@ 703198
от@@ 701880
мо@@ 701659
восемьдесят 695156
два 694697
ш@@ 693160
ло@@ 691338
А@@ 689114
ди@@ 686941
тридцать 680579
б@@ 675984
один 675821
па@@ 675081
та@@ 665627
си@@ 664960
го@@ 661616
восемьсот 661387
ке 658685
г@@ 656034
сорок 655933
ы 654228
п 652322
О@@ 650440
ты 649981
ть 649706
ны 644748
была 620441
пере@@ 618296
е@@ 615711
ю 613440
также 610458
й@@ 609575
ском 605754
ла@@ 602496
том 602152
ская 599646
семьдесят 597249
были 597109
л@@ 591664
четыре 589767
бо@@ 589486
са@@ 587668
год 583318
да@@ 582721
х 582414
шестьдесят 580978
первоисточника 576918
ку@@ 573666
было 570445
га@@ 570406
время 570192
i 570186
населения 568999
да 567897
области 566004
п@@ 563797
з@@ 562468
ло 561664
после 559751
пятьдесят 550002
У@@ 541614
ф@@ 540816
во@@ 533393
ков 533328
1 531612
э@@ 530783
ве@@ 529960
восемь 528920
ма 526796
К@@ 526306
при 523119
тов 523007
б 519299
ную 517411
р@@ 516287
шесть 514726
де@@ 513433
те@@ 511028
ру@@ 510267
ки@@ 509555
2 508701
ж@@ 504180
з 503519
ет 501950
н@@ 500344
ль 499022
же 497852
х@@ 494649
ку 494484
са 489716
лся 484716
В@@ 484389
раз@@ 484180
И@@ 483837
ль@@ 480292
семь 479962
или 470214
ме@@ 468978
ф 463452
жи@@ 463297
то 459956
человек 458836
ских 458702
под@@ 453318
ва 450599
пи@@ 448696
пе@@ 447965
ст@@ 446717
се@@ 446694
те 437477
ра 436049
января 435778
ч@@ 435431
под 434713
бе@@ 432638
s 430618
ными 430595
первого 430279
девять 428176
П@@ 426039
М@@ 425486
ю@@ 424954
ги@@ 423187
ха@@ 420495
об@@ 419357
га 417003
ин@@ 414659
чи@@ 413696
лись 413616
сто 412069
ча@@ 409339
Б@@ 408436
это 405606
би@@ 402073
ду@@ 400108
проверено 399970
су@@ 399612
Проверено 399402
ров 398520
че@@ 396598
Д@@ 393764
ское 388290
сти@@ 387971
Г@@ 386981
3 385566
ция 385097
лет 384548
августа 384495
ь 383445
ее 379088
их 377802
кон@@ 377796
она 376610
является 376210
ство 375848
ан@@ 373615
5 373028
из@@ 369099
ста@@ 368461
де 367461
Т@@ 366758
ские 366077
лась 365540
ции 364804
ют 362006
сто@@ 361021
ко 360919
ни 360114
гу@@ 359833
ства 359048
нов 357344
лу@@ 355336
ется 355195
ту@@ 353133
ей 351580
мая 349797
стал 344790
ноль 344465
му@@ 344359
ши@@ 342067
бу@@ 341355
ар@@ 340084
ь@@ 339217
С 338378
тысяч 338222
ния 337851
хо@@ 336827
ми 335086
ци@@ 332565
4 331232
Э@@ 331101
двенадцатого 331058
кой 331019
зи@@ 329927
А. 328138
ле 326020
марта 324541
вер@@ 322776
двух 321840
ения 321352
ник 321199
e 319947
ц@@ 318943
2012 318608
апреля 317986
ности 316804
ля@@ 316777
a 316543
ским 316394
Р@@ 316266
вой 315930
ром 314041
Н@@ 312005
состав 310771
декабря 309313
сентября 309171
со 308816
ша@@ 307091
октября 305937
ение 305878
февраля 305426
По@@ 305101
це@@ 303862
июня 303432
июля 303308
все 303144
С. 302938
цы 301235
лось 300742
В. 300382
му 300176
ние 299942
ста 299821
города 298008
На 295498
ге@@ 294951
э 294864
Ка@@ 293594
второго 293478
пу@@ 292260
ды 291551
войны 291416
архивировано 288436
Архивировано 288370
зо@@ 287685
реки 287586
ность 286131
ше@@ 285850
более 285422
го 284799
Л@@ 281536
ну@@ 279481
того 279454
ту 277836
ца 277382
так 276953
ем 275695
составляет 275428
мы 274437
где 274068
ноября 273836
района 273793
пре@@ 272901
ком 272767
ен@@ 272648
ис@@ 269659
девятого 269535
Ф@@ 268505
кар@@ 267465
фи@@ 267359
ля 266778
ников 264451
e@@ 264095
двести 263058
; 262949
они 262927
Е@@ 262702
годах 261935
Ко@@ 261044
скую 259712
рас@@ 258789
ются 257418
бы@@ 257074
ч 256616
n 256409
i@@ 256371
6 256235
3@@ 255954
вал 254659
ран@@ 253234
ц 251996
ор@@ 251817
который 251669
2013 251570
ск 251432
Ма@@ 251358
Х@@ 250894
мен@@ 250813
лен@@ 249437
вать 249298
ев 248894
только 248876
ст 248866
них 246989
На@@ 246283
мар@@ 245565
ак@@ 244201
лю@@ 243913
третьего 243327
вых 242857
ческий 242450
этого 242387
ний 241421
пятого 241367
гор@@ 240935
шестого 240900
ш 240673
восьмого 240463
находится 240224
тринадцатого 238178
Со@@ 237015
четвертого 236775
ж 236724
8 236138
ред 235899
лов 235720
хи@@ 235657
s@@ 235617
районе 235213
тан@@ 235093
Ш@@ 234599
ры@@ 234516
t@@ 233949
.@@ 233177
десятого 232862
ри 231411
ман@@ 230322
2@@ 229340
ческой 228411
семьсот 228153
бер@@ 227484
же@@ 226414
ника 226144
ней 226136
лы 225261
ря@@ 224471
седьмого 224021
целых 223458
ер@@ 222943
2010 222817
По 222007
t 221854
пер@@ 220653
пол@@ 219908
7 219770
4@@ 219637
стро@@ 219631
ке@@ 219017
ско@@ 218739
него 218255
сте@@ 218214
За@@ 217973
ат@@ 217857
цию 217708
се 217286
англ 216638
ре 216203
жа@@ 215074
чер@@ 214947
ры 214850
вает 214339
воз@@ 213931
ги 213002
население 212937
тся 212833
ческих 212611
бы 212019
9 212010
город 211818
вого 211361
Про@@ 211230
ному 210536
века 210369
этом 210334
10 210277
вая 210206
a@@ 209806
дом 209697
вые 208838
первый 208732
аль@@ 208706
территории 208504
четырнадцатого 208262
переписи 207923
ска@@ 207742
ками 207532
Са@@ 207473
гра@@ 207301
тер@@ 206911
стра@@ 206658
М: 206558
вания 206020
жен@@ 205637
b 205377
около 205285
годы 204958
ники 204723
фа@@ 203617
полу@@ 203574
фе@@ 203444
пятнадцатого 203099
ении 203041
часть 202348
деревня 201988
нем 200813
ев@@ 200385
село 200275
сов 200251
ме 200106
пятьсот 200106
им 199780
между 199352
второй 197099
ты@@ 196302
части 195924
триста 195879
сы 195860
o 195788
После 195720
ос@@ 195288
нии 194844
лом 194280
лан@@ 193741
o@@ 193536
ений 193518
россии 193507
вание 193348
ческие 193052
ти 192648
Бо@@ 192267
l@@ 192100
несколько 191994
России 191670
зна@@ 191654
составе 191468
однако 191220
m@@ 190459
вен@@ 190332
три@@ 190200
5@@ 190192
цев 190145
Я@@ 189303
2014 188860
бра@@ 188499
Ми@@ 188481
через 187959
пред@@ 187322
поло@@ 187295
пла@@ 185903
получил 185592
вали 185404
которые 185162
p@@ 185143
еще 185074
мира 184924
ться 184220
входит 183851
од@@ 183787
ческого 183558
рус 183272
d@@ 182402
17@@ 182149
тро@@ 181711
u@@ 181362
дов 181327
ы@@ 181223
К 180682
18@@ 180637
родился 180025
6@@ 179904
вы 179722
2011 179327
секунд 179158
может 178869
когда 178797
З@@ 178247
кра@@ 178240
человека 177551
одиннадцатого 176449
трех 176131
ба 176017
площадь 175929
15 175800
рен@@ 175782
нее 175643
S@@ 175448
щ@@ 175200
СССР 175098
работал 174965
ья 174920
шестьсот 174182
той 173922
городе 172769
против 172541
г. 172492
ну 172426
стве 172106
8@@ 171907
ал@@ 171899
словарь 171008
ций 170305
ди 170152
лин@@ 170071
20 169995
городских 169744
центр 169731
фо@@ 169499
И. 169401
кан@@ 169259
лен 169238
b@@ 168949
место 168679
четыреста 168346
12 167818
ением 167493
ему 166619
истории 166299
1@@ 165630
ках 165296
25 164929
Ре@@ 164659
гре@@ 164605
эн@@ 164508
A@@ 164448
ров@@ 164348
ством 164346
ью 163948
Ар@@ 163518
пяти 163437
М. 163147
кор@@ 162496
уже 162102
7@@ 160949
ур@@ 160943
он@@ 160874
ван@@ 160775
скому 160037
есть 160023
ха 159708
2015 159569
вод@@ 159282
затем 159208
десятых 159138
десять 158581
чтобы 158392
тра@@ 158186
ген@@ 157946
населенных 157490
нов@@ 157267
двадцати 156913
пра@@ 156809
сти 156801
Ме@@ 156404
Н. 156350
ду 155672
ником 155453
теле@@ 155122
сер@@ 154822
па 154702
n@@ 154610
над 154198
Ю@@ 154020
сло@@ 153570
Ба@@ 153362
зе@@ 153273
тор@@ 153222
ден@@ 152847
9@@ 152619
0@@ 152486
сть 152472
лет@@ 152413
вается 152269
лия 151999
ве 151286
M@@ 150848
g@@ 150538
вым 150519
ня@@ 150476
ье 150460
первом 150398
Го@@ 150180
район 149460
имеет 149113
обра@@ 148612
ческая 148409
чем 148334
ению 148045
льный 147806
Ли@@ 147766
30 147760
11 147111
ени@@ 146882
этот 146477
Не@@ 146302
c@@ 146273
жизни 146139
тель 146087
Ку@@ 146074
этой 145965
всего 145702
льной 144764
армии 144714
стов 144676
При@@ 144344
название 143662
сельского 143646
гла@@ 143606
d 143386
вра@@ 143315
км 143102
тен@@ 143093
тор 143018
ска 142837
своей 142836
среди 142830
вич 142625
2009 142615
кры@@ 142526
откры@@ 142513
h@@ 142486
чу@@ 142349
род@@ 142233
ями 142221
ях 142084
k@@ 141939
f@@ 141719
кри@@ 141552
ков@@ 141194
ско 141087
сом 140789
вместе 140730
ав@@ 140667
16 140427
жения 139759
мор@@ 139612
16@@ 139492
фор@@ 139225
всех 138898
вос@@ 138839
сла@@ 138704
там 138617
нию 138606
чи 138569
Се@@ 138225
втором 138078
Та@@ 138061
лей 137902
кре@@ 137873
000 137554
Ч@@ 137515
дж@@ 137427
бор@@ 137411
йского 137154
участие 137069
одного 137053
группы 136933
поли@@ 136765
Си@@ 136731
оста@@ 136550
йской 136195
пунктов 136070
можно 135915
год@@ 135901
мер@@ 135898
девятом 135829
лы@@ 135717
ющих 134756
ан 134654
численность 134642
кие 134583
вол@@ 134332
пор@@ 134280
обще@@ 134270
одна 134123
зу@@ 134061
ян@@ 133824
-@@ 133789
p 133473
m 133338
вар@@ 133004
Ан@@ 132448
мов 132165
ем@@ 132139
ня 131929
ать 131873
B@@ 131739
ющий 131714
вала 131693
Ц@@ 131432
ман 131077
стала 131036
Т. 130983
одной 130827
которых 130723
вый 130709
четырех 130592
C@@ 130448
ом 130257
Он 130227
ar@@ 130149
си 129911
сен@@ 129745
быть 129590
ева 129330
u 129302
ван 129172
14 129169
свою 129074
ге 129005
начале 128756
стре@@ 128486
лич@@ 128465
c 128283
ющие 128107
ISBN 128011
тах 127883
ним 127850
без 127441
мы@@ 126905
17 126862
кли@@ 126543
чен@@ 126415
тель@@ 126367
лу 126365
18 126288
губернии 126226
ша 125996
тами 125886
качестве 125701
с- 125404
очень 125358
Мо@@ 125346
времени 125322
окончил 125275
других 124818
ностью 124803
13 124766
бан@@ 124689
цен@@ 124605
сы@@ 124512
Ле@@ 124465
Население 124184
Ж@@ 124020
О 123916
су 123829
2008 123501
лей@@ 123479
осно@@ 123462
род 123236
себя 123117
высо@@ 123106
годов 123098
ад@@ 123031
рия 122907
жение 122779
восьмом 122707
Ро@@ 122579
шестом 122495
йский 122467
Ви@@ 122422
пло@@ 122407
пятом 122254
экз 122182
цией 121967
Па@@ 121214
данным 121063
кова 120585
P@@ 120580
седьмом 120544
им@@ 120478
поселения 120452
er@@ 120335
ро 120260
ере@@ 120244
лли@@ 120237
вают 120213
конце 120034
15@@ 119835
скими 119821
раз 119755
сайт 119542
гри@@ 119522
гу 119348
тур@@ 119113
которой 119054
l 118829
мом 118555
своего 118419
кла@@ 118390
ов 118202
То@@ 118114
которая 118012
Де@@ 117999
изд 117999
тре@@ 117994
T@@ 117984
Га@@ 117878
ок@@ 117831
Ки@@ 117673
двенадцать 117621
четвертом 117550
тора 117093
работы 117059
0 117046
кий 117045
Су@@ 116781
третьем 116738
фильм 116692
Ра@@ 116492
2007 115919
нет 115892
пар@@ 115808
дер@@ 115759
R@@ 115755
y 115683
чно 115657
ру 115368
республики 115320
вин@@ 115264
фа 115236
с. 115076
бар@@ 114882
чный 114767
24 114670
ды@@ 114623
сельских 114513
центра 114254
имени 114169
нен@@ 114138
об 114007
ена 113775
бро@@ 113737
ям 113651
эк@@ 113505
кур@@ 113396
округа 113326
ши 113249
ча 113223
история 113190
бур@@ 113132
день 113004
I@@ 112936
энциклопедия 112901
or@@ 112715
льные 112704
вом 112641
вое 112633
рав@@ 112393
сты 112178
льного 112048
статистики 112004
тых 111886
w@@ 111793
чной 111717
D@@ 111678
21 111590
ати@@ 111588
гар@@ 111523
r@@ 111364
ще@@ 111296
ща@@ 110908
уз@@ 110614
семье 110552
льных 110432
лена 110387
ган@@ 110349
страны 110286
жителей 110209
рус@@ 110181
Кар@@ 110115
тринадцать 110113
чных 110107
нова 110078
километров 110053
одним 109931
одиннадцать 109908
шен@@ 109907
19 109882
А 109824
диа@@ 109656
22 109501
чел 109402
гов 109386
ход@@ 109287
ху@@ 109133
мон@@ 108999
собой 108883
стали 108838
тем 108827
няя 108735
кро@@ 108431
шести 108421
российской 108411
дра@@ 108245
ери@@ 108218
% 108190
боль@@ 108169
сель@@ 108166
23 108116
лод@@ 107979
ству 107844
ств 107781
рии 107754
атель@@ 107719
каза@@ 106775
период 106725
Ве@@ 106711
кру@@ 106699
Численность 106635
начал 106420
y@@ 106298
жен 106155
точ@@ 105998
стан@@ 105953
станции 105775
встре@@ 105726
26 105702
зем@@ 105566
Ва@@ 105537
До@@ 105410
28 105046
призна@@ 104797
ново@@ 104777
тру@@ 104721
обо@@ 104711
10@@ 104678
первое 104675
роль 104606
У 104571
Мар@@ 104405
ть@@ 104404
шей 104258
селе 104153
соб@@ 104131
роди@@ 104060
начала 104029
дже@@ 103887
кая 103696
ница 103641
g 103483
Бе@@ 103416
восто@@ 103342
кино@@ 103297
шу@@ 103269
тин@@ 103227
которого 103180
Но@@ 103147
щи@@ 103077
вана 103023
хар@@ 103016
лов@@ 102810
коро@@ 102742
нского 102682
рей@@ 102681
зан@@ 102631
институт 102584
27 102558
жил 102542
an@@ 102523
тые 102154
села 102106
пен@@ 101886
эй@@ 101807
П. 101785
вет@@ 101729
женщин 101697
тый 101628
первой 101610
наук 101430
уда@@ 101173
шие 101025
ины 100769
r 100606
ву@@ 100541
лии 100525
здесь 100421
мат@@ 100366
ких 100278
тором 100135
G@@ 100081
2006 100062
США 99874
дри@@ 99871
пятнадцать 99852
гру@@ 99769
переда@@ 99672
вели@@ 99629
сон 99508
тер 99372
гро@@ 99327
теля 99301
нами 99264
Г. 99237
называ@@ 99211
Ру@@ 99109
берегу 99074
прави@@ 98957
река 98934
лишь 98908
ления 98763
вший 98739
поль@@ 98566
образом 98484
L@@ 98437
мой 98399
гер@@ 98297
университета 98205
Кон@@ 98084
телей 98060
ять 97865
in@@ 97789
шестнадцатого 97668
составляло 97639
назначен 97634
ель@@ 97632
совета 97528
сша 97376
тридцати 97257
бело@@ 97246
N@@ 97239
кого 97149
син@@ 97018
Ха@@ 97011
вался 96910
Во@@ 96905
образ@@ 96900
сан@@ 96746
хе@@ 96434
город@@ 96360
километра 96360
тный 96354
смерти 96326
северо 96203
I 96202
мя@@ 96195
чные 96066
дан@@ 96050
h 96015
ске 95998
церкви 95895
результате 95860
государственной 95701
Бу@@ 95638
ток 95587
льная 95546
архи@@ 95463
воло@@ 95348
рами 95174
ший 95164
ком@@ 95134
ким 95060
разви@@ 95025
истори@@ 95023
другие 94997
2000 94947
двадцатого 94805
Вы@@ 94786
14@@ 94785
вз@@ 94659
кам 94589
бли@@ 94130
Ти@@ 94077
сын 94072
льно 93918
настоящее 93824
сни@@ 93806
ческое 93793
метров 93773
кин 93730
ун@@ 93725
зы 93661
on@@ 93604
лл 93506
Ста@@ 93498
изда@@ 93453
мин@@ 93421
созда@@ 93316
точка 93184
эти 93177
связи 93144
тон 93139
мужчин 92933
ера 92892
часто 92772
еди@@ 92737
юго 92521
жа 92434
чного 92393
впервые 92369
дар@@ 92276
являются 92006
могут 91861
мо 91667
ено 91628
много 91593
дия 91331
29 91262
гон@@ 91200
50 91144
чная 91006
31 90845
x 90823
сту@@ 90690
занимает 90672
Однако 90517
2002 90484
посе@@ 90469
своих 90249
ней@@ 90155
Че@@ 90079
электро@@ 89965
заклю@@ 89876
цкий 89847
само@@ 89779
образо@@ 89768
зов 89672
сорока 89655
нах 89627
низ@@ 89625
Это 89538
име@@ 89456
ир@@ 89413
семи 89350
бри@@ 89339
лены 89316
При 89270
отме@@ 89223
став@@ 89195
важ@@ 89168
жена 89159
Да@@ 89088
рах 89063
ше 89000
клуб 88873
II 88683
зе 88633
вод 88484
щения 88353
/@@ 88261
слу@@ 88219
цами 88135
2001 88040
анти@@ 87888
E@@ 87742
люби@@ 87705
Российской 87605
носи@@ 87473
Те@@ 87467
отде@@ 87434
вались 87411
че 87259
Республики 87255
образования 87182
2004 87129
школы 86945
авиа@@ 86827
секунды 86805
сле@@ 86678
даже 86657
торов 86356
ходе 86313
член 86297
ющей 86264
коммуны 86214
v 86037
ата@@ 86015
щих 85985
Ин@@ 85931
культуры 85696
тной 85584
тели 85388
ена@@ 85310
k 85300
ших 85248
2005 85164
этих 85143
ющим 84960
дви@@ 84876
нь 84868
жи 84865
сси@@ 84841
команды 84707
свой 84706
цу 84657
ят@@ 84636
чение 84635
ство@@ 84557
бе 84500
пятидесяти 84480
вед@@ 84262
течение 84013
авто@@ 83994
вя@@ 83921
Ла@@ 83909
цов 83883
мест@@ 83861
ине 83834
чей 83800
Ди@@ 83782
щение 83750
лой 83654
восьми 83647
ление 83591
Ри@@ 83538
вский 83498
ум 83493
генерал 83487
гом 83457
древ@@ 83450
расположен 83450
разде@@ 83325
ца@@ 83273
тив@@ 83244
цар@@ 83148
це 83117
рай@@ 83067
И 82952
федерации 82851
чения 82758
числе 82734
учи@@ 82691
кроме 82649
сотых 82649
лек@@ 82630
От@@ 82568
уби@@ 82556
Пер@@ 82445
пле@@ 82363
раль@@ 82344
русский 82195
er 82182
ваться 82167
голо@@ 82151
Лю@@ 82127
группа 82089
девятнадцать 82085
грани@@ 81925
четырнадцать 81892
рь 81851
13@@ 81787
щий 81769
en@@ 81766
стом 81698
умер 81662
тар@@ 81648
много@@ 81647
рода 81631
ряд 81579
современ@@ 81570
188@@ 81564
оди@@ 81467
партии 81439
пят@@ 81370
ственных 81347
имя 81314
ссо@@ 81081
плат@@ 80960
наиболее 80902
степени 80886
ственной 80862
фран@@ 80801
сем@@ 80789
выми 80776
ениях 80740
свои 80708
рон@@ 80619
перед 80538
ждение 80511
союза 80461
лено 80386
игры 80197
графи@@ 80180
дней 80173
ес@@ 80141
За 80100
вших 80095
она@@ 80063
Му@@ 79982
ез@@ 79963
область 79932
v@@ 79926
опера@@ 79892
Лу@@ 79860
ск@@ 79841
пара@@ 79709
ход 79708
част@@ 79540
шест@@ 79526
тая 79525
детей 79522
F@@ 79517
лег@@ 79441
шения 79401
ждения 79303
честь 79298
цкого 79257
деревни 79204
мировой 79144
ныне 79143
щен@@ 79114
тай@@ 79083
защи@@ 79067
класси@@ 79062
девятнадцатого 79023
Пе@@ 78989
нский 78961
эта@@ 78907
тных 78776
прин@@ 78729
сил 78701
националь@@ 78452
ате@@ 78414
экономи@@ 78261
ющая 78217
золо@@ 78158
районов 78128
бу 78119
будет 78096
захва@@ 77936
ницы 77848
способ@@ 77804
поме@@ 77733
укр 77719
семнадцатого 77651
выпол@@ 77637
шего 77572
ски 77563
пяти@@ 77476
тные 77425
юж@@ 77299
V@@ 77252
почти 77216
вновь 77123
свое 77120
сам 77107
валась 77097
фильма 77097
H@@ 76963
церковь 76924
пы 76922
сборной 76922
типа 76892
al@@ 76763
компании 76751
евич 76696
ам@@ 76504
вой@@ 76490
улица 76433
шая 76309
актив@@ 76304
чего 76288
новый 76212
вской 76169
жизнь 76158
участвовал 76122
фак@@ 76097
нес@@ 76085
зер@@ 76076
рует 76074
если 75964
специаль@@ 75805
вля@@ 75725
лат@@ 75528
00 75488
новой 75417
М, 75337
первым 75330
st@@ 75306
дет@@ 75177
зма 75144
тон@@ 75122
данные 75073
развития 75056
пон@@ 74968
тил 74867
рин@@ 74848
украины 74841
Украины 74750
Также 74720
at@@ 74647
ен 74647
нен 74626
основном 74617
ок 74598
чен 74557
186@@ 74530
ющего 74422
лем 74402
логии 74389
распростран@@ 74381
вид@@ 74269
поселок 74230
системы 74164
академии 74068
май@@ 73936
ся@@ 73897
менее 73887
согласно 73884
тии 73867
w 73848
2003 73729
километрах 73715
деление 73665
ья@@ 73660
большой 73574
_latin 73549
Ге@@ 73538
кам@@ 73500
государственный 73360
мен 73349
ще 73230
кино 73213
над@@ 73188
100 73080
значитель@@ 73057
хи 73023
стороны 73021
поч@@ 72976
тного 72935
перепись 72863
кое 72816
фин@@ 72722
ствует 72721
ай@@ 72699
кс 72575
Дж@@ 72566
обы@@ 72538
Во 72512
прав@@ 72379
участ@@ 72368
север@@ 72348
Его 72325
вского 72298
Бер@@ 72163
состоя@@ 72080
восемнадцать 71986
жены 71905
лла 71902
фер@@ 71806
коло@@ 71790
образование 71709
вла@@ 71697
re@@ 71682
тек@@ 71569
тия 71560
бере@@ 71403
мир@@ 71345
семнадцать 71344
шение 71265
интер@@ 71256
восемнадцатого 71108
Входит 71065
количество 71055
рован 71053
клю@@ 70948
Фе@@ 70900
широ@@ 70849
государ@@ 70829
Л. 70764
сам@@ 70734
разме@@ 70695
км2. 70639
окру@@ 70535
бой 70533
джа@@ 70506
вало 70467
занима@@ 70367
Е. 70353
кина 70306
позже 70283
муниципальным 70252
сезона 70225
людей 70153
чески 70141
провел 70125
спо@@ 70099
веду@@ 70066
ваются 70059
иг@@ 70059
Гу@@ 70049
мати@@ 69990
чин@@ 69965
сайте 69927
уничто@@ 69910
художе@@ 69908
шестнадцать 69906
40 69903
рос@@ 69881
пан@@ 69833
ственные 69633
все@@ 69623
тя@@ 69609
187@@ 69585
логи@@ 69585
шестидесяти 69582
дро@@ 69511
мир 69486
ами 69399
прода@@ 69367
обе@@ 69329
лых 69310
ъ@@ 69304
клуба 69300
муниципальных 69271
больше 69217
империи 69190
атель 69138
станция 69112
тым 69062
мини@@ 69028
исследо@@ 68971
спа@@ 68971
административно 68940
Ал@@ 68925
али@@ 68909
дру@@ 68882
пода@@ 68820
щие 68783
например 68776
хода 68739
спи@@ 68696
эта 68690
ностей 68683
некоторые 68676
линии 68657
сен 68648
нской 68638
семи@@ 68611
ил 68574
организации 68530
нения 68453
X@@ 68446
обычно 68408
минус 68404
вича 68387
Федерации 68383
руется 68260
вскоре 68232
ch@@ 68206
многих 68160
ски@@ 68153
зы@@ 68028
наз@@ 67980
пы@@ 67945
Под@@ 67942
сред@@ 67925
гии 67912
пользо@@ 67832
нам 67831
вании 67768
ческим 67749
Об@@ 67743
многие 67699
четвер@@ 67686
воль@@ 67647
хов 67639
стер@@ 67634
ены 67627
физи@@ 67621
шли 67585
восьмидесяти 67578
коллек@@ 67470
СПб 67382
кана@@ 67373
рок 67372
ственного 67350
лин 67315
месте 67257
пис@@ 67246
цо@@ 67216
вернулся 67204
189@@ 67157
Ни@@ 67152
ровал 67047
использо@@ 66997
котором 66915
дома 66908
дает 66906
телем 66844
полностью 66842
управления 66836
первые 66826
лес@@ 66746
стри@@ 66745
т. 66713
Фран@@ 66659
шим 66614
англи@@ 66543
мас@@ 66534
ческом 66534
поро@@ 66506
побе@@ 66498
края 66484
подоб@@ 66430
лях 66395
жу@@ 66388
войска 66374
пат@@ 66364
тот 66344
образованиям 66336
действи@@ 66266
власти 66241
дости@@ 66221
лина 66217
работа@@ 66181
стало 66090
зации 66052
закры@@ 66036
членом 65979
льным 65916
рабо@@ 65916
нин 65794
язы@@ 65776
торы 65709
жда@@ 65683
опреде@@ 65621
Под 65610
би 65574
Ло@@ 65562
стар@@ 65525
Пере@@ 65500
O@@ 65470
доро@@ 65441
пос@@ 65273
горо@@ 65236
отли@@ 65236
граф@@ 65197
най@@ 65142
круп@@ 65110
городской 65108
W@@ 65075
девяти 65028
третий 65019
отец 64998
Пи@@ 64996
совет 64995
доп 64901
служба 64866
ванию 64840
вшие 64817
чемпионата 64815
све@@ 64747
дел 64659
ровать 64656
мель@@ 64568
попа@@ 64545
яр@@ 64484
форма@@ 64467
нев@@ 64462
мент 64453
вне@@ 64435
тол@@ 64409
Из 64387
z@@ 64361
нием 64352
водо@@ 64329
тяже@@ 64296
кими 64231
дал 64052
Ор@@ 64008
вид 64000
цве@@ 63999
ью@@ 63942
принял 63934
популяр@@ 63879
дли@@ 63855
крити@@ 63775
зат@@ 63742
уни@@ 63742
либо 63696
чик 63682
нового 63664
численности 63621
Но 63557
35 63538
награжден 63508
концер@@ 63495
лах 63492
счита@@ 63446
городского 63427
тю@@ 63396
es 63336
Для 63305
1999 63303
шта@@ 63286
Ф. 63192
лова 63149
деревне 63040
ран 63016
бле@@ 63005
шко@@ 62971
русской 62846
никами 62818
ланд@@ 62806
момент 62799
стр 62788
дерев@@ 62769
тить 62719
протекает 62705
ули@@ 62703
одно@@ 62673
чки 62657
кладбище 62647
f 62645
камен@@ 62600
лон@@ 62593
зада@@ 62552
ят 62548
различных 62541
происходит 62535
Би@@ 62457
чка 62445
здание 62419
санкт 62386
измен@@ 62353
бен@@ 62341
води@@ 62303
кин@@ 62301
первая 62288
назна@@ 62285
лые 62278
Ком@@ 62271
сь 62246
тера 62225
возвра@@ 62104
литератур@@ 62099
сов@@ 62015
крас@@ 62007
девяноста 61953
школу 61938
альбом 61870
зии 61840
бла@@ 61732
воро@@ 61726
1990 61704
тат@@ 61689
веке 61661
тура 61651
рования 61633
нико@@ 61623
права 61610
каз@@ 61609
el@@ 61587
Санкт 61561
миро@@ 61543
Д. 61504
поселений 61484
чис@@ 61456
ясь 61448
заме@@ 61433
становится 61406
выс@@ 61371
работу 61328
глав@@ 61287
мощ@@ 61216
советский 61181
языка 61173
мона@@ 61123
расположена 61096
гло@@ 61065
стоя@@ 61016
семидесяти 60996
ек@@ 60990
моря 60967
1941 60950
Ду@@ 60921
общества 60908
тов@@ 60892
рой 60873
жан@@ 60865
тысячью 60863
земли 60851
ую 60836
кло@@ 60760
плен@@ 60736
института 60653
своим 60635
театра 60594
уч@@ 60558
серии 60527
хро@@ 60502
вести 60480
ственный 60427
поле 60424
лий 60386
нескольких 60360
ана@@ 60324
цкой 60257
нима@@ 60195
сохрани@@ 60188
ваны 60173
пов 60146
плани@@ 60143
вышел 60107
Пу@@ 60098
число 60075
хоро@@ 60037
производ@@ 60009
эр@@ 59971
хан@@ 59923
часов 59884
выпу@@ 59847
работ@@ 59840
уро@@ 59831
шла 59801
двиг@@ 59760
имеют 59754
ые 59706
показа@@ 59661
сами 59659
il@@ 59653
перешел 59620
бин@@ 59461
округов 59458
Аль@@ 59439
бес@@ 59349
нау@@ 59240
провинции 59201
состоит 59194
оде@@ 59169
Пре@@ 59145
отечественной 59131
используется 59124
чь 59105
жел@@ 59093
жении 59060
щен 59006
получила 58984
тин 58979
школа 58914
вшись 58884
ся 58859
ro@@ 58852
нок 58817
русского 58775
нор@@ 58758
ниче@@ 58757
вов 58742
гово@@ 58733
нер@@ 58731
аб@@ 58726
кали@@ 58643
автор 58623
решение 58621
рим@@ 58601
вел 58597
первых 58560
петро@@ 58560
характер@@ 58530
пове@@ 58519
иль@@ 58514
вую 58468
зм 58433
сезоне 58399
новых 58377
ент@@ 58364
постоянного 58362
совет@@ 58246
продолжа@@ 58243
парти@@ 58239
C 58212
российский 58173
кара@@ 58153
Чер@@ 58079
рядом 58017
ред@@ 58007
чил 57984
льное 57978
следу@@ 57956
валось 57954
даль@@ 57893
карьеру 57788
некоторых 57781
производи@@ 57764
тому 57730
луч@@ 57723
К. 57703
ща 57665
хотя 57660
джи@@ 57645
автомоби@@ 57596
тирова@@ 57568
an 57541
щей 57541
км. 57513
ковой 57454
емых 57453
тно 57410
язык 57370
препода@@ 57365
выде@@ 57355
обнару@@ 57304
ву 57294
код 57293
ственное 57267
Хо@@ 57246
разру@@ 57242
видов 57222
одо@@ 57206
коми@@ 57204
удалось 57201
ограни@@ 57180
цвет@@ 57155
бал@@ 57122
острова 57105
культур@@ 57048
старо@@ 57013
войск 57010
куль@@ 57006
нение 57000
двухсот 56969
гене@@ 56930
фу@@ 56920
ванием 56905
хими@@ 56833
ственная 56819
лиза@@ 56808
ra@@ 56769
фр 56769
священ@@ 56767
чар@@ 56764
тридцатого 56746
университете 56737
Ша@@ 56698
ri@@ 56614
расска@@ 56603
Р 56598
москов@@ 56577
лав@@ 56575
большая 56525
микро@@ 56515
фильме 56504
играл 56490
движения 56442
яп 56438
рий 56428
дочь 56424
шо@@ 56325
силь@@ 56289
дами 56288
стер 56243
Союза 56238
мей@@ 56229
мана 56227
S 56224
дель@@ 56171
новые 56077
ой 56069
тогда 56058
места 56050
избран 56027
стью 55966
четвертый 55942
Ту@@ 55936
чу 55931
дии 55806
мина@@ 55803
помощью 55794
поле@@ 55793
выступал 55772
Гор@@ 55752
III 55740
лер@@ 55672
Гер@@ 55665
окончания 55654
зелен@@ 55618
виде 55575
33 55574
транспор@@ 55462
длина 55450
ката@@ 55413
явля@@ 55339
фло@@ 55273
право@@ 55264
чемпионате 55256
жден@@ 55251
чена 55212
организо@@ 55185
официаль@@ 55160
ходя@@ 55149
дол@@ 55136
мать 55134
квадратного 55005
ствуют 54981
уезда 54957
себе 54954
начало 54939
советского 54939
ье@@ 54907
университет 54901
ведение 54872
рак@@ 54867
московской 54863
учре@@ 54846
поэтому 54797
лами 54786
ден 54777
стен@@ 54759
лож@@ 54753
впоследствии 54740
внеш@@ 54707
ря 54691
дой 54675
кле@@ 54641
on 54633
политиче@@ 54620
помо@@ 54615
науч@@ 54586
бое@@ 54570
сар@@ 54569
проект 54563
которое 54557
процента 54533
дат@@ 54519
лый 54481
чает 54478
дня 54432
смо@@ 54429
молод@@ 54424
полка 54410
живо@@ 54393
школе 54388
главным 54379
вано 54369
ьев 54334
службу 54322
относится 54298
аться 54296
музей 54242
иногда 54179
60 54163
нару@@ 54152
евского 54148
дин@@ 54095
йском 54048
.0@@ 54039
британ@@ 54025
рина 54011
ченко 53988
изобра@@ 53927
Фи@@ 53913
Кор@@ 53908
считается 53821
собра@@ 53795
согла@@ 53762
рази@@ 53756
дивизии 53700
возможно 53675
улицы 53649
сь@@ 53623
20@@ 53619
деятельности 53597
Родился 53584
шее 53564
бло@@ 53543
йских 53527
математи@@ 53504
москва 53477
кто 53473
Раз@@ 53460
покры@@ 53449
система 53440
свобод@@ 53424
мия 53421
закон@@ 53407
Дже@@ 53402
энциклопедический 53384
книги 53363
организа@@ 53342
верх@@ 53320
вка 53309
шен 53305
Москва 53288
нови@@ 53227
семьи 53211
пита@@ 53200
Петро@@ 53167
учеб@@ 53155
лев@@ 53150
мире 53145
территориаль@@ 53115
История 53077
частью 53066
коль@@ 53045
благодаря 53022
проводи@@ 53014
книга 53000
ческую 52983
ятся 52975
тем@@ 52929
япон@@ 52916
бо 52910
десяти 52894
корот@@ 52859
тие 52825
фици@@ 52823
жить 52818
ься 52786
вор@@ 52757
вии 52753
двумя 52723
выз@@ 52714
названием 52712
конца 52711
мед@@ 52681
великой 52660
ляется 52618
телями 52601
дела@@ 52589
процентов 52561
ходит 52525
сня@@ 52488
округ 52472
дивизи@@ 52462
одно 52417
службы 52400
премии 52391
должность 52379
самых 52378
рам 52369
служил 52365
игра@@ 52363
лю 52335
am@@ 52286
поэ@@ 52244
таким 52243
сим@@ 52237
сме@@ 52226
Из@@ 52170
кую 52161
песни 52134
установ@@ 52118
надцатый 52099
ата 52072
без@@ 52062
Вели@@ 52019
государственного 52013
нар@@ 52005
моно@@ 51994
прекра@@ 51987
минут 51945
рэ@@ 51919
располага@@ 51915
Б. 51892
ива@@ 51886
яти@@ 51880
объеди@@ 51875
игр 51816
дел@@ 51752
цент@@ 51748
граф 51708
представляет 51682
так@@ 51660
Отечественной 51645
ви 51643
ранее 51626
игро@@ 51613
мэ@@ 51601
рез@@ 51589
языке 51548
одну 51531
награ@@ 51521
училище 51512
завер@@ 51494
возрасте 51478
третье 51472
пли@@ 51356
содержа@@ 51354
вия 51352
сельсовета 51325
оп@@ 51322
сан 51321
второе 51220
спортив@@ 51163
другим 51128
искусства 51125
ог@@ 51108
художник 51108
колле@@ 51082
Занимает 51054
совер@@ 51004
центром 51003
хом 50959
команда 50945
деятельность 50931
постро@@ 50924
мел@@ 50910
тная 50899
реа@@ 50863
воды 50845
вну@@ 50843
лог 50810
успе@@ 50766
длин@@ 50765
чном 50756
зву@@ 50716
ото@@ 50684
12@@ 50681
1997 50643
компания 50637
случае 50622
йти 50621
француз@@ 50619
цей 50590
нович 50581
реестр 50579
A 50564
произ@@ 50561
радио@@ 50546
ведения 50540
лок 50510
1945 50502
стей 50501
долларов 50494
спорта 50469
тран@@ 50436
K@@ 50413
одном 50413
стран 50369
град 50359
посвящен@@ 50337
сли@@ 50309
фон@@ 50294
ковского 50293
1998 50289
ковский 50261
револю@@ 50251
яться 50250
формы 50214
Александр 50200
именно 50200
лист@@ 50176
чным 50163
евский 50159
шел 50159
свет@@ 50150
чены 50112
док 50077
Ис@@ 50075
версии 50070
примерно 50065
александр 50057
Бар@@ 50053
социаль@@ 50023
ян 50016
официальный 50008
it@@ 49948
аппара@@ 49937
J@@ 49930
Пред@@ 49912
присут@@ 49895
шки 49881
список 49879
тельно 49874
войне 49857
сса 49852
работ 49851
немец@@ 49848
пор 49831
сек@@ 49817
выступа@@ 49801
U@@ 49792
сс 49778
расши@@ 49752
завод 49749
185@@ 49739
участник 49736
тики 49733
ениями 49698
кси@@ 49696
проходит 49639
Московской 49581
лович 49579
орденом 49553
миллионов 49546
дах 49511
логия 49489
королев@@ 49462
фото@@ 49445
ними 49435
форми@@ 49425
Вол@@ 49400
звание 49370
хов@@ 49361
приобре@@ 49313
ниж@@ 49277
мского 49265
волости 49246
времен@@ 49188
советской 49169
проек@@ 49163
испол@@ 49149
данных 49140
мет@@ 49130
тина 49119
П 49100
имел 49077
благо@@ 49042
цвета 49009
дей 48995
До 48992
ологи@@ 48982
тое 48976
чное 48971
86 48959
82 48863
Хар@@ 48860
Великой 48829
рова@@ 48824
практически 48823
эт@@ 48805
зда@@ 48799
возмож@@ 48790
журнал 48784
строительство 48784
80 48761
ио@@ 48752
компози@@ 48671
М 48666
церков@@ 48623
справочник 48606
рова 48589
вклю@@ 48586
зу 48581
вления 48570
коле@@ 48539
щего 48509
матче 48507
находился 48494
женщины 48486
1991 48480
отца 48477
маль@@ 48473
метра 48445
действия 48421
Цент@@ 48409
ственно 48374
роли 48337
сия 48327
твер@@ 48314
ура 48241
кита@@ 48220
главный 48218
зия 48217
Рус@@ 48197
объек@@ 48185
зен@@ 48160
завод@@ 48126
военно 48095
всем 48084
газета 48054
Ново@@ 48031
ради@@ 48023
гин@@ 47968
суд@@ 47958
запад@@ 47957
чув@@ 47858
водный 47851
мест 47849
рована 47846
ково 47827
всегда 47811
Т 47803
восточной 47781
строи@@ 47779
музыка@@ 47767
нему 47757
сел@@ 47743
ум@@ 47636
пути 47612
Вен@@ 47597
мета@@ 47582
област@@ 47581
зи 47578
большое 47553
меня@@ 47537
ству@@ 47530
поселение 47505
Кроме 47503
восстанов@@ 47501
другой 47486
психо@@ 47404
сед@@ 47399
административный 47390
твор@@ 47369
иде@@ 47355
снова 47340
жает 47332
фон 47315
сбор@@ 47301
техни@@ 47298
тур 47291
гия 47287
преде@@ 47282
j@@ 47242
мыш@@ 47210
нер 47205
работает 47194
частности 47154
цы@@ 47153
профессиональ@@ 47146
верну@@ 47145
жал 47137
пригла@@ 47128
которым 47119
местности 47112
близ@@ 47096
государства 47090
Гри@@ 47072
девятистах 47071
ордена 47024
ево 47021
мской 47000
Воз@@ 46996
особенно 46987
суще@@ 46987
пози@@ 46974
тела 46963
основе 46950
нин@@ 46943
Все 46922
учился 46918
украин@@ 46898
чился 46884
1943 46865
шло 46865
1944 46837
памятник 46829
друг 46799
тической 46765
Од@@ 46757
ol@@ 46737
сдела@@ 46722
en 46643
традицион@@ 46578
профессор 46556
мента@@ 46483
всей 46479
Бы@@ 46438
мах 46432
которую 46419
представи@@ 46365
бассейн 46364
емые 46358
един@@ 46294
медици@@ 46287
своем 46267
1994 46238
эми@@ 46233
граждан@@ 46225
рован@@ 46208
пру@@ 46206
тера@@ 46205
отношения 46185
ску@@ 46184
американ@@ 46135
этим 46072
ору@@ 46059
выра@@ 46040
ландии 46029
ах 46028
похоронен 46025
поступил 46020
проте@@ 45961
лли 45902
нача@@ 45863
нина 45855
70 45823
позднее 45806
представля@@ 45799
циях 45771
пти@@ 45769
ая 45761
Бело@@ 45759
щим 45719
мари@@ 45705
1989 45688
ССР 45666
рование 45649
баш@@ 45631
извест@@ 45631
москве 45597
кен@@ 45583
Москве 45572
ющее 45565
жили 45543
чается 45527
воору@@ 45496
пря@@ 45454
скончался 45441
реги@@ 45440
сер 45368
вшая 45367
Запад@@ 45366
противо@@ 45363
большинство 45354
народ@@ 45288
вил 45263
уча@@ 45259
is@@ 45228
уче@@ 45218
теат@@ 45213
йские 45200
перен@@ 45193
территориальное 45174
слож@@ 45157
персона@@ 45148
мена 45128
дороги 45118
вари@@ 45081
самым 45068
промышлен@@ 45038
франции 45038
повы@@ 45035
публи@@ 45016
поче@@ 45001
тика 44995
Франции 44973
Как 44962
бург 44938
возможность 44933
тонн 44932
органи@@ 44925
поддержи@@ 44915
32 44913
Восто@@ 44885
хва@@ 44840
Север@@ 44763
1996 44758
право 44717
гну@@ 44707
берг 44696
дж 44690
ссии 44686
оло@@ 44685
запре@@ 44681
Она 44662
ствия 44656
красно@@ 44630
пав@@ 44630
поверхностных 44630
жд@@ 44626
Ке@@ 44585
издание 44562
исполни@@ 44555
1992 44551
лая 44529
олимпи@@ 44497
должен 44480
противника 44475
сра@@ 44475
определен@@ 44470
двух@@ 44455
ic@@ 44442
титул 44442
развитие 44436
режиссер 44411
требо@@ 44399
поселка 44387
нью 44383
сери@@ 44377
перво@@ 44369
уго@@ 44366
хол@@ 44363
сентябре 44328
жений 44310
строитель@@ 44290
дер 44289
стами 44261
Вер@@ 44252
люди 44252
обороны 44249
тской 44245
искус@@ 44225
влади@@ 44202
дать 44192
основан 44182
предло@@ 44181
щает 44169
1995 44071
1980 44052
лам 44024
уэ@@ 44019
Кри@@ 44016
указа@@ 43992
площади 43979
комплек@@ 43959
струк@@ 43936
каз 43911
централь@@ 43891
стви@@ 43877
смер@@ 43873
тиче@@ 43873
цион@@ 43868
объ@@ 43865
сове@@ 43820
руководством 43787
пятый 43778
ана 43776
мыс@@ 43775
ствовал 43773
боро@@ 43765
настоя@@ 43751
льский 43714
Был 43694
герой 43683
сторон@@ 43682
графия 43662
оцен@@ 43611
академи@@ 43590
западной 43577
празд@@ 43562
таких 43562
бой@@ 43557
испан@@ 43542
торго@@ 43535
руко@@ 43521
трех@@ 43511
фри@@ 43511
Ю. 43502
храм 43458
оби@@ 43449
лев 43446
ou@@ 43436
коне@@ 43416
разработ@@ 43410
европе@@ 43395
треть@@ 43378
томах 43370
силы 43367
управля@@ 43362
сезон 43333
юр@@ 43333
шестой 43324
ходят 43313
брат 43280
состоянию 43276
восьмой 43265
меж@@ 43262
тери@@ 43261
дву@@ 43258
ватель 43255
полк 43233
пу 43214
кол@@ 43204
рождения 43189
нюю 43188
щая 43180
Мат@@ 43152
альбома 43148
серебря@@ 43139
муж@@ 43116
чено 43115
изученность 43114
развед@@ 43114
гой 43076
ьи 43056
мол@@ 43046
00@@ 43013
правитель@@ 42994
флота 42981
существует 42919
бай@@ 42893
лями 42876
утвер@@ 42865
лко@@ 42834
лер 42831
обеспечи@@ 42831
подготов@@ 42816
геро@@ 42813
дре@@ 42810
факультет 42800
отра@@ 42799
обозна@@ 42793
нике 42783
продук@@ 42783
контракт 42782
фика@@ 42763
лист 42740
жением 42731
ган 42725
ину 42690
сах 42688
получи@@ 42674
уез@@ 42674
мало@@ 42652
революции 42625
герои 42619
арен@@ 42612
летом 42578
арти@@ 42575
постанов@@ 42561
гли@@ 42545
Сер@@ 42543
пехот@@ 42539
дей@@ 42501
онов 42489
одновременно 42485
опублико@@ 42468
театр 42455
Ав@@ 42451
пе 42451
суб@@ 42441
сты@@ 42433
оборо@@ 42421
сельсовет 42416
тки 42391
запа@@ 42376
стандар@@ 42367
они@@ 42345
заня@@ 42310
художников 42306
скульп@@ 42297
тным 42292
эту 42280
пись 42251
шан@@ 42244
эм@@ 42228
корпуса 42224
прото@@ 42215
РФ 42205
состав@@ 42205
1988 42183
D 42172
операции 42145
Сайт 42139
шин@@ 42120
стана 42084
производства 42080
хра@@ 42071
сельский 42048
Они 42042
Влади@@ 42022
простран@@ 42016
возник@@ 42004
озера 42004
центре 41995
мости 41965
зако@@ 41947
лья 41939
биографический 41923
пари@@ 41918
шка 41918
ковых 41904
моги@@ 41902
учен@@ 41880
филь@@ 41863
позиции 41852
цем 41844
чении 41830
католи@@ 41829
короля 41818
литературы 41811
ственным 41776
независи@@ 41768
ны@@ 41766
ый 41758
штаб 41757
седьмой 41736
острове 41697
гах 41683
йская 41670
кило@@ 41656
ждении 41653
рели@@ 41647
исто@@ 41640
плотность 41634
хозяйства 41620
национальной 41616
собира@@ 41600
сразу 41597
сыграл 41595
работать 41573
пункт 41562
мер 41551
сор@@ 41522
спе@@ 41506
остров 41502
лан 41495
выда@@ 41466
стат@@ 41439
[ 41428
рей 41426
хорошо 41403
тации 41398
стави@@ 41375
тона 41366
итальян@@ 41356
мину@@ 41353
буду@@ 41345
августе 41285
полити@@ 41282
фина@@ 41276
фе 41263
ам 41258
артиллери@@ 41256
рю@@ 41242
ходи@@ 41223
несмотря 41214
первую 41209
лета 41207
стран@@ 41194
статус 41193
животных 41183
метри@@ 41177
ност@@ 41174
ступа@@ 41164
сооб@@ 41094
Л: 41077
тив 41052
географи@@ 41044
мае 41038
россий@@ 41036
постоян@@ 41024
сай@@ 40987
штаба 40983
ново 40978
перевод@@ 40978
северной 40954
1993 40937
Ев@@ 40934
завое@@ 40930
родилась 40928
уль@@ 40914
спек@@ 40893
слав@@ 40873
раке@@ 40867
движение 40865
челове@@ 40859
ральный 40852
тысячу 40847
победи@@ 40829
Ио@@ 40823
реаль@@ 40821
XIX 40811
освобо@@ 40792
клас@@ 40781
стах 40770
работе 40757
посел@@ 40734
образован 40715
дам 40694
Мак@@ 40692
сков 40690
обла@@ 40675
глу@@ 40669
Ир@@ 40657
дон@@ 40656
ин 40653
массо@@ 40647
ционный 40643
дата 40639
36 40632
разных 40630
одноимен@@ 40617
сильно 40617
хе 40608
правило 40601
бор 40595
служи@@ 40591
этому 40587
являлся 40578
емый 40577
око@@ 40568
порт 40556
шед@@ 40555
молодеж@@ 40531
ателей 40489
середине 40470
востоке 40469
статистический 40457
йн 40455
сборную 40452
помощи 40437
Кур@@ 40430
эн 40419
дев@@ 40410
ениям 40404
известен 40403
достаточно 40388
принима@@ 40384
находятся 40352
проекта 40348
написа@@ 40329
октябре 40329
индекс 40300
районного 40298
мастер@@ 40255
сына 40190
провод@@ 40185
сона 40182
конструк@@ 40127
тех 40109
ъ 40105
симво@@ 40089
ционной 40081
1917 40063
избира@@ 40054
45 40040
состоялась 40039
льского 40027
нец 40023
ита@@ 40001
as@@ 39997
реке 39975
штат 39937
Ча@@ 39906
здания 39898
ристи@@ 39887
мера 39880
названия 39876
укра@@ 39864
ус 39850
ловой 39810
чную 39788
отве@@ 39770
французский 39763
чемпионат 39763
мся 39757
цам 39743
Эн@@ 39740
июле 39732
строй@@ 39697
исследования 39687
щена 39674
енко 39637
сче@@ 39628
команду 39613
гран@@ 39603
вшей 39592
гель@@ 39587
писатель 39572
тип 39571
сум@@ 39570
марте 39566
следо@@ 39550
воздуш@@ 39526
пересе@@ 39525
превра@@ 39522
внутрен@@ 39507
свя@@ 39503
соору@@ 39503
Согласно 39488
общей 39483
ляет 39473
выпуска@@ 39458
война 39435
лян@@ 39430
деревян@@ 39429
раб@@ 39416
ун 39412
трен@@ 39391
биографи@@ 39379
кисло@@ 39366
занимался 39358
ac@@ 39356
978 39326
музыкан@@ 39313
вер 39305
писал 39283
фир@@ 39253
дил 39248
расположено 39215
такие 39205
правления 39190
Ген@@ 39186
комитета 39168
зыва@@ 39162
десятый 39124
христиан@@ 39124
том@@ 39093
Ги@@ 39047
плане@@ 39026
ответ@@ 39018
хо 39009
веден 39005
лиги 39003
инстру@@ 39001
дебютировал 38990
президента 38986
образу@@ 38979
клад@@ 38969
жени@@ 38963
домаш@@ 38952
ляр@@ 38932
оли@@ 38926
остро@@ 38921
цвет 38918
лки 38912
зин@@ 38901
сса@@ 38901
тельный 38892
слова 38887
метод@@ 38885
узна@@ 38871
Гра@@ 38863
основ@@ 38855
управление 38835
et@@ 38829
мин 38829
Сте@@ 38827
Мон@@ 38825
пя@@ 38820
ближай@@ 38819
1942 38808
туре 38799
види@@ 38794
ню 38774
пусти@@ 38752
Пав@@ 38727
25@@ 38718
моло@@ 38686
вышла 38669
международ@@ 38669
гражда@@ 38596
Тур@@ 38594
фикации 38591
сви@@ 38583
милли@@ 38579
желез@@ 38547
декабре 38542
январе 38536
жено 38531
множество 38510
собствен@@ 38510
охран@@ 38500
бат@@ 38491
необходи@@ 38474
новая 38463
дор@@ 38432
ологии 38429
доба@@ 38425
существо@@ 38412
деся@@ 38382
правительства 38378
бир@@ 38367
др 38360
электрон@@ 38360
занял 38355
послед@@ 38344
программы 38335
ист 38309
мур@@ 38306
демокра@@ 38284
бю@@ 38276
трехсот 38274
деятель 38253
насчиты@@ 38209
ани@@ 38197
сельское 38196
тского 38194
гами 38192
Ак@@ 38190
гидро@@ 38184
1970 38175
наи@@ 38174
социали@@ 38173
почто@@ 38163
чать 38141
гото@@ 38140
исследований 38138
сей@@ 38134
уси@@ 38118
десятом 38091
Советского 38072
льном 38049
тури@@ 38043
стой 38036
класса 38013
есте@@ 37980
дон 37973
Кры@@ 37968
стра 37956
русских 37945
актер 37941
ина 37925
ер 37916
большую 37915
произведений 37855
известно 37846
раст@@ 37841
ус@@ 37827
карты 37820
протяжении 37813
реали@@ 37811
ов@@ 37759
соеди@@ 37740
электри@@ 37721
ступи@@ 37666
вшего 37661
чай@@ 37648
тное 37647
погиб@@ 37620
постав@@ 37590
продол@@ 37590
каждый 37588
издательство 37581
военного 37576
слав 37570
кварти@@ 37568
должности 37567
кну@@ 37564
городов 37560
религиоз@@ 37548
предста@@ 37544
1987 37540
90 37531
Ман@@ 37521
железнодорож@@ 37497
1960 37494
чере@@ 37490
знамени@@ 37487
карта 37482
владе@@ 37472
стан 37449
ленин@@ 37425
последний 37389
эле@@ 37380
ряда 37376
дне@@ 37364
статья 37341
вида 37340
циа@@ 37293
вл@@ 37282
? 37270
муниципального 37269
начали 37266
жела@@ 37248
1966 37233
армия 37230
сро@@ 37222
создан 37221
исполня@@ 37207
Ши@@ 37198
виде@@ 37191
восток 37190
дю@@ 37184
главного 37163
фла@@ 37148
поль 37146
меди@@ 37135
клу@@ 37132
против@@ 37118
пило@@ 37106
чат@@ 37103
вода 37096
вокруг 37090
уровнем 37072
июне 37060
президент 37031
Ива@@ 37019
стране 37016
рома@@ 37011
православ@@ 37004
духов@@ 37001
журнала 36995
Мин@@ 36991
спор@@ 36987
союз@@ 36985
Р. 36979
Жи@@ 36967
фар@@ 36963
укре@@ 36961
ционных 36961
маршру@@ 36960
держа@@ 36950
забил 36938
Официальный 36931
град@@ 36919
быстро 36917
дова 36913
дан 36906
другими 36905
нан@@ 36888
спустя 36859
пробле@@ 36838
куп@@ 36834
i_latin 36830
оз@@ 36829
научно 36816
квадратных 36814
состоялся 36805
рации 36762
рес@@ 36743
коммуна 36684
создания 36676
шую 36675
миллиона 36656
южной 36633
Брокгауза 36628
брокгауза 36628
пост 36616
сторо@@ 36605
работали 36560
дво@@ 36522
вателей 36513
рем 36502
ефрона 36478
Ефрона 36476
сформи@@ 36459
19@@ 36430
расположены 36398
Административный 36394
валь@@ 36387
Зна@@ 36354
сыгра@@ 36349
цах 36349
поля 36342
американский 36322
регион 36320
1918 36317
тили 36311
боло@@ 36292
ляют 36291
паро@@ 36276
членов 36269
принимал 36254
инский 36245
Крас@@ 36241
мили@@ 36240
наука 36231
основной 36231
вление 36214
фре@@ 36211
девятый 36197
дена 36176
Б 36155
получили 36141
Пор@@ 36124
двор@@ 36111
лка 36098
вшийся 36093
пору@@ 36092
чают 36091
говори@@ 36080
сел 36062
пункты 36054
дополнитель@@ 36053
вопро@@ 36039
правительство 36039
мых 36034
статисти@@ 36015
стин@@ 36009
бре@@ 35994
виль@@ 35976
184@@ 35968
днев@@ 35957
игре 35956
региона 35944
футболь@@ 35941
сю@@ 35934
роман 35902
грам@@ 35889
путь 35888
Росси@@ 35884
серьез@@ 35860
хозяй@@ 35853
преимущественно 35852
германии 35842
замен@@ 35836
ционного 35833
новым 35825
точки 35806
целью 35801
Германии 35795
войсками 35787
значение 35785
кер@@ 35781
es@@ 35745
капита@@ 35742
зал 35736
ателем 35716
вок 35704
епархии 35694
38 35662
кас@@ 35658
Й@@ 35656
упразд@@ 35640
отсут@@ 35620
вин 35606
ец 35588
34 35574
должны 35565
циаль@@ 35562
нить 35556
чие 35541
принци@@ 35537
отличие 35528
александ@@ 35520
мами 35519
сво@@ 35497
положение 35486
каль@@ 35462
пыта@@ 35457
уг@@ 35454
програм@@ 35453
воен@@ 35437
счет 35408
старший 35391
нес 35387
советская 35384
бога@@ 35347
Длина 35342
подтвер@@ 35342
станов@@ 35342
ровка 35337
строительства 35337
играх 35333
подви@@ 35322
девят@@ 35308
бел@@ 35306
известный 35303
зрения 35272
коно@@ 35270
ваний 35266
проживало 35262
Поль@@ 35252
ремон@@ 35245
средний 35245
технологи@@ 35235
досто@@ 35225
сост 35222
чал 35221
тский 35189
1930 35188
анг@@ 35184
дело 35179
имеется 35177
Основ@@ 35176
теории 35149
редак@@ 35147
святой 35147
мод@@ 35145
апреле 35142
лени@@ 35137
тельной 35136
тонны 35130
вше@@ 35128
мино@@ 35126
храни@@ 35125
пин@@ 35123
тори@@ 35105
вступил 35075
вле@@ 35070
активно 35065
завода 35057
инди@@ 35056
никола@@ 35053
яв@@ 35052
лай@@ 35045
тории 35045
кров@@ 35040
фы 35040
руют 35033
пл@@ 35021
стру@@ 35015
пуска@@ 34987
штата 34973
различные 34966
оке@@ 34954
un@@ 34951
Этот 34935
ствен@@ 34927
переимено@@ 34903
жды 34901
писа@@ 34901
щается 34900
ал 34895
находи@@ 34888
разработа@@ 34886
статьи 34885
Государственный 34883
голь@@ 34883
ау@@ 34880
копи@@ 34876
экс@@ 34875
библиотека 34874
мере 34872
кафед@@ 34856
военной 34855
дали 34841
оно 34831
немецкий 34821
тыми 34814
последние 34813
атели 34808
стать 34806
стики 34802
Пар@@ 34798
вская 34790
сол@@ 34790
коммер@@ 34779
появл@@ 34777
37 34763
1965 34761
вшихся 34749
Ленин@@ 34729
эль 34708
190@@ 34692
матчей 34690
храма 34685
ноябре 34659
потер@@ 34655
мя 34651
наблю@@ 34644
1939 34631
бед@@ 34627
уезд 34612
Ря@@ 34598
шести@@ 34590
малень@@ 34577
щено 34576
доме 34573
1986 34542
производство 34537
енный 34530
2016 34517
рон 34514
экра@@ 34503
штур@@ 34499
1985 34494
дают 34476
случа@@ 34476
добы@@ 34467
ква@@ 34464
мани@@ 34457
искусств 34442
гского 34434
влияние 34432
портре@@ 34425
воевод@@ 34421
1920 34378
святого 34371
музыки 34370
шает 34366
умер@@ 34363
никам 34353
каче@@ 34325
леген@@ 34313
200 34309
поис@@ 34298
реши@@ 34289
рен 34284
началь@@ 34261
составляла 34261
мени@@ 34255
общество 34244
ческими 34227
1940 34225
власть 34222
двенадцати 34219
европы 34180
довольно 34179
Герои 34169
рая 34165
тт 34158
нем@@ 34149
сокра@@ 34149
фронта 34139
поста@@ 34132
Хи@@ 34121
Европы 34120
педагоги@@ 34119
бель@@ 34116
вали@@ 34102
взя@@ 34102
западе 34102
зали@@ 34088
убе@@ 34072
чиков 34069
значительно 34067
различ@@ 34049
ровки 34041
седьмое 34016
судь@@ 34016
любо@@ 34013
рек@@ 33998
Л 33991
генера@@ 33981
пятнадцати 33980
девятисот 33971
меры 33970
армию 33968
выбра@@ 33965
позволяет 33962
мость 33940
одер@@ 33929
такой 33926
шах@@ 33916
тка 33915
скло@@ 33913
отправи@@ 33909
туре@@ 33892
включая 33890
вшим 33881
следует 33874
вшиеся 33840
опас@@ 33826
огром@@ 33819
верси@@ 33765
убий@@ 33765
упомина@@ 33731
море 33730
рисо@@ 33730
держ@@ 33725
труд@@ 33718
in 33717
1907 33716
науки 33712
сборник 33707
одино@@ 33691
Так 33690
территория 33671
Май@@ 33668
юн@@ 33667
чить 33659
шоу 33658
вице 33651
Первый 33625
мужчины 33617
летия 33614
бира@@ 33612
ковые 33612
щении 33601
графа 33596
держи@@ 33591
дели@@ 33583
национальный 33579
бюро 33567
тических 33567
мак@@ 33559
свер@@ 33533
юри@@ 33530
мм 33524
черно@@ 33520
ниях 33513
чев 33510
щены 33505
туры 33504
бов 33503
вместо 33491
Бра@@ 33490
боях 33481
коммуни@@ 33480
веще@@ 33477
нил 33477
ятия 33462
неж@@ 33432
Я 33382
герман@@ 33364
именем 33359
тические 33325
Энциклопедический 33323
Рас@@ 33317
состава 33317
тельного 33316
применя@@ 33304
феврале 33304
XX 33291
Александ@@ 33268
le 33265
прошел 33251
национального 33243
последу@@ 33240
играть 33236
вай@@ 33219
срав@@ 33209
преж@@ 33184
стату@@ 33160
рассматри@@ 33152
населенные 33148
работа 33145
зация 33144
реак@@ 33126
вие 33124
ссия 33118
ральной 33115
осуществ@@ 33114
ватель@@ 33110
мно@@ 33108
Затем 33106
официально 33088
Глав@@ 33087
ых 33086
наслед@@ 33082
бронзо@@ 33077
сте 33075
местного 33072
построен 33036
щ 33020
военных 33011
начинается 33008
Среди 32998
рев@@ 32990
информа@@ 32943
Ниж@@ 32940
общего 32928
ленный 32905
монастыря 32905
крупней@@ 32904
английский 32895
востоку 32888
ьер 32874
ографи@@ 32869
см 32869
сотруд@@ 32866
средней 32864
доби@@ 32847
рек 32847
24@@ 32840
нику 32820
расположен@@ 32813
гает 32805
лле@@ 32799
чек 32795
поскольку 32793
наде@@ 32792
железной 32784
сосед@@ 32783
музея 32782
группу 32770
пока 32770
корпус 32761
рованы 32756
дет 32739
парк 32724
находя@@ 32723
жила 32709
кад@@ 32700
вно 32688
нице 32687
ура@@ 32664
директор 32658
млад@@ 32658
форма 32656
научных 32646
епископ 32638
еврей@@ 32632
принадлежа@@ 32631
опер@@ 32624
ленные 32613
таблица 32612
Y@@ 32603
предме@@ 32591
взры@@ 32580
Воро@@ 32574
деления 32563
зом 32561
стары@@ 32559
расстояние 32532
Мор@@ 32530
ходил 32513
йо@@ 32512
ствие 32511
использу@@ 32509
показ@@ 32499
орден 32498
пото@@ 32490
вре@@ 32487
готови@@ 32473
рин 32458
начинает 32432
анна 32430
кир@@ 32426
эска@@ 32423
вариан@@ 32411
Никола@@ 32404
красной 32369
регионе 32367
ровали 32363
владимир 32362
самой 32360
чия 32350
началась 32349
стые 32346
связан@@ 32336
Владимир 32335
начальник 32332
мым 32311
лица 32309
архитек@@ 32303
ым 32301
выполня@@ 32298
митрополи@@ 32289
заболе@@ 32286
вторая 32272
центральной 32267
Кита@@ 32260
растений 32259
мые 32245
Международ@@ 32237
мии 32235
проблемы 32235
сельскохозяй@@ 32234
ьер@@ 32234
носит 32230
прожи@@ 32213
подчин@@ 32197
1984 32182
началось 32167
лла@@ 32159
контра@@ 32156
ru@@ 32154
сейчас 32150
Сан@@ 32136
Дан@@ 32132
вей@@ 32128
орке@@ 32125
шер@@ 32122
пора@@ 32080
селен@@ 32069
площад@@ 32050
z 32036
размещение 32031
жерт@@ 32026
губер@@ 32017
co@@ 32011
рамках 32009
Вос@@ 32007
ята 31999
дий 31995
щик 31979
стоит 31976
семей@@ 31968
фабри@@ 31961
заместитель 31960
свой@@ 31942
Сред@@ 31939
рованных 31920
располо@@ 31911
долго 31910
ступ@@ 31905
Ше@@ 31877
шими 31875
вен 31873
располагается 31870
внимание 31866
действу@@ 31861
мента 31855
всю 31846
хокке@@ 31837
дорога 31834
газеты 31801
позволи@@ 31791
продю@@ 31790
веро@@ 31775
самого 31770
итоге 31760
воду 31758
ing 31756
предполага@@ 31754
член@@ 31754
евна 31740
председатель 31737
евской 31732
оте@@ 31725
28@@ 31685
тренер 31681
актриса 31678
доста@@ 31655
N 31648
московского 31615
памяти 31612
дор 31605
основания 31602
данный 31601
Пра@@ 31596
версия 31588
допол@@ 31588
кол 31584
ень 31580
спортсмен@@ 31565
тился 31565
упоминается 31565
использовать 31545
создан@@ 31541
чика 31538
визи@@ 31531
западу 31527
открыт 31523
описа@@ 31512
написал 31511
относи@@ 31510
жского 31505
военный 31501
финансо@@ 31499
командир 31497
Д 31477
кантона 31475
теперь 31474
режи@@ 31471
йор@@ 31468
преду@@ 31459
тюрь@@ 31457
матери 31455
русские 31452
75 31441
земле 31441
жде@@ 31438
ленной 31435
Второй 31425
раза 31425
служа@@ 31425
медаль 31424
пира@@ 31422
пункта 31422
1983 31420
солдат 31399
произвед@@ 31367
дочери 31347
компа@@ 31336
населенным 31335
ровано 31324
материалы 31323
нало@@ 31314
соба@@ 31297
крей@@ 31287
яви@@ 31276
тий 31251
транс@@ 31250
действо@@ 31249
народов 31249
союз 31230
тельных 31207
оценка 31189
чь@@ 31189
ционные 31186
кома 31184
памят@@ 31180
ведены 31177
доктор 31170
доне@@ 31160
последо@@ 31158
кт 31139
ванный 31133
оборудо@@ 31132
называют 31115
бассейна 31109
рию 31104
супру@@ 31102
сн@@ 31098
месяцев 31093
некоторое 31076
николай 31075
Николай 31071
ляции 31071
льную 31065
le@@ 31041
сре@@ 31030
39 31021
глубо@@ 31011
65 30995
ожи@@ 30991
мнению 30973
два@@ 30961
семья 30957
безопасности 30919
эти@@ 30886
иска@@ 30883
суда 30875
погиб 30866
маш@@ 30861
император@@ 30845
промышленности 30836
лера 30828
тен 30828
домо@@ 30810
инской 30807
косми@@ 30790
Воло@@ 30778
вошел 30771
разре@@ 30763
проис@@ 30761
региональ@@ 30751
ющими 30742
штат@@ 30723
меха@@ 30718
64 30708
выставка 30698
замет@@ 30698
коман@@ 30694
матч 30693
брю@@ 30692
системе 30690
1959 30682
недо@@ 30682
юриди@@ 30669
выше 30664
графии 30654
изуч@@ 30652
лиге 30646
эпи@@ 30645
пресс 30631
встречается 30626
эффектив@@ 30620
вина 30616
нитель@@ 30609
ут@@ 30607
нос@@ 30606
произведения 30606
новский 30596
тепло@@ 30584
группе 30581
опы@@ 30566
йским 30560
щина 30546
губерна@@ 30544
книг 30542
Зе@@ 30539
охот@@ 30536
ведена 30534
стя@@ 30528
общ@@ 30525
Когда 30517
свидетель@@ 30515
съез@@ 30514
дивизия 30513
информации 30502
альбо@@ 30501
мог 30492
полковник 30489
ющиеся 30486
количе@@ 30456
новое 30456
песня 30430
просто 30428
предоста@@ 30427
слова@@ 30422
включа@@ 30413
ого 30373
това 30371
ственном 30360
условиях 30354
дови@@ 30343
говорит 30322
бывший 30312
девятое 30297
ia 30287
пи 30285
Юж@@ 30282
Сло@@ 30271
кает 30270
реш@@ 30269
потом 30260
179@@ 30257
канал 30256
1890 30251
ехал 30250
михай@@ 30227
тал 30222
лагер@@ 30220
функ@@ 30217
Совета 30210
вес@@ 30208
форме 30188
учени@@ 30170
оши@@ 30160
природ@@ 30154
игрок 30133
180@@ 30128
шек 30127
король 30126
польского 30125
О. 30121
лине 30101
жу 30093
трак@@ 30086
магни@@ 30083
комиссии 30068
Зем@@ 30057
премьер 30055
линей@@ 30053
труда 30053
голов@@ 30050
щу@@ 30040
герцо@@ 30035
руководи@@ 30022
футболист 30021
рение 30012
матча 30004
летний 30000
гори@@ 29996
жению 29992
команд 29964
1979 29962
Верх@@ 29961
район@@ 29955
кер 29951
коллегии 29948
ие@@ 29932
имели 29930
спу@@ 29920
руд@@ 29909
мало 29899
M 29885
1981 29884
мага@@ 29881
фило@@ 29877
подо@@ 29875
емой 29872
мастер 29863
улиц 29861
1975 29853
чий 29853
широко 29825
монастырь 29809
цкая 29779
русском 29770
чемпион 29767
x@@ 29766
странах 29760
трудо@@ 29760
печат@@ 29757
умень@@ 29739
окра@@ 29732
шем 29730
турнира 29728
циями 29719
главной 29716
восьмое 29707
лите@@ 29707
произошло 29702
V 29701
ари@@ 29692
ющихся 29683
Кали@@ 29672
российская 29671
30@@ 29655
Вар@@ 29645
практи@@ 29641
альный 29632
столи@@ 29631
председателем 29618
соответ@@ 29616
тического 29616
сова 29613
автор@@ 29607
используются 29591
ателя 29575
X 29570
инду@@ 29559
зам@@ 29555
вели 29552
процесс 29547
включает 29539
Рабо@@ 29538
1950 29537
песен 29516
нидер@@ 29502
Нью 29490
временем 29483
трас@@ 29477
выиграл 29466
обита@@ 29462
1964 29461
стороне 29453
мат 29418
нены 29416
инского 29414
сериала 29404
ницей 29402
владель@@ 29389
дальнейшем 29389
действие 29372
общины 29372
Свя@@ 29371
успеш@@ 29352
ябрь 29340
дела 29327
созна@@ 29321
записи 29298
Михай@@ 29297
вып 29285
лева 29278
входил 29273
500 29272
жо@@ 29266
министра 29259
колхо@@ 29244
провин@@ 29243
мл@@ 29236
ченных 29228
вной 29226
ствами 29225
om@@ 29205
стического 29203
улице 29200
1982 29180
дворян@@ 29175
менты 29163
шается 29153
P 29152
хор@@ 29150
li@@ 29147
разли@@ 29146
глава 29137
1929 29131
Дру@@ 29109
своими 29108
казахстан 29102
использовался 29097
шин 29078
юще@@ 29076
екатер@@ 29066
самый 29062
Казахстан 29060
слава 29060
дэ@@ 29027
Тре@@ 29017
испыта@@ 29003
сохран@@ 29002
сара@@ 28999
чин 28996
предыду@@ 28983
Располо@@ 28978
став 28970
основные 28963
вец 28953
ьевич 28951
форму 28945
чивается 28933
решил 28931
тельные 28930
лом@@ 28923
Наука 28920
начина@@ 28920
поселке 28911
команде 28909
сторону 28908
РСФСР 28905
1967 28902
скры@@ 28897
андре@@ 28880
влия@@ 28875
географии 28871
нас 28870
ur@@ 28856
жей 28853
отделение 28852
запис@@ 28837
заверши@@ 28828
постоянно 28818
большого 28816
рация 28815
употреб@@ 28815
щее 28815
угро@@ 28800
женных 28799
помощь 28797
прак@@ 28796
швей@@ 28785
гла 28779
очередь 28762
ар 28761
серия 28744
татар@@ 28743
рын@@ 28733
сначала 28728
называется 28694
ленных 28691
ad@@ 28688
длиной 28688
паль@@ 28686
града 28679
главе 28673
народа 28671
современной 28668
предлага@@ 28656
Бри@@ 28651
кан 28636
голу@@ 28632
обслужи@@ 28632
били@@ 28630
мую 28621
статистике 28613
автобу@@ 28609
чита@@ 28607
бран@@ 28605
йный 28603
жители 28590
резер@@ 28580
форму@@ 28563
us 28561
переехал 28560
1978 28557
топо@@ 28528
игра 28527
Z@@ 28525
1974 28507
установи@@ 28507
институте 28505
приня@@ 28489
цо 28482
боя 28481
Нор@@ 28429
худож@@ 28409
рублей 28390
Андре@@ 28388
цом 28383
роман@@ 28364
Интер@@ 28351
бою 28340
занимал 28335
1976 28333
историю 28333
оригина@@ 28318
стади@@ 28310
сегодня 28308
лить 28306
базе 28304
исла@@ 28300
четвертое 28296
кай@@ 28280
стров 28262
вторые 28257
похо@@ 28252
лым 28249
Республи@@ 28237
жан 28237
выпуск 28228
ено@@ 28228
неизвест@@ 28209
Чи@@ 28201
дебю@@ 28195
рованный 28195
аль 28190
путешест@@ 28187
фильмов 28187
деб@@ 28183
мун@@ 28180
рального 28180
тей 28178
удар@@ 28174
князя 28170
лучших 28162
люд@@ 28161
иван 28157
анто@@ 28136
москвы 28132
спорт 28127
веден@@ 28124
веща@@ 28122
гин 28121
дворов 28120
j 28119
щи 28118
Красно@@ 28114
щем 28112
реж 28106
Иван 28102
Лон@@ 28100
Чу@@ 28100
пад@@ 28100
ственную 28099
кон 28098
дважды 28094
измени@@ 28094
журнали@@ 28091
72 28083
построена 28072
театре 28072
ждает 28071
Москвы 28070
ара@@ 28066
тридца@@ 28066
чемпиона@@ 28063
мусуль@@ 28052
выпусти@@ 28049
Окончил 28041
исклю@@ 28041
значения 28036
комитет 28034
Государ@@ 28032
наблюд@@ 28029
мень@@ 28027
ресурсы 28022
россия 28007
аре@@ 28002
вез@@ 27982
времен 27947
фили@@ 27944
дипло@@ 27927
тория 27927
спас@@ 27922
имен@@ 27913
книге 27891
неуда@@ 27888
работала 27885
путе@@ 27872
еве 27868
сигна@@ 27866
написан@@ 27864
гам 27862
разби@@ 27859
повре@@ 27857
покину@@ 27849
бого@@ 27847
ниже 27845
муниципалитет 27837
систем 27824
бии 27814
соро@@ 27814
Йор@@ 27809
гол@@ 27803
форм 27802
эпизод@@ 27788
диалек@@ 27787
армян@@ 27775
44 27773
Кан@@ 27773
дин 27767
первен@@ 27751
лее 27743
чет@@ 27740
заслуженный 27738
ходов 27714
раство@@ 27710
запу@@ 27705
боевых 27704
хай@@ 27701
позд@@ 27695
административ@@ 27672
мон 27658
звезды 27657
чества 27650
периода 27647
гос@@ 27633
кла 27633
Екатер@@ 27619
скоро@@ 27618
входила 27617
вах 27615
чемпионом 27615
ген 27588
активных 27586
зим@@ 27586
лько 27582
весь 27579
лабора@@ 27572
сюже@@ 27563
Россия 27562
вли@@ 27558
Через 27552
рис 27546
ек 27540
специали@@ 27540
прибы@@ 27538
бела@@ 27532
час 27532
чными 27528
55 27516
1937 27502
назван 27495
стиле 27495
возглавил 27492
следующий 27492
пер 27484
мый 27480
йн@@ 27472
происхождения 27467
1973 27457
женат 27453
лого 27431
Н 27429
пери@@ 27415
озеро 27414
1971 27406
изи@@ 27381
студен@@ 27381
граде 27373
подписал 27359
тоже 27359
криста@@ 27349
морской 27347
ук@@ 27341
бок@@ 27337
ллы 27332
коричне@@ 27323
1963 27316
относительно 27312
инжен@@ 27299
цу@@ 27295
тра 27293
алексе@@ 27291
хан 27287
автомати@@ 27286
путем 27285
значи@@ 27281
техники 27275
четырехсот 27271
ступл@@ 27264
корабль 27254
высоко@@ 27253
радио 27239
щер@@ 27239
оцени@@ 27233
леса 27232
журна@@ 27231
щиков 27227
уровня 27221
альной 27205
льской 27201
оба 27194
1972 27186
материал 27179
адмира@@ 27174
продукт 27174
Гре@@ 27172
тыс. 27172
1968 27155
метро@@ 27155
квали@@ 27140
Гла@@ 27128
разо@@ 27128
половине 27122
появились 27114
названий 27111
программа 27107
округе 27102
гео@@ 27101
спектак@@ 27101
лад@@ 27098
причинам 27094
ряды 27091
шар@@ 27091
оне 27090
евре@@ 27084
степень 27080
образи@@ 27076
администрации 27073
торо@@ 27066
слово 27051
советских 27027
стической 27026
лето@@ 27022
казах@@ 27013
российского 27001
XVIII 26990
дить 26989
трав@@ 26980
кубка 26978
надцатое 26976
гер 26973
конструкции 26969
появляется 26969
Алексе@@ 26957
пом 26942
сергей 26929
жесто@@ 26927
турнире 26913
Сергей 26909
кавказ@@ 26905
ющую 26900
Мол@@ 26893
ровался 26888
темпера@@ 26886
Кра@@ 26880
бомбарди@@ 26880
издатель@@ 26857
установлен 26851
АТ@@ 26840
ора 26837
отправля@@ 26831
трои@@ 26826
48 26825
титу@@ 26820
ас@@ 26811
29@@ 26807
тей@@ 26807
52 26805
очеред@@ 26804
строй 26801
пуш@@ 26792
категории 26780
международного 26776
матери@@ 26775
Аб@@ 26766
1938 26765
искусство 26757
Тер@@ 26756
бод@@ 26754
шена 26744
делению 26734
пов@@ 26726
жем 26715
1977 26707
провер@@ 26706
мет 26696
доступ@@ 26695
конститу@@ 26695
дальней@@ 26694
берт 26679
гол 26679
сцена@@ 26660
связа@@ 26657
основных 26650
век 26639
63 26629
курс 26627
партия 26622
островов 26613
философии 26606
мский 26603
остави@@ 26593
победу 26592
предо@@ 26592
присвоено 26588
отделения 26581
ченные 26579
мина 26575
край 26566
Член 26559
оса@@ 26555
чаются 26553
средства 26548
внутренний 26544
показыва@@ 26540
пале@@ 26539
войну 26531
увиде@@ 26529
Амери@@ 26522
грузо@@ 26522
вами 26517
восемнадцати 26514
ху 26511
вдо@@ 26509
императора 26509
смот@@ 26505
шу 26497
1919 26488
смог 26488
фанта@@ 26488
хло@@ 26488
Справочник 26485
бук@@ 26485
петербур@@ 26479
ag@@ 26476
процес@@ 26469
бит@@ 26466
слов 26463
пятисот 26462
проце@@ 26457
al 26446
зон 26439
подписа@@ 26416
E 26412
дз@@ 26412
плав@@ 26410
механи@@ 26400
вам 26395
уста@@ 26394
клубе 26393
рос 26386
сердц@@ 26384
Золо@@ 26377
Всероссийская 26364
назад 26362
горь@@ 26352
ствах 26352
сне@@ 26340
туру 26338
сказ@@ 26335
бру@@ 26330
родо@@ 26329
источ@@ 26325
предназна@@ 26323
никогда 26318
сезо@@ 26315
явл@@ 26305
запад 26303
енных 26301
проходи@@ 26301
вось@@ 26299
швед@@ 26298
кости 26292
тысячных 26292
суд 26290
тическая 26290
кни@@ 26284
влад@@ 26280
крестьян@@ 26261
память 26259
итоги 26250
Не 26244
ьера 26239
дра 26221
казом 26219
сети 26215
сказа@@ 26211
юге 26207
смен@@ 26195
зависимости 26184
поез@@ 26184
гна@@ 26154
совместно 26152
yi 26149
рь@@ 26149
первоначально 26148
подвер@@ 26147
моз@@ 26140
услови@@ 26135
Памят@@ 26128
комплекс 26126
вру@@ 26122
звез@@ 26121
результаты 26106
постепенно 26099
улуч@@ 26097
выборах 26089
Гене@@ 26079
режиссера 26061
михаил 26045
проходил 26029
президентом 26008
рекор@@ 26008
лез@@ 26003
крупных 25994
Михаил 25991
ждений 25991
ол@@ 25990
нк@@ 25987
вдоль 25976
това@@ 25976
жало@@ 25969
ходы 25969
севере 25962
1969 25942
ницу 25936
емого 25932
объяв@@ 25928
выборов 25926
ино@@ 25925
каждой 25923
московский 25910
im@@ 25909
аку@@ 25909
всероссийская 25904
хам@@ 25903
потом@@ 25902
приняли 25902
стам 25902
джа 25868
уровень 25865
ятие 25855
дв@@ 25847
внутренних 25844
идет 25826
управл@@ 25824
языков 25821
размер 25813
министр 25810
борь@@ 25795
прес@@ 25794
документа@@ 25790
Бур@@ 25771
выступает 25763
целом 25761
Фор@@ 25758
вляет 25750
философ@@ 25744
взгля@@ 25742
морского 25737
капитан 25730
изо@@ 25723
появился 25718
средневе@@ 25718
директором 25716
сена@@ 25712
тую 25703
фами@@ 25702
соответству@@ 25701
медали 25699
рованные 25699
лове@@ 25698
лега@@ 25695
орган 25679
тка@@ 25672
писи 25671
тила 25668
министерства 25667
теоре@@ 25667
масси@@ 25665
модели 25660
ющийся 25654
кому 25650
Бал@@ 25645
могли 25638
орга@@ 25635
зами 25634
героя 25629
женился 25627
принадле@@ 25624
Бела@@ 25623
сад 25617
Послед@@ 25602
дный 25577
женные 25577
оказался 25564
us@@ 25558
био@@ 25556
жской 25556
приме@@ 25545
импера@@ 25530
85 25522
попыт@@ 25505
выигра@@ 25504
литов@@ 25499
оказа@@ 25492
хран@@ 25492
чности 25491
ворота 25488
бом 25487
участников 25485
действий 25484
палат@@ 25483
космо@@ 25481
фи 25468
общая 25457
комбина@@ 25449
конкур@@ 25446
горы 25440
собы@@ 25439
араб@@ 25416
1958 25414
высоте 25402
призван 25394
жный 25380
победы 25368
Гар@@ 25362
оне@@ 25361
составил 25355
администра@@ 25350
выступл@@ 25349
фигу@@ 25344
свет 25339
самом 25336
встречаются 25329
университе@@ 25327
входят 25322
падает 25322
гвардей@@ 25319
шина 25317
золотой 25312
понима@@ 25307
библиоте@@ 25305
поэт 25298
чемпи@@ 25290
фро@@ 25286
особ@@ 25285
ступает 25285
Кре@@ 25282
остается 25280
остат@@ 25277
жский 25275
особен@@ 25275
дц@@ 25273
этно@@ 25273
вс@@ 25265
ап@@ 25259
поверхности 25257
вме@@ 25254
помимо 25254
мисси@@ 25244
атив@@ 25234
лес 25233
правда 25218
руссии 25218
лейтенант 25217
! 25216
культура 25216
обуча@@ 25216
пришлось 25213
произо@@ 25208
приз@@ 25195
цком 25192
Име@@ 25183
публика@@ 25178
брон@@ 25174
вален@@ 25173
вском 25161
засе@@ 25159
уш@@ 25157
тр 25153
мульт@@ 25150
инте@@ 25144
1957 25120
большим 25117
эксплуата@@ 25117
сва@@ 25104
отдела 25100
моне@@ 25098
книж@@ 25097
произведен 25095
весьма 25091
яй@@ 25091
внутри 25090
прямо@@ 25087
42 25082
степен@@ 25078
прежде 25064
архитектуры 25063
непри@@ 25046
текст 25041
александра 25038
Укра@@ 25029
появилась 25026
ne@@ 25023
Александра 25022
колон@@ 25019
дию 25014
тропи@@ 25005
броне@@ 25003
канала 25002
Щ@@ 25001
мени 24992
парт@@ 24989
защит@@ 24987
словам 24985
спут@@ 24979
друга 24975
пье@@ 24969
окончании 24963
тием 24963
тео@@ 24951
федеральная 24944
жали 24939
Г 24932
распа@@ 24930
хле@@ 24928
обви@@ 24926
1961 24903
живет 24897
полномо@@ 24893
шестнадцати 24884
кава@@ 24866
Административно 24860
енно 24858
частично 24855
льными 24853
шестое 24850
майор 24848
плен 24847
хен@@ 24841
находились 24838
лос 24834
моби@@ 24833
O 24828
должна 24825
1962 24818
новка 24807
груп@@ 24805
защиты 24804
полно@@ 24802
члены 24801
князь 24786
заводе 24782
тай 24776
трени@@ 24774
будут 24773
вступи@@ 24747
тает 24745
дания 24735
эль@@ 24734
Виль@@ 24730
Кли@@ 24726
чаще 24717
получает 24713
исп 24712
устье 24700
шка@@ 24695
ровая 24681
пуле@@ 24679
местных 24678
яется 24670
мемори@@ 24669
ловский 24667
вок@@ 24658
успешно 24657
оль@@ 24650
рам@@ 24649
конец 24646
неоднократно 24644
бен 24640
кой@@ 24637
славы 24630
офицер@@ 24629
Оценка 24619
1946 24618
поя@@ 24615
катастро@@ 24612
стане 24609
дя@@ 24598
частей 24591
возможности 24587
карте 24578
архив 24576
примен@@ 24574
двенадцатом 24571
1956 24564
снима@@ 24553
состави@@ 24547
русь 24523
гор 24519
основана 24501
иностранных 24500
миллиметров 24488
бора 24487
отряд 24482
эй 24482
кня@@ 24471
ровский 24469
гда@@ 24468
экономики 24468
Красной 24450
рд 24450
контак@@ 24449
маши@@ 24448
эс@@ 24426
емая 24423
направ@@ 24415
фия 24408
состояние 24406
76 24405
клет@@ 24401
тером 24396
тари@@ 24394
тело 24392
ьями 24384
Националь@@ 24371
итал 24370
объект 24369
жных 24361
австри@@ 24360
ничего 24352
Дон@@ 24351
описы@@ 24341
моди@@ 24325
Ай@@ 24320
национа@@ 24302
границы 24300
фил@@ 24300
указыва@@ 24299
гражданской 24294
характери@@ 24270
сочин@@ 24269
гений 24262
перед@@ 24261
Пла@@ 24255
пления 24242
линия 24235
годом 24234
покол@@ 24221
68 24219
отнош@@ 24187
большие 24176
еся 24168
йся 24165
никова 24165
отече@@ 24148
пто@@ 24141
скан@@ 24141
43 24128
председателя 24128
Народ@@ 24124
дены 24121
пыт@@ 24120
средств 24118
шены 24115
необходимо 24114
одиннадцатом 24111
черта 24110
небольшой 24109
десяти@@ 24099
филосо@@ 24093
имела 24091
тет 24084
хот@@ 24076
мова 24074
прош@@ 24074
парка 24064
связь 24064
личе@@ 24062
своему 24054
выход@@ 24049
ори@@ 24049
гани@@ 24048
ir@@ 24044
турнир 24043
квадрате 24041
эфи@@ 24039
рев 24028
Гру@@ 24024
населенный 24019
совершен@@ 24017
генерала 24014
добро@@ 24014
скон@@ 24011
международных 24008
полови@@ 24002
художника 24002
создана 23998
ниц 23996
51 23991
щал 23991
выстав@@ 23987
машины 23981
теме 23973
кса 23969
Всего 23965
механиз@@ 23960
формиро@@ 23948
начальника 23931
Здесь 23930
напря@@ 23924
чению 23922
сии 23921
вела 23916
нена 23914
современного 23911
эко@@ 23911
осу@@ 23900
лизации 23884
ot@@ 23882
ровской 23879
макси@@ 23874
играет 23873
находилась 23872
состоял 23870
девуш@@ 23862
синте@@ 23859
Я. 23851
пунктам 23845
мам 23842
ию@@ 23840
станови@@ 23840
политической 23837
туа@@ 23827
стых 23820
славян@@ 23818
имеются 23812
увели@@ 23812
гита@@ 23809
тельное 23806
вопрос 23803
содержит 23801
подвод@@ 23800
54 23799
части@@ 23796
жной 23795
лат 23793
остался 23792
гая 23791
брига@@ 23780
италии 23764
чит 23756
вероятно 23755
городи@@ 23755
товой 23752
символ 23743
Италии 23741
анали@@ 23740
трам@@ 23738
факультета 23734
бригады 23729
рян@@ 23727
тира@@ 23725
изменения 23719
1954 23718
железнодорожная 23706
покинул 23694
бази@@ 23690
сад@@ 23689
зер 23687
галере@@ 23684
монасты@@ 23682
удо@@ 23680
ферен@@ 23680
уме@@ 23677
Тру@@ 23676
комна@@ 23667
план 23660
проси@@ 23645
сверх@@ 23643
направлении 23639
мери@@ 23628
Герой 23625
футболу 23620
Ры@@ 23619
заниматься 23619
пры@@ 23615
табли@@ 23615
руются 23608
лег 23606
преподавал 23601
66 23594
земле@@ 23592
Расстояние 23583
разно@@ 23574
ченный 23567
наро@@ 23558
рабочих 23556
истреби@@ 23549
стая 23541
сухо@@ 23537
кавалери@@ 23533
стка 23515
528 23514
горе@@ 23510
вери@@ 23507
солне@@ 23503
брата 23498
вспо@@ 23493
напомина@@ 23489
ада@@ 23486
единственный 23485
епископа 23482
62 23467
ник@@ 23465
орденами 23465
чили 23464
принято 23462
41 23442
кот@@ 23442
агентство 23441
левой 23424
упа@@ 23419
лился 23415
нав@@ 23414
игрока 23409
em@@ 23404
шве@@ 23399
представителей 23395
садо@@ 23388
ведо@@ 23387
турни@@ 23387
рады 23384
56 23381
означает 23377
новского 23352
описание 23350
йское 23342
летию 23338
ситуа@@ 23338
найти 23335
оружия 23328
Тем 23327
групп 23327
красного 23326
зоне 23325
медицин@@ 23325
пр@@ 23325
иса 23319
чет 23316
Пос@@ 23308
дцатью 23282
лит@@ 23276
отвер@@ 23276
зарубеж@@ 23274
характер 23267
арестован 23257
редактор 23252
мост 23249
клон@@ 23239
дается 23237
енные 23232
оружие 23232
Кана@@ 23230
отставку 23212
превы@@ 23210
супер@@ 23210
бок 23209
стой@@ 23208
кари@@ 23207
окружа@@ 23206
новую 23200
речной 23200
плот@@ 23198
досту@@ 23195
пятое 23190
АН 23188
Кара@@ 23180
береж@@ 23172
систе@@ 23172
эф@@ 23168
ментов 23166
Таким 23159
ураль@@ 23157
сту 23152
сфер@@ 23141
приток 23134
Мари@@ 23133
1926 23130
металли@@ 23125
номина@@ 23125
кового 23120
рованной 23117
бота@@ 23113
ваго@@ 23113
российских 23102
секре@@ 23085
уровне 23080
лак@@ 23078
ляются 23068
альфа 23064
предприятия 23063
la@@ 23061
функции 23044
модер@@ 23043
газо@@ 23041
комму@@ 23041
ГУ 23038
фронт 23038
Большая 23033
лесо@@ 23031
Эта 23026
груз@@ 23026
типо@@ 23013
результатам 23012
1936 23011
боле@@ 23001
гимна@@ 23001
попал 22997
Город 22989
замок 22988
сделать 22988
КО@@ 22975
расстре@@ 22973
тельная 22971
Эр@@ 22966
восста@@ 22963
крае@@ 22957
стихи 22952
гли 22950
тический 22948
c_latin 22941
сэ 22941
бель 22938
ванных 22933
выходит 22933
концеп@@ 22922
буд@@ 22906
депутатов 22904
T 22902
фаль@@ 22897
начальником 22895
финале 22889
млн 22885
конфлик@@ 22878
руб@@ 22862
Федеральная 22855
семнадцати 22852
доне 22850
рал 22835
тива 22824
создание 22821
равно@@ 22818
рих 22818
баро@@ 22811
приходится 22807
теров 22806
Площадь 22805
надца@@ 22804
дево@@ 22787
дороге 22778
нашей 22773
высота 22766
мекси@@ 22758
ph@@ 22757
чений 22755
контро@@ 22753
гвар@@ 22749
стреми@@ 22737
el 22734
руковод@@ 22732
беспо@@ 22721
времена 22719
сделал 22719
названа 22717
виды 22716
книгу 22714
оказыва@@ 22714
веков 22712
пр 22707
продолжитель@@ 22701
обнов@@ 22695
началом 22694
меня 22693
сиби@@ 22691
Эти 22686
оре@@ 22686
опу@@ 22682
Вскоре 22680
законодатель@@ 22678
шахмат@@ 22668
гский 22661
корпу@@ 22661
Если 22654
ненных 22654
Коро@@ 22652
знак 22652
рекомен@@ 22651
португа@@ 22649
46 22643
исследователь@@ 22643
получить 22642
дис@@ 22641
лик 22634
один@@ 22633
каза 22632
47 22619
систему 22615
рейтин@@ 22610
обязатель@@ 22608
погибли 22608
карьеры 22607
дети 22606
соста@@ 22603
интерес@@ 22600
зя@@ 22598
использования 22598
составлял 22598
моде@@ 22589
1948 22585
романа 22582
смени@@ 22573
маги@@ 22572
длов@@ 22570
организация 22565
высшей 22560
кораб@@ 22560
ционная 22560
проведения 22557
тренером 22557
шот@@ 22556
ровского 22539
L 22538
главных 22520
дина@@ 22520
лон 22516
Ф 22514
иванович 22505
переулок 22505
ано@@ 22504
лежа@@ 22491
освободи@@ 22491
Пари@@ 22476
Иванович 22465
чалась 22465
бас@@ 22462
втор@@ 22462
переме@@ 22459
церемо@@ 22458
гай@@ 22457
концу 22451
гвардии 22448
зию 22446
яты 22445
лец 22442
уде@@ 22440
компьютер@@ 22439
петербург 22437
1935 22432
женщина 22425
вателем 22423
начиная 22423
останови@@ 22417
Сен@@ 22414
востока 22411
двой@@ 22410
сно 22404
евро@@ 22399
71 22386
военные 22363
патри@@ 22361
84 22354
Сто@@ 22350
Ее 22349
специализи@@ 22348
румы@@ 22346
польский 22344
территорию 22341
мяг@@ 22333
домов 22329
месторо@@ 22323
закончил 22320
От 22315
бах 22315
Ху@@ 22314
бежать 22314
русская 22313
руп@@ 22311
сей 22306
Фри@@ 22305
Ат@@ 22300
лиде@@ 22289
вторым 22284
росси@@ 22265
ника@@ 22264
стол@@ 22262
прошли 22260
блю@@ 22259
сопровожда@@ 22259
XVII 22250
пля@@ 22248
кут@@ 22246
Тат@@ 22244
финал 22228
направл@@ 22222
одес@@ 22222
секретарь 22217
множе@@ 22208
провозгла@@ 22203
стрель@@ 22203
ряд@@ 22199
интернет 22196
туда 22194
раун@@ 22189
основным 22187
еры 22185
дета@@ 22179
роз@@ 22179
холод@@ 22175
ig@@ 22154
вик@@ 22151
шев 22143
литература 22142
принадлежит 22141
de 22136
Ch@@ 22135
лови@@ 22135
пес@@ 22133
самолет 22133
композитор 22123
призер 22119
зад@@ 22117
лию 22112
Фа@@ 22107
Лат@@ 22106
вино@@ 22097
фан@@ 22092
провинцию 22088
образ 22084
чался 22076
лыми 22075
решения 22072
рения 22070
будучи 22063
олимпийских 22060
йной 22052
Является 22047
вошли 22047
собора 22038
устанавли@@ 22036
иностран@@ 22035
уры 22028
рик 22025
краси@@ 22022
открыта 22021
ранен 22005
вплоть 22002
жест@@ 21999
китай@@ 21991
Ресурсы 21988
хозяйств 21985
редакции 21981
67 21979
музы@@ 21977
тан 21977
максима@@ 21975
лично 21960
косая 21956
bo@@ 21948
ссылка 21934
выхода 21928
th@@ 21927
крат@@ 21914
влека@@ 21907
анато@@ 21904
гно@@ 21903
корабля 21897
годской 21895
аналоги@@ 21893
вока@@ 21892
ватели 21889
представители 21884
перевод 21883
каждого 21876
чением 21876
дар 21872
бом@@ 21866
дочер@@ 21864
the 21845
дание 21842
оном 21837
требу@@ 21828
голосо@@ 21826
цеп@@ 21824
растения 21819
вей 21817
ито@@ 21817
Анто@@ 21810
кано@@ 21802
гей@@ 21801
создал 21801
выступил 21799
смыс@@ 21795
материалов 21794
гам@@ 21783
88 21781
is 21781
нейших 21779
ленно 21770
археологи@@ 21769
подъ@@ 21767
чики 21755
премию 21750
вынужден 21745
энциклопедии 21742
лую 21740
числа 21738
дера 21730
сериале 21727
несен@@ 21725
музе@@ 21722
пусты@@ 21720
известных 21718
обучения 21718
тном 21715
реалов 21712
событий 21708
вариант 21707
стрии 21707
енной 21703
лении 21699
циональ@@ 21695
лением 21690
перераб 21687
местах 21684
вки 21683
дие 21679
щихся 21677
принят 21674
сеть 21659
непосредственно 21658
народного 21657
ссы@@ 21648
пунк@@ 21643
воде 21639
хри@@ 21637
чемпион@@ 21636
туаль@@ 21635
подня@@ 21633
пригово@@ 21631
лар@@ 21629
Все@@ 21628
Высо@@ 21620
кап@@ 21619
гидрологическая 21610
беж@@ 21608
приве@@ 21606
ленная 21603
лучший 21600
руки 21596
сда@@ 21596
техниче@@ 21595
статей 21591
Тор@@ 21590
тысяч@@ 21585
бата@@ 21580
премия 21575
IV 21574
Коман@@ 21567
Гидрологическая 21557
поля@@ 21553
регуляр@@ 21548
комсомо@@ 21547
возду@@ 21545
фана@@ 21536
поддер@@ 21533
итогам 21531
занской 21528
собор 21527
пытался 21525
ады 21524
составила 21523
ряде 21516
Петербург 21508
гал@@ 21502
норве@@ 21502
евка 21494
просве@@ 21493
люб@@ 21489
Большой 21487
Макси@@ 21479
замуж 21479
зывает 21479
Нов@@ 21472
доль@@ 21465
Поче@@ 21462
модель 21461
двадца@@ 21460
усадь@@ 21459
академию 21448
телям 21448
которому 21438
силу 21437
Позже 21436
Умер 21429
хаила 21429
профессора 21425
интервью 21424
кта@@ 21424
ed@@ 21419
следующем 21418
среднем 21407
правом 21405
ментом 21403
студии 21402
вошла 21392
пресси@@ 21392
драмати@@ 21386
командовал 21372
правление 21369
леги@@ 21368
1949 21356
конференции 21356
н. 21349
руси 21342
борьбе 21341
Поли@@ 21336
Шу@@ 21332
обре@@ 21321
выпущен 21317
директора 21317
облад@@ 21312
психи@@ 21312
Звез@@ 21303
1914 21301
1924 21292
Нико@@ 21289
ровала 21289
городах 21288
отправился 21287
относятся 21280
судеб@@ 21280
коп@@ 21279
почита@@ 21279
кии 21276
дит 21274
корреспонден@@ 21274
события 21274
дент@@ 21273
Рос@@ 21269
борьбы 21266
реку 21266
зан 21251
использование 21242
болезни 21238
os@@ 21227
болез@@ 21226
избра@@ 21224
мания 21224
1933 21221
используют 21221
особы@@ 21221
сопер@@ 21215
тради@@ 21213
административного 21211
письмен@@ 21211
гет@@ 21202
самостоятель@@ 21201
г, 21199
метра@@ 21197
студентами 21187
G 21185
ави@@ 21178
вечер@@ 21178
выступи@@ 21178
результа@@ 21173
стаби@@ 21168
состоянии 21164
чность 21164
лау@@ 21158
Москов@@ 21156
объедин@@ 21156
музыка 21155
фактически 21155
душу 21145
Сиби@@ 21138
увеличи@@ 21132
ату@@ 21126
убит 21123
писателей 21117
озе@@ 21115
лению 21108
дных 21106
интере@@ 21103
учениками 21098
1947 21096
великого 21093
клады@@ 21085
деньги 21082
емы 21079
момента 21079
возглавлял 21077
президент@@ 21076
смолен@@ 21076
экономических 21062
мине@@ 21051
ежегодно 21047
Фер@@ 21043
кос@@ 21043
отказа@@ 21039
навли@@ 21023
сказал 21023
мбо@@ 21018
замени@@ 21012
пет@@ 21012
лас 21011
часа 21002
картины 20995
бывшего 20991
продолжал 20988
1955 20980
принимает 20973
ушел 20969
грамма 20961
обладает 20957
пытается 20944
аф@@ 20942
городом 20941
позволя@@ 20940
преступл@@ 20932
архитектур@@ 20913
край@@ 20911
впадает 20907
шь 20905
1922 20904
сх@@ 20902
актер@@ 20893
ассоциации 20889
отдел@@ 20889
плод@@ 20869
74 20868
слов@@ 20868
шил 20868
годо@@ 20864
территори@@ 20862
левому 20860
торгов@@ 20854
писан@@ 20849
современных 20848
61 20845
часто@@ 20845
1925 20838
серге@@ 20838
Пол@@ 20835
] 20832
пас@@ 20830
озер@@ 20828
филип@@ 20828
послу@@ 20826
образователь@@ 20817
продолжил 20816
дири@@ 20813
транспорта 20813
японии 20807
рекла@@ 20804
адре@@ 20801
Японии 20792
сих 20792
изгото@@ 20791
ванной 20780
сыном 20780
розо@@ 20778
меся@@ 20777
Серге@@ 20771
увелич@@ 20770
жать 20756
шал 20756
патриар@@ 20755
оны 20737
Армии 20731
присоеди@@ 20728
Некоторые 20726
Три@@ 20725
хин 20725
ято 20710
спис@@ 20709
96 20708
зала 20708
информация 20707
обработ@@ 20707
лик@@ 20702
83 20691
согласи@@ 20685
Э. 20684
ресур@@ 20684
жается 20683
Сан 20679
фай@@ 20665
месяца 20659
сом@@ 20649
лауреат 20644
мато@@ 20644
поддержку 20644
уса 20644
Бен@@ 20642
далее 20638
78 20637
футбо@@ 20635
' 20631
пожар@@ 20630
1953 20629
рестав@@ 20620
шири@@ 20620
Вой@@ 20614
крепости 20612
близ 20602
льник 20593
премьера 20590
стантин 20589
дут 20583
двенадца@@ 20582
кови@@ 20579
шко 20575
Худо@@ 20565
четырнадцати 20564
58 20560
чеб@@ 20558
Сим@@ 20547
привле@@ 20539
природы 20539
голов 20535
греб@@ 20535
сотрудниче@@ 20527
рованная 20526
тво@@ 20526
чт@@ 20526
потому 20523
чку 20523
видео 20519
ic 20516
госпита@@ 20511
Гидрометеоиздат 20507
гидрометеоиздат 20507
карти@@ 20503
заявил 20500
доктора 20495
деяте@@ 20488
исторический 20486
Том 20482
ври@@ 20480
тремя 20477
экспер@@ 20477
скла@@ 20476
другом 20475
кость 20474
плати@@ 20473
наступление 20472
битве 20469
квадра@@ 20469
НИ@@ 20467
02 20461
всесоюз@@ 20460
топли@@ 20441
Автор 20439
номер 20439
амери@@ 20434
руководство 20426
ьян@@ 20425
спец@@ 20417
командиром 20415
53 20414
сот@@ 20413
og@@ 20412
Рай@@ 20412
данной 20411
энер@@ 20408
Авто@@ 20402
кораблей 20398
усили@@ 20398
1934 20392
бума@@ 20390
рово@@ 20380
Суще@@ 20379
вир@@ 20375
нями 20372
услу@@ 20372
меньше 20370
300 20362
1915 20360
девятнадцати 20360
нена@@ 20357
тью 20357
началу 20356
1928 20355
Национальный 20355
лое 20351
сочета@@ 20346
стихотвор@@ 20346
баскет@@ 20344
ил@@ 20342
тринадцатом 20342
позво@@ 20340
регули@@ 20332
берта 20331
составляют 20331
средняя 20330
традиции 20324
горь 20321
au@@ 20320
стрелко@@ 20320
рэн@@ 20319
талан@@ 20310
состояния 20309
щика 20302
куда 20296
Куз@@ 20293
ленинградской 20287
раско@@ 20284
фестиваля 20284
Находится 20277
ленинград@@ 20267
закан@@ 20266
тельности 20266
дные 20254
озна@@ 20252
лучшим 20251
фрон@@ 20251
появи@@ 20250
устрой@@ 20249
енная 20246
оси@@ 20243
артист 20235
эпохи 20235
политики 20233
Син@@ 20232
административному 20230
шать 20225
устройство 20223
красный 20221
77 20219
крестья@@ 20217
джи 20213
пенси@@ 20205
еписко@@ 20204
большей 20198
классов 20198
Х 20194
49 20189
Sh@@ 20188
Московского 20182
каре@@ 20180
З 20175
жид@@ 20169
ведет 20164
95 20163
вро@@ 20160
руководил 20157
Олимпи@@ 20156
крупные 20151
F 20150
евреев 20148
г- 20146
издания 20143
чина 20143
сборная 20137
Сла@@ 20136
женный 20133
командира 20132
Бел@@ 20130
лед@@ 20123
Полу@@ 20122
тельным 20122
исторических 20120
автором 20118
вызыва@@ 20109
ядер@@ 20109
com 20101
редакцией 20093
эффек@@ 20091
Совет@@ 20084
зона 20082
астроно@@ 20079
неу@@ 20079
1923 20078
восстания 20078
рхи@@ 20073
бина 20071
зоны 20067
консерва@@ 20067
деле 20064
закре@@ 20064
защитник 20064
Первая 20063
ниями 20060
княже@@ 20057
зор 20053
обучение 20051
Несмотря 20050
младший 20048
нали@@ 20042
дного 20040
отри@@ 20040
хозяйство 20040
1921 20039
бассей@@ 20039
Первой 20031
сера 20024
случай@@ 20020
здании 20017
.ru 20016
неактивных 20016
вши@@ 20013
ллер 20011
ночь 20000
ема 19991
вое@@ 19989
Истори@@ 19987
пассажир@@ 19987
St@@ 19985
режис@@ 19982
Обще@@ 19979
живописи 19979
студентов 19976
васто@@ 19971
ню@@ 19962
консуль@@ 19961
мят@@ 19960
соответственно 19958
исполнитель@@ 19957
пример 19948
инженер@@ 19947
Спе@@ 19942
разилии 19942
пуль@@ 19940
Даль@@ 19939
Село 19939
совмест@@ 19939
смерть 19937
табл 19933
жду 19928
экспеди@@ 19928
стера 19913
недоступная 19911
руководитель 19909
вные 19907
няет 19905
индивиду@@ 19899
полага@@ 19899
эли@@ 19897
отношении 19893
цова 19891
международный 19888
Выс@@ 19884
1000 19883
глуб@@ 19883
аресто@@ 19882
ent@@ 19880
сексу@@ 19878
57 19873
Джа@@ 19868
мероприяти@@ 19865
рю 19858
контроли@@ 19856
связано 19856
купи@@ 19852
построи@@ 19852
зре@@ 19846
гг 19845
доб@@ 19845
расстоянии 19845
док@@ 19840
передачи 19840
числи@@ 19840
пенсионерами 19837
жителя 19836
ждена 19835
Архи@@ 19834
династии 19833
асси@@ 19831
вопросы 19820
хреб@@ 19820
шествен@@ 19816
содер@@ 19815
языки 19815
всемир@@ 19813
мене@@ 19813
гун@@ 19808
десан@@ 19806
99 19805
тр@@ 19803
полице@@ 19796
республикан@@ 19795
игроком 19793
совершил 19781
эваку@@ 19778
надеж@@ 19777
рый 19774
мении 19767
скри@@ 19763
миллиар@@ 19757
диума 19754
состоялось 19754
звания 19750
Иль@@ 19746
Дэ@@ 19745
Тро@@ 19740
посред@@ 19737
такого 19734
участок 19733
Похоронен 19732
Сол@@ 19732
венгер@@ 19727
кона 19724
Название 19721
дни 19719
срок 19717
неве@@ 19711
новости 19707
испании 19702
присво@@ 19699
хирур@@ 19698
даты 19695
Испании 19693
гне@@ 19692
клубом 19692
больших 19690
уров@@ 19678
группой 19668
известна 19663
01 19659
здат 19658
феро@@ 19658
писы@@ 19654
многочисленные 19653
мое 19652
остальные 19652
ванные 19651
Стра@@ 19647
взаимодей@@ 19642
отношений 19629
05 19628
1932 19627
выя@@ 19627
отда@@ 19615
курсы 19614
Осно@@ 19606
1952 19604
нией 19603
сантиметров 19603
падения 19601
Слу@@ 19599
вес 19599
повто@@ 19596
аэропор@@ 19594
гур@@ 19594
протя@@ 19594
целая 19594
четырех@@ 19594
Дне@@ 19592
фонд 19592
кал@@ 19587
тельство 19585
ребен@@ 19584
преобразо@@ 19583
приход@@ 19583
вили 19579
воскре@@ 19576
энергии 19576
ники@@ 19569
создании 19568
лта@@ 19561
пау@@ 19559
щую 19550
флот 19548
переименован 19547
высокой 19544
лана 19540
Один 19537
Таблица 19535
возраст 19535
зво@@ 19530
броси@@ 19527
тыш 19527
Ад@@ 19526
росто@@ 19519
группи@@ 19514
1931 19512
Сара@@ 19511
родствен@@ 19511
Вик@@ 19507
явление 19502
департамент 19499
заняла 19492
преследо@@ 19482
юг 19482
вене@@ 19481
осна@@ 19479
энерге@@ 19477
Средний 19476
сценари@@ 19468
од 19464
Вал@@ 19462
собрание 19460
соответствии 19458
59 19455
судо@@ 19455
сколько 19452
73 19447
лам@@ 19447
ванная 19446
скор@@ 19445
стои@@ 19444
Ленинградской 19438
ковая 19437
Изд 19432
Верхов@@ 19429
правому 19429
тена 19429
жев@@ 19422
79 19421
неактивными 19418
пользу@@ 19417
команди@@ 19415
аку 19407
фронте 19407
балти@@ 19400
кл 19392
вателя 19378
осуществляется 19377
сак@@ 19376
заместителем 19375
расти@@ 19366
ard 19360
ec@@ 19351
ковым 19349
ауди@@ 19348
гали@@ 19347
бке 19344
весной 19343
света 19342
ческому 19335
участия 19332
безработных 19329
крестьянской 19328
вера 19326
торе 19325
георги@@ 19324
риса 19322
догово@@ 19320
грамм 19318
Дей@@ 19316
песню 19315
познакоми@@ 19313
ьков@@ 19301
распоря@@ 19288
бит 19286
телевид@@ 19286
существуют 19285
69 19279
водохранили@@ 19275
двое 19266
Оль@@ 19254
мне 19252
йм@@ 19251
потеря@@ 19246
начались 19244
кора@@ 19243
фаши@@ 19239
авторов 19231
сестра 19226
игру 19224
солн@@ 19214
Академии 19212
пол 19212
рои@@ 19211
заповед@@ 19205
аген@@ 19203
Андрей 19201
жные 19196
преступ@@ 19194
1905 19193
поражение 19192
тысячного 19191
удоб@@ 19187
азербайджан@@ 19184
сок 19184
мог@@ 19174
тик 19173
мото@@ 19169
зарегистри@@ 19157
дина 19156
данного 19155
наследо@@ 19155
отличается 19155
пев@@ 19151
осуществля@@ 19143
объектов 19140
тяну@@ 19139
возглавля@@ 19138
Смолен@@ 19132
андрей 19132
av@@ 19125
Энциклопедия 19120
позна@@ 19120
ци 19116
безу@@ 19113
ах@@ 19110
92 19109
помощ@@ 19104
аны 19097
вся 19095
ьюстами 19093
Фло@@ 19092
Феде@@ 19090
нужно 19090
ери 19086
Фин@@ 19084
технологии 19081
кубок 19077
отказался 19073
горий 19071
Бере@@ 19067
бей@@ 19065
Алексей 19064
лизо@@ 19052
вшейся 19050
шев@@ 19042
каж@@ 19038
огонь 19038
кура@@ 19037
инициати@@ 19032
нили 19030
пси@@ 19028
мпи@@ 19027
фраг@@ 19022
алексей 19013
апосто@@ 19013
XVI 19012
распростра@@ 19012
самолета 19012
ru 19006
Речной 19004
царя 18990
происходи@@ 18989
свыше 18987
езд 18977
R 18973
оккупи@@ 18972
пей@@ 18966
1951 18965
коме@@ 18964
дона 18962
измер@@ 18953
лага@@ 18944
ману@@ 18943
актри@@ 18941
жиз@@ 18941
переведен 18940
сцен@@ 18939
Петербур@@ 18935
дмитри@@ 18933
пример@@ 18933
оф@@ 18932
id@@ 18929
бон@@ 18927
сереб@@ 18924
меч@@ 18921
колони@@ 18918
илья@@ 18917
чиком 18917
бин 18912
стон 18908
реформы 18902
верхов@@ 18896
lo@@ 18892
постра@@ 18883
Пен@@ 18881
международной 18877
заказ@@ 18876
мас 18871
сид@@ 18870
дуб@@ 18865
контроль 18863
писать 18856
функциони@@ 18856
дик@@ 18855
Робер@@ 18851
1927 18849
карто@@ 18849
четырнадцатом 18844
матер@@ 18839
псевдо@@ 18839
логический 18836
освя@@ 18827
секун@@ 18823
парла@@ 18822
кузне@@ 18815
фек@@ 18811
ленина 18809
канале 18808
росстат 18807
энциклопеди@@ 18807
поряд@@ 18806
отрас@@ 18802
пии 18802
Росстат 18798
сон@@ 18797
соединение 18791
игроков 18775
гат@@ 18774
нынеш@@ 18770
эд@@ 18756
мария 18755
гора 18747
историко 18745
ляндии 18740
Бан@@ 18738
училища 18738
Страны 18737
зывал 18728
товых 18728
военную 18724
зало@@ 18720
посвя@@ 18715
КА 18711
Табл 18710
всероссийской 18701
уголов@@ 18698
каса@@ 18697
ковый 18694
окончательно 18692
действует 18691
Тай@@ 18686
опре@@ 18677
рана 18674
звезда 18673
дили 18667
виду 18665
нении 18665
соединения 18662
проходят 18659
верховного 18658
ie 18651
атако@@ 18643
приро@@ 18640
фронтах 18637
возле 18636
футболи@@ 18635
нуж@@ 18632
отдел 18632
Род@@ 18629
бил 18628
Олимпийских 18625
соревнованиях 18624
православной 18623
матчах 18613
сных 18610
Нар@@ 18606
предложил 18600
хер@@ 18598
новосибир@@ 18595
дной 18592
стен 18588
научной 18586
раба@@ 18575
ступил 18571
доход 18566
тта 18565
дав@@ 18557
экономико 18553
населенного 18547
Пок@@ 18543
градской 18541
зин 18540
биологи@@ 18535
менте 18532
рун@@ 18529
константи@@ 18521
сюда 18519
объяви@@ 18514
металлур@@ 18513
Чемпиона@@ 18512
середины 18511
тюр@@ 18510
Афри@@ 18506
чались 18503
торже@@ 18501
зар@@ 18499
дипломати@@ 18497
занимается 18495
воин@@ 18490
инде@@ 18482
прав 18473
византи@@ 18470
Хе@@ 18469
оригинальной 18469
телевизион@@ 18469
Ам@@ 18466
потреб@@ 18466
лиц 18464
масте@@ 18464
Филип@@ 18463
автоном@@ 18459
Бор@@ 18455
период@@ 18451
одиннадцати 18450
дорож@@ 18444
альная 18439
югу 18435
повед@@ 18432
немного 18430
получения 18429
сур@@ 18426
профи@@ 18423
ыми 18417
неде@@ 18416
операция 18416
эл@@ 18416
случаях 18412
соедин@@ 18411
Московский 18410
тивной 18408
Советская 18406
гое 18406
08 18405
вита@@ 18405
зав@@ 18404
препара@@ 18396
научный 18395
тская 18386
ано 18384
систем@@ 18379
осе@@ 18378
ерусали@@ 18376
Азербай@@ 18374
слишком 18372
подроб@@ 18365
тировал 18365
евича 18354
восьми@@ 18350
льская 18347
утвержда@@ 18332
евском 18327
успех 18324
евой 18322
чила 18321
пания 18317
пласти@@ 18310
двига@@ 18307
вшегося 18304
процессе 18303
B 18302
магистра@@ 18298
Ленина 18293
мович 18291
декс 18284
мого 18283
ими 18281
раста@@ 18281
рат 18279
положительно 18278
прошла 18273
княз@@ 18267
Сы@@ 18262
закон 18255
Северной 18247
командованием 18247
медиафайлы 18243
лит 18240
81 18238
Сво@@ 18237
ьяна 18237
сою@@ 18233
бурга 18226
эксперимен@@ 18226
нос 18212
фикация 18212
пах 18211
офице@@ 18209
чив 18209
моти@@ 18208
метод 18205
фигур@@ 18202
нях 18201
ловского 18200
декора@@ 18196
лям 18196
нова@@ 18196
хта 18196
термин 18194
гской 18191
выста@@ 18190
стены 18185
дуар@@ 18184
американской 18182
умерла 18182
предприятие 18180
крепость 18176
торами 18170
диссертацию 18168
кискладе 18154
89 18151
водос@@ 18146
перспек@@ 18146
сохраня@@ 18146
хорва@@ 18146
рец 18140
осенью 18133
архе@@ 18125
вна 18125
начался 18121
напада@@ 18119
лян 18118
нимать 18118
такое 18113
Университе@@ 18108
Це@@ 18105
прибыл 18105
отличи@@ 18103
художественный 18100
поедин@@ 18099
которыми 18097
государство 18096
Там 18095
потери 18095
самоле@@ 18093
гать 18091
сцене 18089
покрови@@ 18087
стого 18080
хутор 18077
гекта@@ 18075
ющи@@ 18074
любой 18070
инженер 18055
изначально 18045
израи@@ 18045
азии 18042
музыку 18042
Дмитри@@ 18041
болга@@ 18027
верх 18025
восстанови@@ 18023
обеспе@@ 18023
тывает 18022
бурге 18020
вета 18019
a_latin 18018
авгу@@ 18018
словаря 18015
ционе@@ 18015
Устье 18014
явления 18009
Их 18006
всему 18005
записа@@ 18001
нера 18000
мян@@ 17996
Сою@@ 17991
Израи@@ 17990
пом@@ 17990
охва@@ 17986
демон@@ 17971
аэропорт 17961
вероят@@ 17953
ленного 17950
никах 17948
окон@@ 17943
женой 17942
афри@@ 17939
The 17936
тивы 17933
символизи@@ 17932
бак@@ 17929
друз@@ 17925
хозя@@ 17925
метро 17924
св 17922
подготовки 17919
периоди@@ 17915
ума 17915
порядка 17910
тельность 17908
еже@@ 17903
самоуправления 17903
дани@@ 17896
обсу@@ 17890
печата@@ 17889
возвращается 17873
лью 17873
тских 17867
авиации 17861
уточ@@ 17861
фу 17855
Мария 17853
приводит 17844
польской 17843
видео@@ 17838
еме 17834
чали 17830
импери@@ 17817
заби@@ 17813
петр 17811
гося 17809
Мен@@ 17807
Коми@@ 17806
миру 17802
христи@@ 17798
03 17796
скорость 17794
фер 17793
демо@@ 17791
музее 17789
Боль@@ 17788
уд@@ 17779
любовь 17772
писателя 17767
ланд 17766
мено@@ 17762
участво@@ 17760
1913 17759
каждые 17755
тысячей 17754
экспедиции 17751
юни@@ 17751
кате@@ 17746
Зи@@ 17743
единственным 17743
вынуж@@ 17734
жного 17731
шоссе 17730
говой 17729
яб@@ 17728
шить 17727
бер 17723
вклад 17723
альных 17722
уди@@ 17722
пами 17714
башкортостан 17710
динами@@ 17709
Башкортостан 17700
болгар@@ 17696
Кубка 17695
эсто@@ 17688
Мер@@ 17681
марки 17680
КП 17672
банк 17672
ост@@ 17670
языках 17670
литературе 17666
гнез@@ 17664
фестиваль 17658
ансамб@@ 17651
известны 17650
петербурге 17649
шают 17646
мата 17645
проходили 17643
большеви@@ 17641
джор@@ 17641
набра@@ 17639
метал@@ 17638
абсолю@@ 17632
ститу@@ 17630
Молод@@ 17626
муниципальное 17622
молодых 17620
щими 17620
коммента@@ 17618
Петербурге 17615
направления 17614
фикси@@ 17607
капи@@ 17598
бек@@ 17595
кири@@ 17595
специальности 17593
крайне 17590
эры 17589
дя 17588
землю 17586
льда 17584
Прави@@ 17581
ального 17581
манской 17579
особо@@ 17574
Георги@@ 17573
жар@@ 17572
м. 17570
лэ@@ 17563
польск 17549
птиц 17542
11@@ 17536
прито@@ 17536
пки 17535
портал 17535
последнего 17528
боевой 17526
корабли 17524
отряда 17524
ктор 17522
характеризу@@ 17519
цк 17515
сериал 17514
ара 17506
дума@@ 17506
объя@@ 17506
изобрет@@ 17503
ap@@ 17501
гости@@ 17494
древне@@ 17492
комплекса 17488
выборы 17486
народный 17480
дворец 17479
масшта@@ 17478
ученый 17472
лона 17471
наимено@@ 17465
разные 17460
жав@@ 17459
горя@@ 17458
веде@@ 17457
кандидат@@ 17457
изде@@ 17456
87 17454
судов 17454
элементы 17453
ждению 17451
кори@@ 17449
Сбор@@ 17445
опти@@ 17445
ul@@ 17443
ака@@ 17443
Ян@@ 17442
англии 17435
раскры@@ 17435
очков 17429
яко@@ 17429
мони@@ 17424
Кам@@ 17423
ис 17423
военно@@ 17420
тными 17420
дзе 17416
тивных 17416
Австра@@ 17413
Впервые 17412
округу 17409
собрания 17408
зей 17407
оказывается 17401
правил 17401
представлена 17387
полиции 17384
Геро@@ 17383
мече@@ 17380
йт 17379
бун@@ 17377
говор@@ 17377
обнаружи@@ 17375
отмен@@ 17375
новом 17374
атмо@@ 17372
семейства 17368
яна 17365
новод@@ 17355
тел 17354
нефте@@ 17353
делает 17352
дель 17351
баев 17349
основал 17348
нительно 17347
великобритании 17346
ion 17342
снаб@@ 17342
Великобритании 17341
политических 17335
чая 17333
диф@@ 17330
зой 17329
давно 17326
самолетов 17326
результат 17322
органов 17320
мирович 17319
командой 17310
проживает 17305
подру@@ 17300
Англии 17294
тиви@@ 17291
царь 17291
ярослав@@ 17290
циали@@ 17288
преры@@ 17287
жит 17281
метр 17281
хана 17279
номе@@ 17277
зрителей 17274
останов@@ 17274
половины 17268
мс 17267
вят@@ 17257
молеку@@ 17256
дала 17255
Наиболее 17254
гресси@@ 17252
недалеко 17252
управлению 17252
кн 17251
провед@@ 17245
имена 17243
ванного 17238
компанией 17233
европейской 17228
подчерки@@ 17223
мифо@@ 17222
цир@@ 17218
епископом 17216
ремен@@ 17214
фом 17214
молодой 17209
узе@@ 17209
вооруженных 17208
обвин@@ 17208
Новосибир@@ 17204
автономного 17202
демонстри@@ 17202
тс 17201
берет 17200
выстре@@ 17199
отдельных 17194
тринадцати 17192
изве@@ 17191
чины 17189
ВС 17178
бои 17178
ресто@@ 17166
ствовали 17166
04 17162
повтор@@ 17162
проекту 17160
Петр 17154
завоевал 17140
железнодорожной 17135
мию 17135
крупнейших 17133
джон 17132
совой 17130
следующие 17129
левом 17121
ционно 17120
неме@@ 17119
написании 17114
сэ@@ 17114
Первые 17110
господ@@ 17107
кафедры 17105
представлен 17104
теп@@ 17104
установлена 17103
Русский 17102
чрезвычай@@ 17098
кирпи@@ 17097
легко 17097
ань 17091
европе 17091
аз@@ 17077
составляли 17074
арген@@ 17073
кинемато@@ 17072
Европе 17071
раньше 17071
тивные 17069
берега 17064
объявил 17058
образований 17055
сино@@ 17055
сообщества 17050
мезо@@ 17048
фотографи@@ 17041
почтовый 17032
особенности 17029
прибли@@ 17028
1906 17027
про 17026
98 17021
Вин@@ 17021
соревнования 17010
султа@@ 17010
студи@@ 17008
существование 17008
бол@@ 17006
зок 17004
АС@@ 17001
территориального 17001
q@@ 16995
гие 16993
Роди@@ 16988
иметь 16982
фей@@ 16981
интересо@@ 16972
входи@@ 16969
компью@@ 16968
тать 16962
поступи@@ 16958
чке 16955
1912 16947
астро@@ 16946
Азии 16945
поря@@ 16943
каби@@ 16934
проблем 16933
причиной 16931
имуще@@ 16930
рисун@@ 16928
северу 16928
грии 16926
василь@@ 16922
офи@@ 16922
Лин@@ 16920
любви 16919
релье@@ 16913
старше 16902
главы 16898
подверга@@ 16898
рил 16898
ральным 16896
морских 16886
грес@@ 16881
банка 16879
исключительно 16878
готов@@ 16877
кель@@ 16872
Константи@@ 16870
освобождения 16869
ar 16863
ятель@@ 16863
дмитрий 16862
изучал 16854
стия 16846
вело@@ 16841
император 16840
тную 16840
маг@@ 16839
Вла@@ 16838
элементов 16838
поезда 16837
дт 16835
героев 16834
служ@@ 16831
ото 16828
выпуска 16827
Евро@@ 16824
сной 16823
Ленинград@@ 16820
подчиняется 16820
берга 16817
девяностом 16815
нажды 16814
камер@@ 16813
сообщи@@ 16813
фель@@ 16812
след@@ 16811
тихо@@ 16810
юноше@@ 16810
рубе@@ 16808
чан 16807
подоз@@ 16796
поте@@ 16793
шении 16787
гарни@@ 16786
красо@@ 16782
летних 16782
грамо@@ 16779
девяностого 16779
лил 16778
достаточ@@ 16776
района@@ 16773
сент@@ 16771
американского 16769
стро 16768
указ@@ 16767
взрос@@ 16762
приез@@ 16760
конкурса 16756
мра@@ 16753
дати@@ 16752
утра@@ 16749
проводится 16746
сибир@@ 16746
пой@@ 16744
последних 16739
опыт 16735
крепо@@ 16731
медалью 16726
автодороге 16724
дорог 16723
Сле@@ 16720
Экс@@ 16719
тром 16718
ас 16709
официальном 16709
Работал 16708
гимназии 16707
ленд 16707
приказа@@ 16702
богат@@ 16695
питания 16693
побережье 16690
пута@@ 16687
ьева 16687
мар 16685
мед 16681
рованного 16678
сотрудни@@ 16675
стую 16671
финала 16666
зина 16665
расследо@@ 16665
редко 16662
ступен@@ 16662
щенный 16655
Черно@@ 16653
дно 16653
европейских 16650
друж@@ 16649
чеш@@ 16644
сыновей 16640
чество 16640
архитектор 16638
ab@@ 16637
битвы 16637
серб@@ 16637
лун@@ 16636
вому 16634
ежегод@@ 16634
теория 16634
оставил 16633
выходи@@ 16630
щением 16630
будди@@ 16628
газе@@ 16627
французской 16627
мерт@@ 16624
белый 16618
решает 16613
военное 16612
ритель@@ 16610
земель 16608
горизон@@ 16607
десят@@ 16606
структуры 16605
Дмитрий 16601
лово 16599
существования 16592
иденти@@ 16588
материа@@ 16578
основу 16575
объединения 16572
мес@@ 16571
воспитан@@ 16566
od@@ 16564
Василь@@ 16562
ната@@ 16562
Сти@@ 16560
гг. 16560
09 16544
вернуться 16542
мара 16539
шению 16539
яз@@ 16530
использует 16529
ленное 16529
знаком@@ 16525
защитил 16506
бек 16505
документов 16503
конгрес@@ 16499
попытки 16495
няется 16489
едино@@ 16486
творче@@ 16477
Кру@@ 16473
таты 16460
Гос@@ 16458
создать 16456
щают 16448
мм. 16444
методи@@ 16443
дании 16441
силами 16441
районах 16440
французского 16440
цикло@@ 16439
Верховного 16436
зуб@@ 16434
претен@@ 16434
ровалась 16434
муниципа@@ 16431
еха@@ 16427
p_latin 16419
изображения 16418
канад@@ 16417
ностями 16415
немецких 16413
Жу@@ 16411
крови 16410
жер 16408
полковника 16404
представлены 16399
стиль 16397
после@@ 16395
продолж@@ 16395
сигма 16393
предприятий 16388
совхо@@ 16387
цева 16386
ерия 16381
двора 16375
07 16370
победил 16369
происхо@@ 16369
шат@@ 16368
Президен@@ 16357
омикрон 16356
относя@@ 16356
шено 16356
юби@@ 16356
Джон 16354
вшаяся 16350
несли 16349
ске@@ 16339
хослова@@ 16339
ьян 16339
штейн 16338
мю@@ 16337
разнообраз@@ 16332
интерес 16324
лины 16324
ственности 16324
Тогда 16310
секретарем 16307
включен 16306
думы 16306
административным 16304
положитель@@ 16299
верхней 16298
женность 16298
дирек@@ 16295
льд 16295
Док@@ 16294
дора 16293
знамен@@ 16291
шестисот 16291
костю@@ 16290
сама 16288
ственными 16284
батальона 16282
привело 16281
числен@@ 16281
положения 16279
егип@@ 16273
серви@@ 16270
центральный 16268
емым 16267
соци@@ 16266
ow@@ 16261
физ@@ 16258
причем 16257
взял 16253
класс 16253
шав@@ 16251
iv@@ 16248
Луч@@ 16244
восстание 16244
командо@@ 16240
Ита@@ 16239
депутатом 16235
переехала 16235
ллин@@ 16234
ональ@@ 16231
зах 16214
осве@@ 16214
бки 16213
тины 16212
машин 16204
наследия 16203
новича 16201
открытие 16201
продо@@ 16201
йскую 16200
прока@@ 16198
Тю@@ 16191
ian 16189
Q@@ 16188
стратеги@@ 16187
генерального 16185
чих 16185
йцев 16183
листи@@ 16176
проспек@@ 16171
жают 16170
льво@@ 16170
объем 16165
жник 16161
физики 16161
молда@@ 16158
ложение 16154
проз@@ 16154
яния 16152
цин@@ 16148
квар@@ 16138
верто@@ 16134
вав 16133
использовались 16131
летнего 16131
летов 16131
Пуш@@ 16120
волость 16119
евская 16117
ганы 16116
хова 16116
считает 16113
стый 16110
творчества 16109
06 16108
рабочий 16105
местом 16102
достига@@ 16095
ьков 16083
сержан@@ 16081
кит 16079
сматри@@ 16076
пан 16072
домой 16069
кратный 16060
последнее 16055
двину@@ 16051
назвал 16051
очи@@ 16047
пришел 16047
колова 16041
ev@@ 16038
остав@@ 16034
Джор@@ 16032
Многие 16027
иллю@@ 16026
профессором 16026
Всероссийской 16023
африкан@@ 16023
Исто@@ 16019
офицеров 16017
баты@@ 16014
наряду 16012
1910 16009
радо@@ 16009
ub@@ 16006
Же@@ 16005
закончи@@ 16005
прохо@@ 16005
гон 16000
север 16000
прису@@ 15997
Список 15996
условия 15996
уника@@ 15995
Нача@@ 15994
координа@@ 15994
Эй@@ 15990
лицен@@ 15987
вопросам 15968
исчез@@ 15967
кампании 15967
ответ 15967
василий 15966
беки@@ 15961
нять 15957
устойчи@@ 15955
Василий 15950
яз 15949
вет 15948
Прем@@ 15945
гда 15945
щиком 15942
высотой 15940
моду@@ 15938
жизнен@@ 15937
бка 15936
епархи@@ 15935
локо@@ 15932
счаст@@ 15931
получив 15929
источник 15927
душ@@ 15926
ймс 15926
дского 15925
левской 15925
восточнее 15924
исключением 15924
Еще 15921
Пис@@ 15920
А.@@ 15916
привлека@@ 15911
стской 15910
обладают 15908
технику@@ 15904
рави@@ 15902
матчи 15899
митро@@ 15895
тенни@@ 15890
тринадцатое 15890
Лан@@ 15885
грации 15879
Росто@@ 15878
наси@@ 15875
кури@@ 15874
еж@@ 15871
испр 15871
республика 15870
дека@@ 15867
осад@@ 15860
стрелковой 15859
реше@@ 15857
тренера 15854
фрак@@ 15851
девятнадцатом 15848
шему 15848
созд@@ 15847
приблизительно 15840
предпринимат@@ 15838
идеи 15837
ствием 15831
русско 15830
любов@@ 15824
сий 15823
ht@@ 15819
щать 15816
построено 15813
мися 15808
Поэтому 15806
населен@@ 15805
кар 15803
Лей@@ 15797
американская 15795
зап@@ 15793
ини@@ 15793
линской 15793
чами 15788
армией 15786
перечисленных 15786
400 15785
Вместе 15785
единиц 15784
исход@@ 15784
грузин@@ 15782
докумен@@ 15782
обеспечения 15781
жая 15779
перемен@@ 15778
последователь@@ 15773
Современ@@ 15772
враже@@ 15772
куз@@ 15771
щений 15771
ор 15770
низи@@ 15766
финанси@@ 15765
семина@@ 15764
1911 15763
израиль@@ 15763
Северо 15760
ос 15759
типи@@ 15759
австра@@ 15755
устро@@ 15745
известного 15742
фестивале 15739
корен@@ 15737
пятнадцатом 15733
слобод@@ 15731
резко 15725
альные 15723
организаций 15722
зон@@ 15721
обе 15720
план@@ 15720
выигры@@ 15719
чан@@ 15719
Часть 15718
глаза 15717
девяностых 15717
ционное 15715
нев 15713
государственных 15710
республике 15707
химии 15707
резиден@@ 15705
окрас@@ 15704
кандида@@ 15695
выступления 15694
порта@@ 15692
вблизи 15691
ov@@ 15690
композиции 15689
мучени@@ 15689
федераль@@ 15688
тике 15686
расче@@ 15681
1916 15679
Ос@@ 15679
Отец 15679
бан 15679
вся@@ 15679
Акаде@@ 15678
распространение 15675
посад@@ 15673
пола 15672
префектуры 15666
четырнадцатое 15663
Л, 15661
изображение 15659
пь@@ 15657
посоль@@ 15656
ними@@ 15654
воспи@@ 15651
шева 15645
зимой 15644
креди@@ 15644
каталога 15641
увер@@ 15638
границе 15634
эро@@ 15630
дисло@@ 15624
пропаган@@ 15618
Институ@@ 15617
удается 15616
смешан@@ 15613
зданий 15612
забо@@ 15609
последней 15608
йдя 15607
муж 15606
преоблада@@ 15602
сторон 15600
семью 15599
ющем 15599
единица 15598
псилон 15598
Центр 15597
продукции 15594
украина 15591
изгна@@ 15588
вне 15583
выход 15577
какой 15577
ликвиди@@ 15576
новения 15576
атаки 15572
Лен@@ 15567
джана 15564
круг@@ 15560
Доб@@ 15559
Импера@@ 15556
ствовать 15553
Украина 15551
мб@@ 15546
климат 15545
чинов@@ 15545
ьях 15543
открытия 15540
рака 15540
свободы 15538
зор@@ 15536
казахстана 15536
воениздат 15534
зло@@ 15534
записы@@ 15530
Воениздат 15529
деятельностью 15528
хин@@ 15526
доброволь@@ 15525
примечатель@@ 15523
товарище@@ 15523
направлен 15520
сход@@ 15519
министром 15512
Итоги 15509
кола 15500
ись 15498
Казахстана 15490
кс@@ 15490
эволю@@ 15489
долж@@ 15487
Сын 15486
Бай@@ 15485
методы 15485
ченной 15483
тун@@ 15481
соли@@ 15480
выпуск@@ 15479
четыр@@ 15476
нимает 15469
отсутствует 15467
звезд 15462
вни@@ 15457
97 15447
Новый 15446
считают 15446
совме@@ 15444
лле 15441
отцом 15441
Террито@@ 15440
гастро@@ 15434
метров. 15433
немецкого 15431
литера@@ 15427
линского 15425
инструк@@ 15422
окт@@ 15411
ствии 15411
ьюдесятью 15409
150 15406
логических 15405
пишет 15402
восьмисот 15400
ральная 15399
вшее 15395
крупный 15395
брак 15394
циони@@ 15393
возра@@ 15390
посла@@ 15389
син 15386
тились 15382
яков@@ 15380
гва@@ 15379
канди@@ 15372
пограни@@ 15367
маке@@ 15365
наказа@@ 15362
лечения 15358
наступл@@ 15358
гари@@ 15357
Пес@@ 15355
ведом@@ 15355
устройства 15355
постройки 15353
пребы@@ 15353
сведения 15353
сц@@ 15353
еви@@ 15350
собо@@ 15350
тома 15350
Фильм 15346
дже 15346
удостоен 15345
человеческого 15344
ане 15337
либе@@ 15335
бл 15333
Совет 15332
шай@@ 15325
представитель 15322
цифро@@ 15317
ворот 15316
Болга@@ 15315
нарко@@ 15313
этапе 15311
ut@@ 15306
обязанности 15298
вышли 15297
народной 15296
дизай@@ 15293
сорокового 15293
Гон@@ 15292
and@@ 15291
Ци@@ 15291
одина@@ 15286
кра 15285
доктор@@ 15284
командование 15280
лого@@ 15279
западная 15278
родной 15278
91 15275
тически 15270
ковод@@ 15269
помога@@ 15268
племян@@ 15265
заслуги 15263
аспиран@@ 15262
гиль@@ 15261
убийства 15258
вести@@ 15255
нег@@ 15253
пластин@@ 15251
Дани@@ 15245
рак 15241
подзем@@ 15240
Сей@@ 15236
обратно 15226
вяти@@ 15224
известность 15218
сообщение 15217
зависит 15215
часов@@ 15214
рассказывает 15210
чук 15208
юрий 15204
тут 15201
Юрий 15199
пропетро@@ 15198
пут@@ 15195
колов 15191
обли@@ 15191
сохранились 15187
лест@@ 15186
связыва@@ 15178
паци@@ 15176
снят 15176
родители 15175
пати@@ 15174
дорович 15170
ску 15170
циям 15164
1897 15163
кустар@@ 15163
письма 15162
поддерж@@ 15160
вяз@@ 15158
боли@@ 15157
существова@@ 15156
уру 15156
чом 15155
преем@@ 15151
цели 15147
шей@@ 15146
персонажей 15145
оказалась 15144
устья 15141
щаются 15139
тическое 15137
рудо@@ 15134
моста 15132
лье 15131
пеш@@ 15130
верхняя 15126
напад@@ 15126
капитана 15125
партию 15123
чева 15118
киев 15112
подав@@ 15112
прием@@ 15109
Заслуженный 15104
ципа@@ 15104
шинг@@ 15104
енного 15102
фильмах 15102
Почтовый 15098
доказ@@ 15098
деми@@ 15096
брас@@ 15095
фект 15095
восемнадцатом 15093
Груп@@ 15092
Анато@@ 15087
месяц 15086
Бла@@ 15082
орби@@ 15078
наконец 15077
обя@@ 15076
Стан@@ 15073
метрополи@@ 15068
превос@@ 15067
Участник 15066
пато@@ 15065
просто@@ 15065
or 15063
автори@@ 15060
немецкой 15060
кау@@ 15050
дисципли@@ 15047
индей@@ 15047
оказались 15045
иско@@ 15042
педи@@ 15038
сный 15038
бия 15034
op@@ 15033
похи@@ 15031
атри@@ 15025
должно 15023
фур@@ 15018
рост 15014
вных 15010
владения 15009
гумани@@ 15008
уволен 15008
рест@@ 15006
сные 15004
совершенно 15002
писей 14995
несколь@@ 14994
1900 14989
бей 14975
турой 14975
кко 14974
um@@ 14972
Казан@@ 14972
водой 14971
Тол@@ 14969
брака 14967
оставался 14967
тиру@@ 14967
независимости 14965
сно@@ 14962
сведениям 14959
семей 14959
лучше 14958
цилин@@ 14955
женного 14954
база 14953
Мэ@@ 14950
арме@@ 14947
обоих 14945
АО 14944
отношение 14937
эпиз@@ 14937
старей@@ 14932
южет 14929
орен@@ 14928
долгое 14927
стить 14926
Откры@@ 14925
человеком 14924
бух@@ 14921
конферен@@ 14920
пление 14919
1908 14905
oc@@ 14904
происхождение 14895
заслу@@ 14889
программе 14888
острова@@ 14887
станций 14887
мира@@ 14885
сец 14879
Ах@@ 14878
Южной 14878
емое 14876
интенси@@ 14876
наци@@ 14874
зд@@ 14873
объясня@@ 14873
губернатора 14872
прият@@ 14867
Виктор 14866
вить 14866
сила 14863
технических 14863
километр 14859
реи 14859
прось@@ 14858
основано 14857
представляют 14857
виктор 14856
столицы 14855
запись 14854
велич@@ 14853
лизи@@ 14852
петербурга 14851
торговли 14850
выращи@@ 14849
северный 14849
своб@@ 14835
приняла 14834
окончила 14827
сент 14826
манов 14825
Агентство 14823
приходилось 14822
начат@@ 14821
известным 14819
присоедини@@ 14815
монастыре 14814
формирования 14808
бригада 14805
молодежи 14796
ьи@@ 14796
вече@@ 14791
схва@@ 14789
тивный 14788
рону 14787
необы@@ 14786
сотрудник 14781
цель 14776
сфере 14774
Сар@@ 14772
шкин 14772
перев@@ 14771
Военно 14768
городским 14767
Петербурга 14765
продолжает 14764
фера 14764
решением 14762
применяется 14761
окрест@@ 14759
дации 14758
евро 14758
точно 14755
видно 14753
В.@@ 14749
установлены 14749
тли@@ 14746
петербургской 14745
Пан@@ 14743
зри@@ 14742
самая 14742
Церковь 14733
предваритель@@ 14729
режиссером 14728
дери@@ 14724
Хан@@ 14718
депутат 14717
дро 14715
Ана@@ 14711
стара@@ 14711
тском 14708
боев 14707
существу@@ 14707
циона@@ 14706
фонда 14705
применение 14703
заи@@ 14702
фии 14700
сси 14696
миллиардов 14692
моро@@ 14689
секрета@@ 14688
укра 14688
одиннадцатое 14682
предприяти@@ 14682
ак 14677
тация 14676
Впоследствии 14674
фра@@ 14674
ад 14673
обстоятель@@ 14670
Джи@@ 14667
перевоз@@ 14663
выбор@@ 14662
щики 14662
многи@@ 14661
Ники@@ 14660
маном 14659
принять 14654
украинской 14652
Казах@@ 14651
сообщения 14651
королем 14648
фоне 14648
способности 14643
Фо@@ 14633
степ@@ 14632
Книга 14630
назначения 14630
службе 14627
алта@@ 14625
мона 14625
двер@@ 14620
чень 14620
зависи@@ 14617
письмо 14612
епархия 14611
летней 14610
Одес@@ 14609
отстав@@ 14609
ужа@@ 14600
влением 14598
зь 14598
ъю@@ 14598
столкнов@@ 14597
названы 14596
оче@@ 14594
Тар@@ 14591
потребо@@ 14588
раунде 14588
повстан@@ 14585
самые 14579
оформ@@ 14578
серов 14577
районы 14576
тивного 14564
специально 14562
ждается 14561
жье 14560
темно 14557
Код 14553
техно@@ 14552
лекар@@ 14550
вв 14546
лло@@ 14546
Кир@@ 14544
худ@@ 14540
тров 14537
ология 14531
Кла@@ 14529
царии 14527
парламента 14525
эксперимента@@ 14521
выставки 14519
Ката@@ 14515
живопис@@ 14514
плей 14513
бизне@@ 14512
звуча@@ 14512
ребенка 14510
бори@@ 14509
герцога 14508
проти@@ 14508
ниям 14507
94 14504
яте@@ 14504
количества 14496
прези@@ 14492
Вып 14489
поражения 14488
осо@@ 14487
93 14484
делега@@ 14484
крыль@@ 14484
историк 14482
отв 14482
тета 14482
государств 14481
женной 14481
заведу@@ 14473
удовлет@@ 14468
сравнению 14467
циан@@ 14465
республи@@ 14457
пожа@@ 14454
памятника 14453
головы 14444
пособие 14443
кун@@ 14442
тивно 14442
Бель@@ 14438
компаний 14435
впадения 14431
вель@@ 14430
аэро@@ 14427
башкир@@ 14426
открыл 14425
Новая 14423
кович 14422
богосло@@ 14419
съемо@@ 14415
плодо@@ 14414
греч 14410
динамо 14404
рабаты@@ 14404
норма@@ 14402
голосов 14393
нета 14393
алгорит@@ 14390
метре 14388
образует 14388
сена 14388
строения 14388
пользу 14385
напа@@ 14382
процесса 14380
основании 14379
документы 14376
кандидат 14375
Святого 14371
западном 14370
театраль@@ 14368
Фу@@ 14367
вследствие 14367
способность 14363
Рим@@ 14362
проводит 14362
основы 14361
павел 14361
журнале 14360
континента@@ 14359
являлась 14358
Ярослав@@ 14356
енным 14356
Округ 14355
возраста 14355
крым@@ 14354
народных 14354
стани@@ 14351
братьев 14350
галак@@ 14349
терми@@ 14342
долго@@ 14340
езда 14338
вулка@@ 14337
деревню 14332
ровались 14332
кского 14331
Ближай@@ 14323
Министер@@ 14323
стрелкового 14323
Павел 14321
КПСС 14320
пределах 14314
et 14313
сков@@ 14308
мульти@@ 14305
оперы 14304
подро@@ 14303
съемки 14302
пел 14300
сопротив@@ 14299
йбы@@ 14297
and 14296
насел@@ 14296
Чар@@ 14294
грун@@ 14292
емо@@ 14292
ереб@@ 14290
убийство 14290
песча@@ 14289
технического 14289
конструкция 14286
суль@@ 14286
um 14284
вий 14282
совете 14282
стки 14282
РАН 14280
агент@@ 14280
американских 14279
техника 14279
девушка 14277
нском 14277
веси@@ 14272
яче@@ 14271
стика 14267
ученых 14266
Дер@@ 14264
денеж@@ 14264
удар 14263
третьей 14262
Помимо 14260
верса@@ 14255
впечат@@ 14255
обшир@@ 14255
юся 14252
застрой@@ 14251
маты 14249
вора@@ 14248
рика 14247
краткий 14246
фен@@ 14244
дь@@ 14243
Киев 14242
большинства 14235
фун@@ 14234
основная 14230
телефонный 14229
называли 14227
гром@@ 14226
власт@@ 14222
воспомина@@ 14222
Национальной 14221
справо@@ 14221
изуча@@ 14217
дворя@@ 14215
насто@@ 14214
ложения 14213
сой 14213
флаг 14211
направление 14205
дской 14202
поки@@ 14200
орудия 14199
речи 14196
английского 14193
остались 14193
вный 14192
николая 14192
цатель@@ 14190
школ 14189
кав@@ 14187
министерство 14185
институ@@ 14183
фос@@ 14183
большинстве 14182
равни@@ 14181
аэрод@@ 14177
захорон@@ 14176
мит 14176
XX@@ 14175
Николая 14175
активи@@ 14174
воинов 14172
центрального 14171
комисса@@ 14169
полный 14169
обу@@ 14168
Хри@@ 14167
пин 14165
шад@@ 14164
теб@@ 14159
успеха 14155
P. 14153
разы@@ 14153
ыр@@ 14151
поезд@@ 14146
верш@@ 14145
пара 14145
конкре@@ 14144
прозви@@ 14140
гры@@ 14138
хочет 14138
РИ@@ 14134
ьетна@@ 14132
договор 14130
нака@@ 14129
сада 14128
Октяб@@ 14127
находит 14125
бюдже@@ 14123
постави@@ 14121
мини 14120
Рей@@ 14119
поход 14113
выбо@@ 14112
писто@@ 14112
местные 14110
кно@@ 14109
знания 14108
препят@@ 14107
Каза@@ 14103
нической 14100
недели 14098
сет 14095
нный 14094
ровалось 14094
труды 14093
Динамо 14092
as 14089
1909 14086
библиотеки 14086
жден 14086
совершенство@@ 14086
белого 14084
шала 14083
созвез@@ 14082
буль@@ 14079
преми@@ 14079
корей@@ 14072
начинают 14072
снаря@@ 14071
ико@@ 14066
новской 14064
бн 14058
боевые 14058
соревнований 14056
мак 14055
отсутствие 14055
очерк 14055
общи@@ 14053
отлич@@ 14051
ленинградских 14044
км@@ 14043
предложение 14035
строительстве 14032
чья 14030
связ@@ 14026
гском 14025
вят 14021
медалями 14021
заста@@ 14019
зова 14017
колхоз 14016
Куль@@ 14014
энерги@@ 14013
батальон 14011
взаимо@@ 14002
мило@@ 14000
проекти@@ 14000
оргия 13999
проводились 13998
Всесоюз@@ 13997
духовной 13997
украинский 13995
газете 13994
ходом 13993
бежал 13992
выбира@@ 13992
зай@@ 13991
Им@@ 13988
виш@@ 13988
переселен@@ 13987
гля@@ 13985
ВД 13983
вооружение 13981
нести 13981
участвовала 13981
структура 13980
эпо@@ 13979
плю@@ 13975
проводятся 13970
товского 13969
толи@@ 13966
года@@ 13963
картина 13954
васи@@ 13949
лке 13948
специ@@ 13944
праздник 13942
облада@@ 13941
Твер@@ 13939
задачи 13934
оборот 13934
ваясь 13933
применения 13933
независимость 13932
самое 13924
Шар@@ 13923
вообще 13923
париже 13923
ненные 13922
сос@@ 13922
гиган@@ 13921
звании 13921
Баш@@ 13918
джо@@ 13918
Париже 13917
фунда@@ 13916
Кири@@ 13915
пова 13914
Стар@@ 13910
старто@@ 13909
вик 13907
музыкальный 13904
альтерна@@ 13901
популя@@ 13897
признан 13896
йных 13895
фан 13894
качества 13892
Дол@@ 13886
крестьян 13885
тара@@ 13884
сложности 13882
тридцатом 13882
надо 13875
смотре@@ 13874
плане 13873
плы@@ 13866
сегодняш@@ 13862
участники 13861
рассе@@ 13860
штей@@ 13860
Библи@@ 13859
блоки@@ 13859
крест 13858
проли@@ 13856
австрали@@ 13853
гэ@@ 13852
нижней 13849
шпи@@ 13849
обосно@@ 13848
Е 13847
восьмидесятых 13842
интеллек@@ 13842
бизнес 13841
западнее 13840
печати 13837
примы@@ 13831
двадцатом 13827
професси@@ 13826
Свер@@ 13824
решили 13822
ниже@@ 13820
атле@@ 13819
федера@@ 13814
Вален@@ 13813
избран@@ 13811
полез@@ 13808
угле@@ 13803
ленным 13802
запада 13801
одному 13799
адвока@@ 13797
чуть 13797
герб 13789
цер@@ 13789
грана@@ 13786
1904 13781
престол 13781
страции 13779
приказ@@ 13778
участвовали 13776
форд 13773
изучения 13772
краснояр@@ 13771
of 13770
регулярно 13769
ниго@@ 13766
команду@@ 13764
гиб@@ 13759
шля@@ 13758
каждом 13757
Общая 13756
башни 13753
нического 13750
автора 13749
итальянский 13749
появляются 13747
ориен@@ 13745
съем@@ 13745
автомобилей 13740
влиянием 13737
работают 13737
противоре@@ 13736
десятые 13734
ваниями 13732
приз 13732
возоб@@ 13730
будущего 13729
вательно 13729
заяви@@ 13729
ровой 13729
джон@@ 13728
опа@@ 13728
насекомых 13727
фортепи@@ 13727
коммуника@@ 13726
принце@@ 13726
левый 13725
пой 13725
оп 13721
линский 13720
торпе@@ 13720
страница 13718
Шве@@ 13716
спар@@ 13716
гле@@ 13713
йного 13709
составля@@ 13709
товари@@ 13708
насле@@ 13707
свадь@@ 13707
Теат@@ 13706
зени@@ 13703
Позднее 13700
монго@@ 13700
ea@@ 13697
влюб@@ 13693
нений 13690
язычный 13690
жно 13689
таври@@ 13687
центри@@ 13686
высоты 13684
Лау@@ 13683
вперед 13683
рук 13678
наших 13676
земля 13673
окрестностях 13672
машиност@@ 13671
кардина@@ 13668
наличие 13667
тысячах 13667
спект 13664
Коло@@ 13663
стым 13662
курен@@ 13661
средне@@ 13661
x_latin 13660
почетный 13659
этап 13659
семисот 13657
большом 13654
Скончался 13653
скрип@@ 13651
попу@@ 13645
экипажа 13645
анн 13643
национальных 13641
программ 13640
работой 13640
жки 13638
Лит@@ 13637
руководителем 13637
победитель 13636
рами@@ 13635
стоял 13635
сток 13634
село@@ 13632
ждено 13629
черный 13627
кевич 13623
новна 13622
Дом 13620
довой 13617
мастера 13617
серва@@ 13613
мбу@@ 13611
недостат@@ 13611
йцы 13610
Древ@@ 13607
ширина 13606
отказыва@@ 13605
йота 13603
рови@@ 13602
Фон@@ 13601
sh@@ 13599
услов@@ 13598
украине 13595
сами@@ 13591
совету 13586
фини@@ 13586
Участвовал 13585
циви@@ 13582
ang 13581
жертво@@ 13580
лекси@@ 13579
дат 13577
артиллерии 13576
гибели 13576
достигает 13575
многочислен@@ 13574
кресто@@ 13573
опубликовал 13572
праведли@@ 13569
небольшие 13566
Украине 13561
автомобиль 13560
бами 13554
консерватории 13553
памятники 13553
вшими 13552
рона 13552
Тран@@ 13551
проживал 13551
мужчина 13550
домини@@ 13549
куро@@ 13547
рея 13547
ковской 13544
Летом 13540
приходит 13539
Музы@@ 13538
рядов 13533
страхан@@ 13531
непосред@@ 13528
противополо@@ 13527
лагерь 13523
родину 13522
Побе@@ 13520
братом 13518
парке 13515
хво@@ 13513
ключе@@ 13510
выступать 13509
преодо@@ 13507
преимуще@@ 13506
апре@@ 13504
октябрь@@ 13503
газа 13499
дворе 13498
живут 13498
нередко 13497
оборудования 13490
борис 13488
колоколь@@ 13487
пассажиров 13486
привод@@ 13485
проживали 13484
среднего 13481
источников 13476
тау 13474
колум@@ 13471
нический 13470
считал 13470
японской 13469
Кол@@ 13466
Мас@@ 13466
оран@@ 13465
аван@@ 13464
торию 13460
зато@@ 13455
семьей 13455
Борис 13454
Кро@@ 13450
отобра@@ 13450
гитари@@ 13448
хэ@@ 13448
крем@@ 13447
марка 13446
разрабаты@@ 13446
боже@@ 13440
достижения 13438
отдельные 13436
учеников 13436
телю 13434
переводе 13430
типов 13429
ed 13428
псковской 13428
лга@@ 13427
ряс@@ 13427
Издательство 13424
герба 13423
Пара@@ 13422
муниципалитета 13422
академия 13411
медалей 13404
анализ 13403
культуре 13403
прямо 13403
вто@@ 13397
севера 13395
Орден 13394
рель@@ 13394
побережья 13391
робо@@ 13387
Желез@@ 13385
Хор@@ 13384
реб@@ 13384
политика 13377
политический 13376
ография 13374
говорил 13373
комите@@ 13372
участи@@ 13370
Основные 13368
тысячном 13368
Красного 13366
селения 13366
девяти@@ 13365
Большинство 13362
хой 13358
сведений 13356
Плотность 13352
Телефонный 13348
эпоху 13348
профессиональный 13345
жю@@ 13344
четырьмя 13344
бразильский 13340
уи@@ 13338
меняется 13335
щу 13329
лока@@ 13328
Льво@@ 13319
кор 13318
детства 13317
сражении 13317
вающих 13313
труд 13312
программу 13308
аристо@@ 13305
языком 13305
газ@@ 13302
вед 13299
sp@@ 13290
Стат@@ 13285
отзы@@ 13285
Псковской 13282
главная 13281
зави@@ 13280
сцены 13280
Православ@@ 13276
пред 13275
входили 13272
чивает 13270
чина@@ 13269
ваш@@ 13268
ловка 13266
ранен@@ 13263
ровании 13257
последним 13255
карьере 13254
чатель@@ 13251
варшав@@ 13249
видит 13248
ентов 13242
v_latin 13240
футбола 13238
белые 13233
велико@@ 13231
антро@@ 13229
субъек@@ 13229
км2 13226
фильмы 13225
футбольный 13220
спосо@@ 13213
старин@@ 13212
птицы 13210
приказ 13208
многочисленных 13207
шеб@@ 13207
выте@@ 13206
режим 13205
скорости 13202
подраздел@@ 13200
главой 13199
треуго@@ 13199
великий 13197
голову 13197
лингви@@ 13195
поддержки 13194
прочем 13194
Патри@@ 13192
областного 13192
поверхность 13191
скорее 13191
делам 13189
ственность 13186
белая 13184
решено 13178
Старо@@ 13174
участием 13174
автодоро@@ 13172
ЦК 13171
Петербургской 13166
коллектив 13166
лайн 13166
войн 13163
правила 13163
Большо@@ 13159
Именно 13157
редактором 13157
помина@@ 13156
мели@@ 13143
текста 13143
дефис 13142
охраны 13141
старшего 13141
носят 13139
десятое 13131
XV 13127
джан@@ 13127
всеми 13126
дизем@@ 13126
шестидесятом 13126
инфра@@ 13122
логические 13120
лета@@ 13119
ощу@@ 13118
станцию 13115
зерка@@ 13114
U 13112
Река 13112
фт 13112
лять 13111
распре@@ 13109
труп@@ 13109
Гали@@ 13108
вест@@ 13108
кнов@@ 13107
олог 13106
Сост 13104
неожидан@@ 13101
городу 13099
лейтенанта 13099
николаевич 13097
поэта 13097
яро@@ 13097
тех@@ 13096
проф@@ 13088
старшим 13083
Николаевич 13080
драматур@@ 13079
рыбо@@ 13079
сут@@ 13079
подраз@@ 13078
иса@@ 13074
певица 13074
мирской 13072
няк 13072
созыва 13072
становятся 13071
сет@@ 13070
никто 13068
представ@@ 13066
посмер@@ 13064
кого@@ 13061
семидесятом 13061
советские 13059
алфави@@ 13057
цких 13051
промеж@@ 13050
оказалось 13047
храме 13045
Джон@@ 13044
ющаяся 13042
нных 13041
тирован 13041
крест@@ 13040
пера 13040
Али@@ 13037
встречи 13036
схо@@ 13035
Мекси@@ 13033
баталь@@ 13032
Оста@@ 13031
требует 13029
департамента 13027
мужа 13026
ak@@ 13023
восьмидесятом 13023
памятников 13023
умира@@ 13020
ОАО 13017
базы 13015
жная 13013
направля@@ 13012
сороковом 13011
шенной 13011
оч@@ 13007
фли@@ 13007
нуть 13005
парламен@@ 13005
заяв@@ 13002
устрои@@ 13001
сложи@@ 13000
байкаль@@ 12999
ильям 12998
Науч@@ 12997
публико@@ 12990
вернулась 12989
симфо@@ 12989
яет 12988
присоединился 12987
Хот@@ 12985
престо@@ 12984
инвести@@ 12981
прямой 12978
хотел 12975
бас 12974
неделю 12974
вот 12972
остальных 12970
120 12966
мара@@ 12965
ay 12962
воздуха 12962
агро@@ 12961
учреж@@ 12960
берег 12958
известные 12957
местной 12956
след 12951
XIV 12950
стин 12944
фолькло@@ 12944
хии 12943
установки 12942
Камен@@ 12941
возника@@ 12937
лежит 12937
владимира 12936
ЭС 12935
музыкальной 12935
древних 12932
нижнее 12932
доцен@@ 12931
проф 12927
Прези@@ 12926
уе@@ 12925
ат 12924
Ган@@ 12923
Главный 12923
товской 12923
уна 12922
Владимира 12919
онид 12914
прикры@@ 12913
тана 12913
воспоминания 12912
VI 12909
ова@@ 12903
харьков@@ 12903
Швей@@ 12901
открыто 12900
америки 12897
жность 12897
ехать 12894
готавли@@ 12890
депо 12890
петра 12888
полное 12888
рит@@ 12887
теку@@ 12886
озву@@ 12885
гола 12883
влять 12881
гина 12879
заведующий 12878
выгля@@ 12877
физико 12874
общее 12873
тору 12871
полу 12870
дворца 12868
ом@@ 12866
устраи@@ 12866
обез@@ 12865
Брю@@ 12863
Кер@@ 12863
ствам 12863
гитлеров@@ 12861
служит 12861
среды 12861
прошлом 12859
Иг@@ 12858
темати@@ 12857
воронеж@@ 12851
ава@@ 12850
поз@@ 12843
паралле@@ 12842
замка 12841
доку@@ 12837
лло 12837
глад@@ 12834
источники 12834
изготов@@ 12832
яс@@ 12828
семнадцатом 12826
Сен 12825
Марти@@ 12823
пище@@ 12821
Вес@@ 12820
тысячный 12816
гряз@@ 12815
реализо@@ 12811
vol 12808
нян@@ 12807
разновид@@ 12807
целой 12807
благотворитель@@ 12805
депу@@ 12805
золото 12804
архангель@@ 12803
нефтя@@ 12802
подразде@@ 12802
намест@@ 12799
библи@@ 12794
федерального 12794
ine 12791
ситуации 12789
1896 12788
писание 12788
врата@@ 12787
Краткий 12785
убить 12782
уза 12782
вертика@@ 12779
сун@@ 12779
арт 12775
ала@@ 12774
покуп@@ 12772
фотографии 12772
жка 12771
рить 12770
атлан@@ 12769
братья 12768
случаев 12767
содержание 12766
ber@@ 12765
нижняя 12759
центра@@ 12757
рово 12751
разработки 12750
риха 12750
ствовала 12750
K 12747
дья@@ 12747
енное 12744
церк@@ 12744
Советской 12742
ООН 12740
чит@@ 12734
поляр@@ 12727
розыгры@@ 12725
сочинений 12719
потенциала 12718
рито@@ 12718
франц@@ 12717
неболь@@ 12716
осво@@ 12715
сп@@ 12714
оон 12713
большее 12709
вь 12709
безопас@@ 12707
родителей 12707
сестры 12706
повести 12703
Европе@@ 12701
общественного 12699
отправ@@ 12699
жала 12697
цикл 12697
граж@@ 12695
полета 12695
составили 12694
осен@@ 12684
шением 12681
гана 12678
способо@@ 12677
яку@@ 12677
проектов 12676
экспо@@ 12674
Краснояр@@ 12673
лор@@ 12672
Деревня 12671
листов 12670
место@@ 12662
азербай@@ 12660
способ 12659
телевидения 12659
шле@@ 12659
правый 12658
очерки 12657
арми@@ 12655
экипаж 12651
гни@@ 12649
Петра 12648
москву 12648
созданы 12648
ce 12647
учителем 12647
еров 12646
соборе 12646
Москву 12643
рад@@ 12641
зис 12637
стоимость 12636
ваниях 12635
вость 12632
алы 12631
ательных 12630
построй@@ 12630
тяжело 12628
фельд@@ 12628
популярность 12624
экземпляров 12623
александрович 12621
железная 12616
калифор@@ 12615
советник 12614
лекции 12611
разры@@ 12604
сопротивление 12603
музыкальных 12602
Александрович 12601
азиат@@ 12600
нуля 12598
чков 12597
пережи@@ 12595
отдыха 12590
обозначения 12588
Элек@@ 12587
компонен@@ 12587
оружи@@ 12587
Америки 12584
Первоначально 12584
наб@@ 12582
лили 12578
построены 12574
необходимости 12571
цен 12569
восемнадцатое 12568
листо@@ 12568
денег 12567
Каре@@ 12562
приклю@@ 12557
кус 12556
Извест@@ 12555
проигра@@ 12554
комарки 12550
выжи@@ 12549
Прин@@ 12548
гена 12548
ционную 12548
сож@@ 12547
функциональ@@ 12547
Жиз@@ 12545
баль@@ 12545
полку 12544
позицию 12542
eg@@ 12540
Нат@@ 12540
ch 12539
женная 12539
сками 12538
Шта@@ 12537
возвращения 12537
тилась 12537
персонаж 12536
ува@@ 12536
штра@@ 12531
поддержке 12528
пуск 12526
марии 12522
шестидесятых 12522
потре@@ 12519
кули@@ 12517
нельзя 12517
смогли 12512
гл 12511
пела@@ 12510
корне@@ 12509
ид@@ 12508
флан@@ 12506
городская 12505
Особ@@ 12502
календар@@ 12502
майора 12500
двор 12498
роваться 12497
Егип@@ 12495
настояте@@ 12494
причине 12493
идея 12491
вернуть 12487
Тан@@ 12486
выдвину@@ 12484
руках 12484
являлись 12480
испы@@ 12479
обстре@@ 12479
консу@@ 12478
пур@@ 12478
социальной 12476
Статисти@@ 12469
губерния 12467
кафедрой 12462
мета 12462
кэ@@ 12458
ора@@ 12456
восьмистах 12454
упомя@@ 12454
рассказы 12452
галь@@ 12450
существенно 12448
другого 12446
бет 12444
развитию 12444
никает 12443
течет 12442
тти 12442
достав@@ 12438
ально 12436
кент@@ 12436
Васи@@ 12434
гности@@ 12428
Жен@@ 12427
Уз@@ 12426
святых 12423
анализа 12422
спеш@@ 12422
бесплат@@ 12420
духо@@ 12420
королевства 12420
неза@@ 12420
отправлен 12416
гославии 12415
переговоры 12415
тоне 12413
мок 12412
использованием 12410
персид@@ 12410
педагог 12408
океана 12404
дана 12401
знамени 12400
молит@@ 12399
осадков 12399
награды 12398
каждо@@ 12395
Кавказ@@ 12394
офф 12393
сумел 12392
сингл 12390
ориенти@@ 12386
Королев@@ 12384
хон@@ 12383
видные 12381
принимали 12379
красную 12376
могла 12376
детстве 12375
Меди@@ 12373
жности 12373
лицо 12373
Поб@@ 12365
логического 12362
ждан@@ 12359
посту 12359
роты 12357
считать 12357
Вну@@ 12351
крыма 12351
челябин@@ 12348
борного 12347
сс@@ 12347
трибу@@ 12341
Министерства 12339
Крыма 12335
вышед@@ 12334
Журна@@ 12333
курор@@ 12333
лку 12333
кия 12332
ночью 12332
ала 12330
Государственной 12327
завед@@ 12327
страхо@@ 12326
ганской 12323
имено@@ 12320
информацию 12319
щенко 12319
материала 12318
ходу 12318
каждая 12316
валери@@ 12313
книжка 12313
подполь@@ 12313
промышленность 12309
стадионе 12309
art@@ 12306
элли@@ 12305
победителем 12303
связана 12302
Ц 12298
плу@@ 12298
контроля 12294
лидер 12289
Доне@@ 12288
шкортостана 12287
небольших 12286
рецеп@@ 12286
аты 12285
делать 12285
леты 12283
использовал 12281
сени@@ 12281
деревень 12280
спин@@ 12276
производится 12275
откуда 12273
пия 12272
похорон@@ 12272
дожд@@ 12271
левич 12270
мобилизо@@ 12270
поэзии 12270
красная 12267
вестник 12266
спон@@ 12266
неоргани@@ 12265
одей@@ 12262
иллюстри@@ 12261
никаких 12260
ландский 12259
Российская 12258
писатель@@ 12258
Ради@@ 12257
журналист 12256
сели@@ 12256
попол@@ 12249
тские 12245
посы@@ 12244
жным 12241
запас 12241
замужем 12239
организовал 12239
британской 12238
магазин 12238
дай@@ 12236
датель@@ 12236
Само@@ 12235
щался 12235
ностях 12234
троллейбу@@ 12231
уско@@ 12231
участке 12227
ент 12224
детек@@ 12223
хал@@ 12223
дов@@ 12221
мми 12221
дес 12220
оккупации 12220
огне@@ 12217
полуострова 12216
бах@@ 12215
говорят 12215
вного 12211
гомо@@ 12211
фов 12211
ванге@@ 12210
посвяти@@ 12210
физической 12210
Кин@@ 12208
Уль@@ 12205
Дж 12198
ненное 12198
рес 12198
тимо@@ 12198
южнее 12198
ждением 12197
Дар@@ 12193
пропа@@ 12192
индии 12190
клубов 12190
надцат@@ 12190
Дю@@ 12189
одоб@@ 12189
щались 12189
самостоятельно 12185
ель 12183
Иску@@ 12180
уст@@ 12177
Индии 12173
Восточной 12172
командующего 12172
параллельно 12172
учебных 12172
источниках 12168
мум 12168
высшего 12166
дский 12165
ds 12164
лице@@ 12163
общий 12162
цкое 12161
неизвестно 12158
партизан@@ 12156
сосредото@@ 12156
топографи@@ 12156
списке 12155
стадии 12152
делу 12148
подразделения 12147
военным 12144
определя@@ 12140
чье 12139
Трои@@ 12137
завершения 12137
тал@@ 12135
Ара@@ 12134
Институт 12132
Благодаря 12130
Объ@@ 12130
изм 12129
друзей 12127
товые 12126
конкурсе 12125
ченным 12125
Департамент 12122
факультете 12122
здраво@@ 12121
возвышен@@ 12118
нь@@ 12118
замести@@ 12117
Таври@@ 12111
саха@@ 12111
щиеся 12110
вторую 12109
почему 12109
pp 12108
экспози@@ 12107
Мос@@ 12106
io 12105
экономической 12104
станской 12101
творчество 12100
гораздо 12099
конф@@ 12099
специалистов 12098
террори@@ 12097
23@@ 12096
Ст@@ 12096
верховной 12095
Анна 12092
кварта@@ 12092
вар 12087
освобожден 12084
Vol 12083
чо 12081
плана 12079
восьмидесятого 12078
желе@@ 12078
кио 12078
префек@@ 12078
потерял 12076
фру@@ 12071
Цер@@ 12065
западного 12061
переу@@ 12060
ОО@@ 12058
пок 12058
архитектора 12055
рене@@ 12055
заняли 12053
столице 12052
напротив 12050
намер@@ 12047
андже@@ 12044
енты 12044
хла@@ 12044
длины 12043
помощником 12043
исторического 12042
шевского 12042
семинарии 12040
ik@@ 12038
сража@@ 12038
даль 12037
ловской 12037
сег@@ 12035
тельства 12033
утвержден 12032
федеральной 12029
зен 12027
определения 12027
юсти@@ 12027
бара@@ 12026
разъ@@ 12025
гг- 12023
посо@@ 12022
сал@@ 12022
таки 12018
май 12017
рабочего 12016
бреж@@ 12010
Марии 12007
гено@@ 12007
использовали 12007
огнем 12001
номинации 12000
лс 11999
заим@@ 11996
мега@@ 11992
ато@@ 11989
васильевич 11989
неф@@ 11989
реша@@ 11989
тинг 11985
Первым 11975
стическая 11975
длину 11974
государственная 11973
здоровья 11971
Васильевич 11969
гера 11968
выбор 11967
терро@@ 11966
обществе 11964
Нидер@@ 11963
лиш@@ 11962
зме 11961
нефти 11958
нических 11957
проведен@@ 11957
кобритания 11955
окончатель@@ 11955
роста 11954
промы@@ 11952
щенных 11950
мети@@ 11949
произошел 11949
родов 11945
командующий 11943
А, 11942
расположенный 11940
ющейся 11940
селение 11938
такая 11935
дьми 11933
княжества 11931
соединя@@ 11929
стояние 11929
сынов@@ 11928
внима@@ 11921
щины 11869
Чемпи@@ 11788
хангель@@ 11757
жер@@ 11750
земе@@ 11726
мори@@ 11713
житель@@ 11709
H 11699
лум@@ 11648
каде@@ 11636
ваниям 11600
сопрово@@ 11600
награж@@ 11559
наход@@ 11527
усло@@ 11522
уса@@ 11520
исче@@ 11506
перепис@@ 11503
департа@@ 11501
Бро@@ 11488
янва@@ 11477
считы@@ 11407
финан@@ 11406
круг 11375
нере@@ 11360
удосто@@ 11356
вляется 11337
певи@@ 11324
кост@@ 11323
декаб@@ 11318
тию 11318
варь 11304
гим@@ 11296
ером 11289
кладби@@ 11278
мож@@ 11276
законо@@ 11271
казыва@@ 11253
ассоциа@@ 11235
сером 11225
биз@@ 11221
вторы@@ 11216
здоров@@ 11194
полков@@ 11194
ств@@ 11158
Э 11140
лябин@@ 11121
Теле@@ 11117
соревно@@ 11114
приводи@@ 11102
туга@@ 11091
пера@@ 11061
мот@@ 11038
далеко 11025
зуль@@ 11024
разильский 10994
Ль@@ 10949
муни@@ 10947
чах 10934
могу@@ 10925
новременно 10922
Оте@@ 10911
вани@@ 10901
надцатом 10893
министра@@ 10889
вш@@ 10883
санти@@ 10874
ила 10842
чник 10826
рее@@ 10797
второ@@ 10776
сли 10758
охра@@ 10753
еры@@ 10710
сомо@@ 10696
матри@@ 10676
метео@@ 10675
логическая 10613
женщи@@ 10594
СС 10585
стя 10555
прово@@ 10544
насе@@ 10531
дцат@@ 10529
спорт@@ 10523
гря@@ 10505
рубеж@@ 10501
процен@@ 10460
чью 10427
евод@@ 10366
доров@@ 10362
возраст@@ 10344
гви@@ 10343
прияти@@ 10330
юно@@ 10310
ассо@@ 10303
парта@@ 10301
результат@@ 10214
сериа@@ 10208
Нау@@ 10202
свиде@@ 10171
чине 10141
реат 10116
неш@@ 10092
перегово@@ 9966
райо@@ 9966
орден@@ 9960
СП@@ 9942
министер@@ 9941
съ@@ 9941
правл@@ 9913
стром 9888
живу@@ 9878
дале@@ 9868
ште@@ 9863
разу 9773
ректор 9696
религи@@ 9689
КП@@ 9656
страи@@ 9616
суме@@ 9599
Официаль@@ 9577
Испа@@ 9547
пассажи@@ 9543
долла@@ 9542
Мини@@ 9507
санд@@ 9497
аври@@ 9485
комен@@ 9417
рович 9412
Энциклопеди@@ 9402
правля@@ 9347
Чере@@ 9323
Бли@@ 9279
девя@@ 9215
муниципалите@@ 9210
осуще@@ 9204
феде@@ 9204
сере@@ 9175
династи@@ 9122
аэ@@ 9062
лога 9052
Окон@@ 9012
ордина@@ 8988
неодно@@ 8978
игры@@ 8972
пись@@ 8972
Кав@@ 8971
лейтенан@@ 8883
потен@@ 8880
поги@@ 8860
сколь@@ 8848
возгла@@ 8844
СС@@ 8838
оконча@@ 8832
моск@@ 8816
волю@@ 8807
цени@@ 8770
восем@@ 8765
жай@@ 8764
ковом 8740
клад 8729
сона@@ 8696
экипа@@ 8682
вольно 8676
IS@@ 8652
хос@@ 8650
следствие 8640
февра@@ 8639
Мно@@ 8623
диссерта@@ 8614
Спи@@ 8582
разиль@@ 8559
счи@@ 8513
реж@@ 8475
расстоя@@ 8459
четыре@@ 8456
ллек@@ 8452
годар@@ 8426
рабочи@@ 8420
сест@@ 8397
экземпля@@ 8340
взаим@@ 8322
фестива@@ 8318
обер@@ 8301
ждая 8274
Перво@@ 8266
Ок@@ 8259
прем@@ 8247
@ 8245
кото@@ 8231
емы@@ 8213
гип@@ 8206
шир@@ 8153
созы@@ 8095
сист@@ 8078
уво@@ 8047
страте@@ 8010
вои@@ 7976
кет@@ 7919
очер@@ 7894
кратно 7847
посто@@ 7818
сят 7812
рее 7789
Уни@@ 7760
девяност@@ 7739
отды@@ 7734
чиная 7731
q 7663
диссер@@ 7656
W 7644
Наи@@ 7609
ениздат 7598
дес@@ 7596
обязан@@ 7581
насеком@@ 7511
ант 7503
вью 7501
Пло@@ 7490
катего@@ 7456
говоря@@ 7419
чиной 7409
тность 7403
кус@@ 7364
возвы@@ 7331
Й 7324
вул@@ 7302
брать@@ 7282
бя 7272
льян@@ 7258
201@@ 7131
Ы@@ 7131
емати@@ 7116
тыся@@ 7102
стоятель@@ 7098
& 7090
явил 7088
Ё@@ 7074
кален@@ 7071
$@@ 6980
нодорож@@ 6963
ww@@ 6921
кономи@@ 6892
зв@@ 6881
гит@@ 6877
ьет@@ 6865
континен@@ 6834
чата@@ 6824
РС@@ 6819
изу@@ 6816
ехала 6803
разд@@ 6781
ьей 6775
Лени@@ 6763
приходи@@ 6748
Th@@ 6745
мей 6743
гент@@ 6684
автоно@@ 6657
издат 6591
наза@@ 6589
педаго@@ 6553
стойчи@@ 6517
кине@@ 6508
шо 6476
Кни@@ 6469
крови@@ 6466
регу@@ 6444
митри@@ 6437
медиа@@ 6368
метрах 6340
перь 6329
ваку@@ 6327
енин@@ 6302
оккупа@@ 6276
изобре@@ 6245
ъек@@ 6199
ревно@@ 6187
:@@ 6179
рто@@ 6147
хок@@ 6137
лур@@ 6128
ленность 6118
восточ@@ 6105
обуч@@ 6095
нению 6086
потенциа@@ 6068
скольку 6057
ого@@ 6024
факульте@@ 6018
источника 6004
иници@@ 5999
лип@@ 5959
ази@@ 5951
шеви@@ 5941
комби@@ 5940
_ 5900
председ@@ 5897
ководи@@ 5848
J 5842
фев@@ 5837
хранили@@ 5827
гого 5804
очере@@ 5795
эп@@ 5794
лова@@ 5765
госу@@ 5750
Почто@@ 5746
эксплу@@ 5729
нель@@ 5695
Второ@@ 5693
Ш 5671
что@@ 5665
Меж@@ 5662
профе@@ 5622
раи@@ 5599
гина@@ 5569
офор@@ 5536
необ@@ 5500
заму@@ 5430
исключи@@ 5423
Смо@@ 5420
Так@@ 5408
поверхност@@ 5405
барди@@ 5394
Крат@@ 5381
пособи@@ 5379
окку@@ 5374
резуль@@ 5367
лень@@ 5364
рую 5339
большин@@ 5333
стат 5329
самы@@ 5288
Y 5267
лери@@ 5254
кажд@@ 5242
ol 5205
Анг@@ 5204
меро@@ 5125
середи@@ 5087
двена@@ 5035
нимат@@ 4995
гей 4992
Ч 4975
здра@@ 4967
предва@@ 4967
Z 4961
Ю 4960
Церков@@ 4896
день@@ 4875
Чис@@ 4874
кобрита@@ 4874
поверх@@ 4874
Ь@@ 4830
бели 4827
учили@@ 4801
ех@@ 4796
щаяся 4772
новремен@@ 4769
мимо 4764
lat@@ 4761
перечислен@@ 4737
брита@@ 4712
Уча@@ 4681
приблизи@@ 4672
госла@@ 4670
медаль@@ 4634
Моск@@ 4591
проб@@ 4590
ьмо@@ 4578
# 4544
псе@@ 4528
публики 4492
дца@@ 4455
изучен@@ 4450
муль@@ 4413
сиг@@ 4377
Q 4352
надле@@ 4329
сот 4316
Дерев@@ 4307
харак@@ 4297
Участ@@ 4279
положи@@ 4251
пархи@@ 4214
соче@@ 4168
подчер@@ 4151
чени@@ 4124
постепен@@ 4087
Имен@@ 4078
истре@@ 4037
чрез@@ 4028
понен@@ 4009
ѣ@@ 4009
фоль@@ 4007
Издатель@@ 3995
Дина@@ 3924
зя 3919
захо@@ 3903
верти@@ 3853
визан@@ 3849
сором 3814
моле@@ 3733
высту@@ 3725
Мек@@ 3720
ост 3707
розы@@ 3670
_@@ 3667
шос@@ 3660
сосредо@@ 3636
проду@@ 3582
реда@@ 3578
в. 3575
сая 3559
хся 3546
Гидро@@ 3531
пать 3516
бора@@ 3511
элек@@ 3500
профессо@@ 3488
дко 3446
неожи@@ 3446
Уст@@ 3429
регистри@@ 3418
стива@@ 3410
упо@@ 3402
деятель@@ 3394
сажи@@ 3390
боди@@ 3347
вычай@@ 3343
мании 3334
эки@@ 3329
даго@@ 3324
Ы 3303
Офи@@ 3270
$ 3223
Рес@@ 3187
` 3172
безо@@ 3159
правед@@ 3158
профес@@ 3133
побереж@@ 3072
шаяся 3072
Позд@@ 3054
шлось 3024
верено 2990
нако 2975
писко@@ 2972
ства@@ 2969
чне@@ 2965
Зат@@ 2955
наря@@ 2932
причина@@ 2896
это@@ 2889
ности@@ 2873
новид@@ 2834
фави@@ 2825
пенсионе@@ 2804
худо@@ 2781
Ь 2776
мето@@ 2762
ниматься 2750
Поз@@ 2737
файлы 2720
Нес@@ 2703
меда@@ 2682
солю@@ 2680
200@@ 2674
Департа@@ 2617
лимпи@@ 2581
большо@@ 2572
дрой 2571
Заслу@@ 2561
дисци@@ 2561
затель@@ 2559
недоступ@@ 2539
десятью 2515
фут@@ 2503
Согла@@ 2502
визион@@ 2496
катер@@ 2440
горит@@ 2395
раст 2380
фис 2368
безработ@@ 2353
шесто@@ 2343
раб 2340
денти@@ 2337
интен@@ 2330
хотвор@@ 2330
ьмой 2326
Ито@@ 2319
Ж 2315
ностран@@ 2315
ллери@@ 2300
Административ@@ 2293
имо@@ 2281
ьше 2262
терна@@ 2259
простра@@ 2248
новь 2239
комп@@ 2232
самб@@ 2190
рослав@@ 2187
ябрь@@ 2167
щад@@ 2139
ежи 2130
хоронен 2130
пании 2125
%@@ 2113
шинство 2092
дцать 2089
ября 2089
версите@@ 2085
СР 2060
шру@@ 2055
ьмом 2015
корре@@ 2013
плоть 2009
иму@@ 2002
шет 1962
станти@@ 1946
активными 1942
цере@@ 1926
Филь@@ 1925
тинен@@ 1896
~ 1869
ходится 1823
трол@@ 1773
президен@@ 1772
акаде@@ 1767
Больш@@ 1757
свед@@ 1737
тодо@@ 1731
гитле@@ 1709
скохозяй@@ 1694
Скон@@ 1689
ьез@@ 1666
урна@@ 1626
Ъ 1546
2. 1534
кафе@@ 1532
четырь@@ 1523
лександ@@ 1505
близи 1504
карьер@@ 1504
хиви@@ 1503
средо@@ 1496
Чем@@ 1493
спеди@@ 1482
рур@@ 1468
шкорто@@ 1446
неско@@ 1414
гораз@@ 1353
корреспон@@ 1349
раиль@@ 1335
депута@@ 1313
кга@@ 1295
предпри@@ 1265
благотво@@ 1219
удов@@ 1155
обще 1147
аспи@@ 1138
надцать 1105
циклопеди@@ 1091
преды@@ 1050
дене@@ 1037
виду@@ 998
факуль@@ 916
зиден@@ 912
отно@@ 829
вза@@ 822
матур@@ 822
Площад@@ 812
складе 797
ѣ 755
СШ@@ 743
смотря 710
промыш@@ 690
сковской 684
лейбу@@ 683
сему 631
скуль@@ 622
девяно@@ 604
198@@ 593
199@@ 581
Щ 571
Оцен@@ 561
гентство 556
Табли@@ 534
урсы 533
XI@@ 523
экзем@@ 521
больш@@ 508
тодоро@@ 486
делю 475
орги@@ 466
194@@ 448
фрона 438
195@@ 437
лишком 425
гота@@ 423
которо@@ 406
няш@@ 389
197@@ 386
192@@ 385
193@@ 381
196@@ 374
ьдесят 359
191@@ 337
лексе@@ 331
тепи@@ 314
микрон 308
дцати 303
ьмого 294
Ё 292
сыно@@ 285
Ъ@@ 281
BN 279
бря 256
XV@@ 246
сьма 231
силий 215
сегод@@ 202
надцати 195
latin 191
ьмое 182
ФСР 176
други@@ 176
" 165
правочник 164
исполь@@ 160
#@@ 144
фонный 139
надцатого 137
чественной 127
которы@@ 112
последствии 112
яся 109
министратив@@ 108
Октя@@ 102
тербур@@ 93
террито@@ 79
хаил 75
Госу@@ 69
четы@@ 64
еруса@@ 56
ьдеся@@ 56
десь 53
мотря 51
= 50
атисти@@ 50
ьсот 49
дцатого 44
=@@ 43
^ 43
'@@ 42
* 42
,@@ 41
~@@ 41
> 40
лейтен@@ 39
ябре 39
вослав@@ 34
< 31
скоре 28
начально 26
понии 22
+ 19
кгауза 17
дународ@@ 16
| 12
хсот 12
зербай@@ 11
&@@ 9
?@@ 6
[@@ 6
|@@ 6
дцатом 5
годаря 4
кобритании 4
@@@ 3
]@@ 3
`@@ 3
° 3
(@@ 2
) 1
+@@ 1
\ 1
madeupword0000 0
madeupword0001 0
madeupword0002 0
madeupword0003 0
