#version: 0.2
t h
i n
a n
t e
th e</w>
e n
r e
a r
e r
t i
o n
e d</w>
o r
o f</w>
o n</w>
o u
an d</w>
t y</w>
i n</w>
e r</w>
r i
a l
e n</w>
t w
s i
e v
e s</w>
r o
a s</w>
s t
t h</w>
a l</w>
i s</w>
in g</w>
e l
a n</w>
t o</w>
f i
c h
l a
l i
u n
r a
s t</w>
h e</w>
o r</w>
d i
en ty</w>
o m
e c
te en</w>
2 0
a m
i l
tw enty</w>
i g
n in
ti on</w>
o l
a t
w as</w>
u r
t ri
e a
e m
te d</w>
i c
v e</w>
l y</w>
e s
a c
ev ed</w>
t s</w>
tw o</w>
tri eved</w>
i r
a t</w>
nin e
s h
b er</w>
ig h
m a
20 1
en t</w>
l o
T he</w>
te r</w>
ou s
f or</w>
i s
l e</w>
c e</w>
p o
e igh
w i
re d</w>
f ou
a s
ti on
f or
s u
c i
b y</w>
o v
te r
on e</w>
a g
ar y</w>
a p
l e
s ev
1 9
nine teen</w>
th ous
R e
d e
c on
c h</w>
t o
thous and</w>
' s</w>
c om
p ro
n e
s e
t a
ro m</w>
b u
b e
v i
a d
r u
wi th</w>
f rom</w>
o o
w h
s p
er e</w>
h a
g u
ou n
o p
20 0
th ir
re trieved</w>
a tion</w>
un d
Re trieved</w>
er s</w>
i v
d e</w>
a u
h is</w>
i t</w>
t e</w>
o w
d u
fi f
ar e</w>
h i
a b
em ber</w>
q u
p ar
re s
re e</w>
p u
a y</w>
th e
d s</w>
a tion
en th</w>
o c
in g
r an
e x
l u
g e</w>
en t
m i
m o
m ar
fi r
at e</w>
th ree</w>
u s
p er
al l</w>
p la
m e
al i
h und
n o
re c
si x
hund red</w>
m an
fir st</w>
fi ve</w>
s o</w>
i m
in e</w>
p or
eigh t</w>
o g
fou r</w>
th at</w>
fou r
nin e</w>
w ere</w>
th er</w>
p e
u m
e b
d ed</w>
s on</w>
s e</w>
c a
i t
u l
g h
w or
te s</w>
si x</w>
sev en</w>
te m
b o
l ea
am e</w>
te enth</w>
p h
t u
al so</w>
c o
d ing</w>
s er
ar d</w>
t ur
te n
t ra
a f
te n</w>
n i
i r</w>
o f
e t</w>
h as</w>
st or
ti c
e l</w>
m ent</w>
ation al</w>
e ar
l an
al ly</w>
e p
ag e</w>
s ec
nine ty</w>
l d</w>
ti m
p ri
ou r
v er
in c
r ou
i es</w>
si on</w>
b e</w>
C h
an u
b li
k e</w>
un e</w>
s ed</w>
th is</w>
b i
el ev
d a
I n
k s</w>
I n</w>
du c
tw el
g ra
ou t</w>
i c</w>
ne w</w>
anu ary</w>
e w</w>
s ch
w a
r y</w>
p res
ri c
l and</w>
iv er
T h
e t
b er
u ly</w>
to ber</w>
s h</w>
M ar
on g</w>
i ts</w>
d er</w>
gu st</w>
ov ember</w>
H e</w>
a m</w>
a ted</w>
in al</w>
t or
si ty</w>
s o
tem ber</w>
ec ember</w>
m u
w e
en ts</w>
s c
in t</w>
m an</w>
fif teen</w>
s a
u s</w>
al l
ti ve</w>
s te
p i
d o
eb ru
on d</w>
ebru ary</w>
g en
un i
t ing</w>
i a</w>
c ol
l es</w>
b or
p a
sh i
pu bli
four teen</w>
s ti
eigh ty</w>
m in
tion s</w>
t on</w>
ha d</w>
twel ve</w>
g e
an d
en ce</w>
thir teen</w>
ter s</w>
es s</w>
om e</w>
p re
19 9
or ig
s y
iver sity</w>
st a
j o
com m
A r
com p
g i
n ational</w>
or e</w>
ser v
ic h</w>
ow n</w>
iv ed</w>
elev en</w>
ea r</w>
A u
f e
c oun
or k</w>
es e</w>
si g
h er</w>
I t</w>
thir ty</w>
pla y
c es</w>
d er
e y</w>
el l</w>
on s</w>
201 5</w>
g h</w>
en ti
201 4</w>
the ir</w>
no t</w>
b ec
h o
n ed</w>
l ar
re s</w>
ma y</w>
il y</w>
for m
sec ond</w>
er ic
sev enty</w>
ou s</w>
wh ich</w>
sp ec
a v
re a
oo l</w>
in s</w>
ha ve</w>
f er
ti es</w>
bu t</w>
201 3</w>
af ter</w>
ol og
ar i
m on
ic al</w>
s he</w>
k ing</w>
201 2</w>
lo w
t or</w>
eigh teen</w>
il l
orig inal</w>
b le</w>
en g
six ty</w>
ov er
for ty</w>
fif ty</w>
o ther</w>
b ri
g a
c k</w>
u m</w>
st r
gh t</w>
an t</w>
f a
el ec
ation s</w>
il l</w>
n or
i d
e w
c en
il li
w ar
A n
an g
the y</w>
f am
201 1</w>
f in
u p</w>
1 8
in ter
t ro
la tion</w>
be en</w>
st u
al s</w>
po int</w>
an y</w>
an n
di a</w>
fi l
so ci
y s</w>
c ar
tim e</w>
ol d</w>
ing s</w>
inc lu
ar ch
ic e</w>
ti c</w>
se p
stor y</w>
201 0</w>
w ay</w>
es s
A l
st s</w>
el l
s k
k n
b as
tur e</w>
ov er</w>
p s</w>
oun d</w>
ur ing</w>
an i
U n
sh ed</w>
w n</w>
s s</w>
an ce</w>
b ro
er al</w>
on d
f ac
e d
ch ar
po pu
g o
N ew</w>
mar ch</w>
am es</w>
j anuary</w>
r en
a k
shi p</w>
a d</w>
bor n</w>
el d</w>
c la
c or
thir d</w>
fou n
c u
ev er</w>
th ere</w>
r e</w>
bu il
O c
19 8
h ous
i l</w>
g re
in to</w>
p p
in ed</w>
an s</w>
s ur
wh o</w>
oc tober</w>
S t
ear s</w>
s in
n ovember</w>
j uly</w>
la r</w>
re lea
C om
ou th</w>
Mar ch</w>
J anuary</w>
j une</w>
s ea
ri l</w>
au gust</w>
di st
a re
of fi
ou ld</w>
si c</w>
c an</w>
p en
oo d</w>
d ecember</w>
b ur
ap ril</w>
ac k</w>
sep tember</w>
th er
res s</w>
sch ool</w>
d ay</w>
M ay</w>
R o
a r</w>
c an
c ed</w>
n ing</w>
J uly</w>
eric an</w>
t a</w>
il e</w>
i st
c ri
us ed</w>
Oc tober</w>
J une</w>
l in
f ebruary</w>
e f
st ru
S ep
s es</w>
Au gust</w>
su s</w>
m s</w>
on g
pro duc
v es</w>
A pri
m ore</w>
E n
a y
d ent</w>
e st
Apri l</w>
y ears</w>
Sep tember</w>
c al</w>
v il
D ecember</w>
J o
mo st</w>
f e</w>
N ovember</w>
y ear</w>
t ran
c re
por t</w>
A m
l ed</w>
h ar
S ta
four th</w>
ci ty</w>
k ed</w>
f u
d es</w>
is h</w>
man y</w>
d y</w>
h n</w>
b oo
po li
f t</w>
e en</w>
ag a
em ent</w>
on ly</w>
F ebruary</w>
a ch
un iversity</w>
ci al</w>
fam ily</w>
t le</w>
m is
m ov
i li
st ar
d ev
200 9</w>
d uring</w>
c ent
h ea
o re
ra c
t in
n am
i d</w>
c ur
j u
ap p
0 0</w>
L i
i ty</w>
e th</w>
di an</w>
l ine</w>
d ec
al e</w>
st ate</w>
ca ted</w>
n um
le y</w>
rec or
P ar
fif th</w>
r on
d es
v ol
f ol
n er</w>
sev en
c lo
th rou
l y
c ap
og ra
s si
wor ld</w>
19 7
v ed</w>
e st</w>
al bu
p er</w>
Un iversity</w>
h e
n e</w>
c c
fil m</w>
bec ame</w>
sh o
six th</w>
ab out</w>
su b
d ge</w>
publi c</w>
s ing
popu lation</w>
ig h</w>
la ter</w>
w ri
c k
ou r</w>
kn own</w>
or g
v er</w>
wh en</w>
Ar ch
sev enth</w>
in a</w>
C on
200 8</w>
fi c
b all</w>
a i
ond on</w>
eigh th</w>
ur e</w>
as e</w>
j ec
d el
ir e</w>
tim es</w>
be g
te l
sti tu
T his</w>
s el
P ro
o b
pres s</w>
par t
th en</w>
c am
v en
tic s</w>
al es</w>
- -</w>
ma de</w>
stru c
U ni
w ard</w>
l ec
di rec
b ar
nin th</w>
hi m</w>
tw een</w>
b r
e di
p lan
olog y</w>
c lu
th an</w>
str ali
ne w
par t</w>
s ome</w>
six teen</w>
for d</w>
k e
b el
over n
relea sed</w>
ab le</w>
w in
t y
ow ever</w>
m e</w>
1 0</w>
te am</w>
d en
ric t</w>
c y</w>
2 0</w>
n o</w>
gu e</w>
o li
ent ly</w>
H i
h er
e g
i al</w>
di ed</w>
v o
n a
p r
albu m</w>
be tween</w>
S ch
e u
g rou
s en
m p
si l</w>
ter n</w>
el op
200 7</w>
n s</w>
y ork</w>
su l
di s
tic al</w>
p hi
si de</w>
om e
z e</w>
op le</w>
er y</w>
to wn</w>
ma tion</w>
em b
o s</w>
ac c
o s
m at
or s</w>
t t
N ational</w>
on al</w>
- 0
op er
ti v
M a
i ch
w ell</w>
qu i
oo t
p an
d re
l l</w>
for e</w>
throu gh</w>
b a
C ol
re g
play ed</w>
i e</w>
W or
p e</w>
1 1</w>
en d</w>
an a</w>
th ese</w>
d en</w>
19 6
is ter</w>
sp or
z ed</w>
no w</w>
mu sic</w>
1 2</w>
ste m</w>
N or
hi story</w>
si s</w>
A f
v ing</w>
und er</w>
a ir
200 6</w>
c o</w>
te ri
s m
l ing</w>
at ing</w>
e ty</w>
i an</w>
or y</w>
lo cated</w>
r a</w>
m y</w>
c y
si te</w>
v e
ta in</w>
h ol
sea son</w>
d ra
lo w</w>
am pi
B o
are a</w>
1 5</w>
h u
di vi
B ri
wh ere</w>
pe ople</w>
ti l</w>
fol low
ti sh</w>
n ame</w>
c all
w ould</w>
B u
vil la
t t</w>
vi ew</w>
Y ork</w>
S u
arch ived</w>
n al</w>
k er</w>
o k</w>
an t
1 8</w>
f ec
ri ed</w>
for mation</w>
d o</w>
s qu
de sig
dev elop
ur y</w>
p le</w>
rec e
P ress</w>
3 0</w>
uni ted</w>
st ra
as s
ou gh</w>
ali ty</w>
wi th
Arch ived</w>
comp any</w>
num ber</w>
comp le
ber t</w>
ch an
di f
un ic
b ack</w>
e k</w>
di o</w>
t re
b an
sta tes</w>
el y</w>
ch il
le ge</w>
1 4</w>
un til</w>
wor k</w>
cen sus</w>
1 9</w>
ing ton</w>
h igh</w>
L a
hi stor
l a</w>
bo th</w>
ta tion</w>
d ea
po si
h y
g er
ac h</w>
m m
1 6</w>
w on</w>
Uni ted</w>
1 3</w>
ser ies</w>
ea ch</w>
D e
con si
g overn
re si
fi eld</w>
ti s
d em
hous e</w>
spec ies</w>
1 7</w>
ew s</w>
f re
w ill</w>
c ro
M o
s s
con tin
C oun
c ent</w>
coun ty</w>
2 5</w>
wa r</w>
D a
D i
a z
tion al</w>
c er
do t</w>
part ment</w>
di c
s ted</w>
war ds</w>
fe at
su cc
tran s
re tur
2 1</w>
ac k
igh t</w>
tra c
s outh</w>
ph y</w>
l er</w>
g r
l or
st ation</w>
ur ch</w>
grou p</w>
sev eral</w>
f ran
cur r
we st</w>
S he</w>
T im
te c
dist rict</w>
foun d</w>
M u
o d</w>
2 2</w>
ar t</w>
at t
sin ce</w>
be fore</w>
f es
f oot
h el
G e
2 4</w>
m en
s ter</w>
ti n</w>
b ra
l ev
O n</w>
li fe</w>
boo k</w>
per i
b la
r y
am s</w>
19 4
call ed</w>
am erican</w>
re la
g ame</w>
beg an</w>
de f
C ar
bas ed</w>
v ari
in st</w>
nam ed</w>
b and</w>
Am erican</w>
r al</w>
2 3</w>
Wor ld</w>
a th
i p
mi t
19 5
ear ly</w>
st ri
su p
for m</w>
contin u
h igh
d ol
d a</w>
ther n</w>
g er</w>
pla ce</w>
ch es</w>
wh ile</w>
i te</w>
2 8</w>
G u
2 6</w>
m er
m illi
us e</w>
ev i
s ol
s ou
pro gra
in ing</w>
re sul
it al</w>
ic s</w>
vi d</w>
aga inst</w>
re ma
c e
villa ge</w>
ne y</w>
nor th</w>
2 7</w>
re gi
v an
li t
d ers</w>
sy stem</w>
h owever</w>
In ter
c our
le g
is m</w>
po in
P u
su ch</w>
S h
inter national</w>
c ra
sh ing</w>
v ir
v al
p lo
A c
the m</w>
2 9</w>
k es</w>
an g</w>
be ing</w>
En g
buil t</w>
op en
ni a</w>
p ec
m a</w>
elev enth</w>
ea st</w>
s ci
d ents</w>
tw enti
per cent</w>
h ome</w>
as soci
te ly</w>
d oc
st on</w>
u p
sel f</w>
pro vi
Sta tes</w>
k a</w>
of f</w>
B i
serv ed</w>
n at
x t</w>
t al</w>
i m</w>
s on
in i
se t</w>
o m</w>
tor y</w>
w er</w>
in e
ha m</w>
s co
w om
ma j
R a
ch ed</w>
si ons</w>
ad a</w>
I s
F ran
r un
tor s</w>
C en
ou t
f ul
serv ice</w>
uni ty</w>
m or
com pe
in f
ic k</w>
li sh</w>
twenti eth</w>
ampi on
g ro
W h
v ic
form er</w>
P D
st an
me di
m ember</w>
f ri
s ong</w>
G er
st re
el s</w>
bri dge</w>
g ar
nine teenth</w>
s ing</w>
ten th</w>
form ed</w>
di es</w>
C an
G re
d om
f fi
si ve</w>
seven teen</w>
in te
f th</w>
jec t</w>
z ation</w>
p ol
Jo hn</w>
at a</w>
our nal</w>
d ri
com e</w>
fif teenth</w>
d on
g es</w>
jo hn</w>
PD F</w>
l em
in ce</w>
rece ived</w>
ali for
di sc
inclu ding</w>
s ame</w>
200 5</w>
to ok</w>
fu l</w>
M e
govern ment</w>
ar ch</w>
clu b</w>
twel fth</w>
eigh teenth</w>
por t
F or
ch i
Tim es</w>
h eld</w>
c ul
ren ch</w>
ver y</w>
dif fer
S o
l s</w>
mov ed</w>
pres en
th o
Th ey</w>
H ar
t ry</w>
ap pro
seven teenth</w>
S er
li ke</w>
ti ci
m il
n ec
publi shed</w>
de pen
i de</w>
six teenth</w>
S y
P o
four teenth</w>
alifor nia</w>
sing le</w>
P la
olog ical</w>
man ag
thir teenth</w>
buil ding</w>
foot ball</w>
ap pe
k il
cent ury</w>
k en</w>
n a</w>
am p
al d</w>
1 0
u al</w>
li c
e f</w>
es sed</w>
L ondon</w>
si a</w>
in es</w>
a st</w>
ac e</w>
und er
cen ter</w>
or i
a sh
on om
elec ted</w>
l ondon</w>
follow ing</w>
milli on</w>
l ong</w>
org ani
lo c
ch urch</w>
m unic
is e</w>
E x
lar s</w>
duc ation</w>
d ro
L e
sho w</w>
ar ound</w>
t ly</w>
ad em
to p</w>
di tion</w>
o u</w>
200 4</w>
ti eth</w>
201 6</w>
ca re
te ch
Q u
la te</w>
l in</w>
illi am</w>
p ur
c er</w>
qu e</w>
strali a</w>
new s</w>
u t
es tern</w>
e red</w>
ent al</w>
fi ed</w>
squ are</w>
gen er
ch a
f em
mar ried</w>
h al
ro ad</w>
un c
se arch</w>
m ents</w>
en s</w>
at s</w>
b ed</w>
bu sin
sig ned</w>
la st</w>
le ft</w>
en d
sh or
c as
t ru
dre n</w>
ci l</w>
d d
de l</w>
lo cal</w>
est ab
Sch ool</w>
con tro
col lege</w>
char ac
H is</w>
di d</w>
ar s</w>
pla y</w>
ra tion</w>
f f
t al
o k
S .</w>
re as
feat u
th s</w>
St ate</w>
elec tion</w>
n ov
d own</w>
wa ter</w>
ag es</w>
be st</w>
B ar
is o
1 7
200 0</w>
bo ard</w>
p ic
ur al</w>
st ing</w>
B e
S te
dol lars</w>
gen eral</w>
st o
thir tieth</w>
lea gue</w>
stitu te</w>
3 1</w>
a ver
des cri
w ood</w>
B ro
p as
a tes</w>
h or
ar ti
f inal</w>
sm all</w>
pre si
m ed</w>
an ts</w>
u r</w>
m en</w>
p at
Th ere</w>
m emb
o ol
g iv
ch ri
au se</w>
at ten
f ore
P e
of f
k ey</w>
g o</w>
sp on
i st</w>
g ed</w>
o w</w>
si onal</w>
ma in</w>
ac t</w>
r o</w>
M on
dea th</w>
de red</w>
y ed</w>
ig n</w>
u ro
strali an</w>
A s</w>
d ow
w al
te st</w>
da e</w>
S e
Pu bli
u e</w>
par k</w>
g ames</w>
on es</w>
C o
b at
shi ps</w>
ph o
li ght</w>
min ist
w eb
si an</w>
hea d</w>
offi ce</w>
Ch ri
b ir
ga z
m ul
an e</w>
h on
c li
sti ll</w>
Af ter</w>
estab li
ogra phy</w>
ge st</w>
th ers</w>
inclu de</w>
chil dren</w>
th ough</w>
i ma
se e</w>
la w</w>
y a</w>
an other</w>
c el
te red</w>
offi cial</w>
in v
t ten</w>
u ri
in formation</w>
k et</w>
au th
eric a</w>
y al</w>
ic es</w>
comm unity</w>
play er</w>
t ter</w>
al y
o t</w>
h an
ch ang
fa ther</w>
Hi story</w>
gra du
de partment</w>
R es
memb ers</w>
A d
m er</w>
g ran
ent u
care er</w>
se um</w>
con struc
is su
or ge</w>
y oun
a h</w>
e al
maj or</w>
fi c</w>
G en
en ces</w>
C or
de o</w>
ti vi
se qu
en n
li st</w>
b s</w>
d in
munic ip
R ec
on y</w>
h am
ea s
200 3</w>
star ted</w>
st ro
rea u</w>
of ten</w>
si on
T o
H er
au l</w>
lan ds</w>
re por
in du
br ary</w>
d y
aga in</w>
e k
h um
r an</w>
spec i
t om
posi tion</w>
ad e</w>
a w
ag o</w>
lar ge</w>
z er
pro v
o x
f ar
a ir</w>
V i
b al
w il
b lo
po sed</w>
19 3
ic k
fer ence</w>
with in</w>
re vi
aver age</w>
M in
c ou
p p</w>
ann oun
A s
n ear</w>
do m</w>
um e</w>
is ed</w>
om as</w>
stu dents</w>
c al
F or</w>
fin i
eu ro
Hi stor
tri bu
s al
col lec
k ill
lan gu
d ate</w>
l ess</w>
w in</w>
g et</w>
sa int</w>
ra il
ta ble</w>
au gh
f ur
is la
C ity</w>
A t</w>
f la
L ea
phi c</w>
ac i
P er
l l
ver sion</w>
ri ver</w>
r ing</w>
m em
an ese</w>
S outh</w>
200 1</w>
vil le</w>
y le</w>
p al
ad v
p ea
re st</w>
differ ent</w>
Ch ar
200 2</w>
ma in
inclu ded</w>
re li
b en
wa ys</w>
ber g</w>
busin ess</w>
ra ce</w>
re view</w>
ev ery</w>
pla ced</w>
sh ire</w>
M ich
curr ently</w>
w ent</w>
oc k</w>
jo ined</w>
t an
ti ce</w>
re gu
th em
recor d</w>
c ep
I S
n ers</w>
b it
ph y
r on</w>
il s</w>
tion ary</w>
ch ampion
re ad
es ti
po wer</w>
p l
k o
h om
pro c
par ty</w>
W i
relea se</w>
Coun ty</w>
d ou
Inter national</w>
develop ment</w>
foun ded</w>
ec u
tur al</w>
tw ork</w>
pr in
produc ed</w>
sh ow
g in
mi th</w>
h in
O r
tro duc
Com p
d i</w>
s our
du e</w>
al ong</w>
qu ar
B er
su mm
ar ly</w>
C am
ex ten
ef fec
I I</w>
ong s</w>
m oun
J u
n on</w>
g s</w>
re search</w>
establi shed</w>
Re g
0 00</w>
w estern</w>
sy l
kil ome
j ap
ti tle</w>
sp i
mi c</w>
un g</w>
se y</w>
g y</w>
wri tten</w>
me ters</w>
e ducation</w>
S a
b rea
1 6
ne xt</w>
open ed</w>
re f
b ea
s en</w>
po st</w>
c ould</w>
cy clo
d ar
P ri
pro b
N e
to w
N ews</w>
pro fes
s ons</w>
progra m</w>
coun try</w>
1 5
wor ks</w>
m ary</w>
me dia</w>
ap poin
M an
O ffi
retur ned</w>
bro ad
h n
vi si
mis sion</w>
y er</w>
c op
tech n
E uro
ta ins</w>
Cen sus</w>
gh ts</w>
cent ral</w>
bur g</w>
y ing</w>
ea red</w>
J ap
c au
fe der
Th e
u tion</w>
ai la
regi on</w>
re spon
at or</w>
vi deo</w>
ar tic
r in
kilome ters</w>
Al l</w>
m al
histor ic</w>
s w
d on</w>
w s</w>
arch i
un d</w>
ar ds</w>
ep iso
p t</w>
mo der
wh at</w>
ne l</w>
boo ks</w>
tel evi
presi dent</w>
succ ess
s an
n u
l ou
vi a</w>
pe an</w>
s ome
re ti
cor ding</w>
gre at</w>
es ter</w>
m y
or der</w>
h en
bi li
da ys</w>
bri tish</w>
associ ation</w>
cla ss</w>
L u
produc tion</w>
ous e</w>
d ings</w>
Bri tish</w>
W ar</w>
th ing</w>
wor ked</w>
o l</w>
ne t</w>
sch ool
t ar
s '</w>
gr ound</w>
un g
c alifornia</w>
c ame</w>
H owever</w>
B oo
C ent
continu ed</w>
us ing</w>
s a</w>
il ed</w>
wh ite</w>
al th</w>
televi sion</w>
c at
av aila
wi t
ous ly</w>
a tive</w>
dec i
am ong</w>
li ve</w>
v ey</w>
n ess</w>
soci ety</w>
in c</w>
app eared</w>
ro le</w>
a in</w>
As soci
B ra
tu res</w>
w ing</w>
ili ty</w>
in troduc
in come</w>
ic o</w>
p rac
ma gaz
ec onom
i f</w>
s em
wom en</w>
se tt
f f</w>
e h
d augh
a dian</w>
publi c
el i
im port
n om
e p</w>
si l
u su
U .
sta r</w>
' t</w>
ri ght</w>
re presen
ter y</w>
van ia</w>
O n
S ec
inc or
divi sion</w>
pro te
k in
ju st</w>
ini ti
mu si
bi a</w>
compe ti
ti ves</w>
e ds</w>
tem s</w>
fic ation</w>
mi lit
m c
N o
f ree</w>
depen dent</w>
oun ds</w>
ca r</w>
T ra
serv ices</w>
si ze</w>
con nec
syl vania</w>
z i
ful l</w>
b al</w>
orig in
ra dio</w>
ro ss</w>
r ound</w>
ent ary</w>
hum an</w>
di tional</w>
19 0
1 -
lev el</w>
sa id</w>
e an</w>
pro ject</w>
am a</w>
availa ble</w>
st ry</w>
or ity</w>
S tu
fam ili
t i</w>
k i</w>
j ournal</w>
M c
G ra
D ist
b re
k i
t ary</w>
a ward</w>
web site</w>
ca st</w>
da vid</w>
ta ke</w>
op en</w>
vari ous</w>
H ol
Da vid</w>
lo s</w>
ho w</w>
b in
k et
re st
bec ause</w>
chan ge</w>
e ts</w>
ali st</w>
for man
F i
comm is
mit te
as si
bec ome</w>
to tal</w>
a h
In dia</w>
b y
k ers</w>
st and
li es</w>
tiv al</w>
ru n</w>
incor por
d ation</w>
in vol
ac tivi
in di
Nor th</w>
st one</w>
mu ch</w>
ac adem
recor ded</w>
descri bed</w>
M or
te x
tra ck</w>
w e</w>
me dian</w>
spor t</w>
la ted</w>
direc tor</w>
M i
fac e</w>
bla ck</w>
e y
f ron
ma ke</w>
is land</w>
f lo
an o</w>
m ac
reg ister</w>
R us
pres ent</w>
ar ri
cre ated</w>
in dia</w>
pe dia</w>
b ran
ov ered</w>
lo st</w>
p ra
W il
1 3
p h</w>
pro mo
en ded</w>
n er
at ab
im p
z a</w>
t ou
v an</w>
g lo
en e</w>
y ou</w>
v ice</w>
en ds</w>
w ea
n av
shor t</w>
ev en</w>
en cy</w>
199 9</w>
c ir
t on
P oli
H u
sci ence</w>
el es</w>
popu lar</w>
5 0</w>
ali an</w>
ch o
f ra
mar k</w>
la un
se t
resul ts</w>
s po
So ci
pre vi
t our
ma g
r i</w>
k ar
s an</w>
poli tical</w>
sup port</w>
milit ary</w>
on line</w>
coun cil</w>
b a</w>
sup por
re r</w>
F e
ic a</w>
acc essed</w>
langu age</w>
profes sional</w>
cra ft</w>
fi le</w>
di sp
c a</w>
li am
li mi
ex am
ch e
cour t</w>
P or
W e
wi de</w>
uni on</w>
wi fe</w>
er ing</w>
ta ined</w>
ger man</w>
par tici
18 9
S co
an s
comm on</w>
pp ed</w>
en a</w>
o d
Par k</w>
p ap
peri od</w>
g g
ic ago</w>
A b
youn g</w>
pa in
le t</w>
tra v
Ger man</w>
be l</w>
appoin ted</w>
ro ck</w>
announ ced</w>
bo dy</w>
te ach
R u
p age</w>
k a
b an</w>
municip ality</w>
re port</w>
ar my</w>
s old</w>
U. S.</w>
enti al</w>
appe ar
Reg ister</w>
ir s</w>
t s
B la
Col lege</w>
giv en</w>
magaz ine</w>
em ents</w>
ric k</w>
B N</w>
ill s</w>
sk i</w>
stre et</w>
g ir
id a</w>
famili es</w>
199 8</w>
c ell
pri v
em plo
n es
ma s
sc ri
ci vi
m ur
De partment</w>
o ve</w>
spor ts</w>
s la
ev er
1 00</w>
ad minist
eas tern</w>
d ata</w>
per forman
tri es</w>
D u
u te</w>
sy n
ric a</w>
mitte e</w>
b ers</w>
s ongs</w>
d ru
desig n</w>
curr ent</w>
e i
all s</w>
sho p</w>
C la
s er</w>
m el
sur e</w>
sta tis
school s</w>
ev ent</w>
in o</w>
with out</w>
IS BN</w>
c ase</w>
co m</w>
import ant</w>
qui red</w>
ag ed</w>
mo ther</w>
M .</w>
h a</w>
tiv ely</w>
f rench</w>
f o
al low
b lu
zer o</w>
ri ch
i de
ci p
Lea gue</w>
An g
Rec or
W in
ty pe</w>
F rom</w>
F rench</w>
phy si
se a</w>
U S</w>
con cer
l o</w>
v en</w>
ta in
fem ales</w>
gi an</w>
con trac
me d
atab ase</w>
J ames</w>
soci al</w>
s tems</w>
T ran
pla ces</w>
tho se</w>
Associ ation</w>
us es</w>
k u
j ames</w>
ogra phic</w>
al o
de but</w>
er a</w>
vir on
a 's</w>
consi dered</w>
ch ap
n ight</w>
mu seum</w>
hal f</w>
contro l</w>
st yle</w>
develop ed</w>
n ever</w>
y n
n ames</w>
for ce</w>
su per
eng lish</w>
vol ume</w>
form s</w>
ran ge</w>
te ams</w>
op s</w>
ri s</w>
J .</w>
a war
g a</w>
T V</w>
f el
fir e</w>
1 4
Eng lish</w>
in ese</w>
in ten
199 0</w>
e du
featu res</w>
A n</w>
edi tion</w>
an im
e m</w>
j a</w>
li sted</w>
moder n</w>
j er
daugh ter</w>
h all</w>
R evi
ri s
M as
ro w</w>
ru ssi
e th
id enti
f ew</w>
da ily</w>
Au stralia</w>
B C</w>
ol y
nor th
inc reas
recor ds</w>
gh out</w>
S ci
fer red</w>
H ouse</w>
h ear
mil es</w>
y 's</w>
ch u
li brary</w>
on ce</w>
na tive</w>
Th ese</w>
a st
iv er</w>
d am
champion ship</w>
ra te</w>
bel i
e re
O ne</w>
cyclo pedia</w>
construc tion</w>
lan d
ol e</w>
w ro
on a</w>
w illiam</w>
J ournal</w>
Dist rict</w>
f unc
D uring</w>
F in
ter m</w>
do es</w>
gen us</w>
a wards</w>
ac tion</w>
E d
rou te</w>
episo de</w>
oo d
eal and</w>
S i
Eng land</w>
origin ally</w>
entu ally</w>
wor king</w>
on i
W illiam</w>
ess or</w>
u t</w>
to ge
divi du
artic le</w>
oc cu
le ar
op h
sp e
s of
inclu des</w>
k en
W al
h ere</w>
an ish</w>
sec re
l as</w>
inf lu
bili ty</w>
toge ther</w>
199 7</w>
c ing</w>
Comp any</w>
hi m
wro te</w>
tu al</w>
te l</w>
summ er</w>
18 8
nor thern</w>
sou thern</w>
gin ia</w>
au stralia</w>
og ni
A t
em p
eng land</w>
bro ther</w>
par tic
spec ial</w>
are as</w>
wa sh
comple ted</w>
W est</w>
kill ed</w>
b our
a k</w>
a el</w>
mat ch</w>
doc um
C .</w>
ne twork</w>
d u</w>
sti an</w>
g ol
mi cha
usu ally</w>
play ing</w>
d ence</w>
ra ted</w>
n 't</w>
lar gest</w>
histor ical</w>
R om
to gra
Soci ety</w>
ro bert</w>
st at
ev ol
archi tec
g la
wri ter</w>
pro per
an ti
e ded</w>
Ro bert</w>
f low
h and
un its</w>
ma ch
ci ent</w>
g ri
te xt</w>
e ch
ar a</w>
cla im
sk y</w>
st age</w>
T ur
vi sion</w>
P hi
mi lar</w>
199 6</w>
y l
k o</w>
di e</w>
m ea
st af
per formed</w>
p ed</w>
H o
D is
g ood</w>
rail way</w>
atten ded</w>
throu ghout</w>
n ation
F il
p ical</w>
sp ace</w>
fur ther</w>
a ti
M al
po ssi
U S
o ta</w>
cla ssi
sur vi
in stitute</w>
Mu sic</w>
t our</w>
sou th
def en
P al
on to</w>
stu dy</w>
st ant</w>
m ental</w>
a way</w>
ma king</w>
com pu
direc ted</w>
j a
lea d</w>
in dividu
f und
W hi
desig ned</w>
p es</w>
h an</w>
f le
me t
re land</w>
man u
partici p
struc ture</w>
ow ned</w>
ag re
w at
fini shed</w>
n ar
comm er
reli gi
def ea
sh a
eng th</w>
an aly
p ass
ri bu
stu dies</w>
e qu
rema ined</w>
m ales</w>
oc ra
P i
au stralian</w>
O x
re public</w>
ric an</w>
m ol
poli ce</w>
Au stralian</w>
f er</w>
resul t</w>
micha el</w>
di g
ad dition</w>
2 .
v al</w>
d or
li e</w>
bu l
ap e</w>
ic ro
jec ts</w>
t an</w>
lin es</w>
plan t</w>
poin ts</w>
lo ve</w>
it a</w>
ma teri
si milar</w>
a tely</w>
an i</w>
s we
199 5</w>
M is
co ach</w>
y m
he alth</w>
uni or</w>
z a
l en
ex ecu
ev entually</w>
pro tec
j our
al a</w>
B ur
Am erica</w>
sec tion</w>
c lea
di um</w>
m ile</w>
wash ington</w>
li gh
se par
Mich ael</w>
ta ken</w>
ab ility</w>
man n</w>
A .</w>
qu e
au l
him self</w>
S ur
ad ded</w>
S pec
lo o
la ke</w>
H igh</w>
ha bit
ro yal</w>
ev ents</w>
awar ded</w>
featu red</w>
limi ted</w>
k er
th y</w>
ogra ph
M at
c l
tra ining</w>
B y</w>
in ation</w>
ho sp
ac cording</w>
c le</w>
ch ing</w>
to day</w>
bec om
c is
c s</w>
tem por
an th
sig ni
lit tle</w>
lor ida</w>
T ri
fe red</w>
ig an</w>
G overn
con tribu
ta r</w>
V er
l es
v a</w>
s or
publi shing</w>
play ers</w>
d ney</w>
F re
di sh</w>
den sity</w>
Re public</w>
k ra
ac tive</w>
con stitu
en s
v is
bat tle</w>
we ek</w>
re placed</w>
f oc
ter min
. com</w>
nat ural</w>
In formation</w>
organi zation</w>
nov el</w>
Gen eral</w>
St re
cre di
s ses</w>
Histor ic</w>
c ru
d an</w>
air craft</w>
te g
iv es</w>
ten t</w>
mi d</w>
ri sh</w>
en ter
F ir
ha ving</w>
resi dent</w>
gre en</w>
ti t
18 6
it age</w>
re n</w>
mo del</w>
4 0</w>
eng ine
cam pa
ari an</w>
at tem
P re
ch e</w>
mu st</w>
in dependent</w>
W ash
d ly</w>
p it
charac ter</w>
fe et</w>
H en
s am
x ed</w>
play s</w>
hea d
ex ico</w>
Ser vice</w>
ec h</w>
col um
hi bi
R ich
pu t</w>
gu i
ou ght</w>
sh es</w>
emb ly</w>
T w
so on</w>
T er
ra y</w>
pp er</w>
qu ali
g en</w>
success ful</w>
ch em
si mp
Wh en</w>
sy stems</w>
pre mi
E l
B a
indu stry</w>
sc re
res er
bas e</w>
ann ual</w>
priv ate</w>
k ing
ter ri
z z
oli c</w>
199 4</w>
mul ti
l ong
R .</w>
b or</w>
Com m
se en</w>
chang ed</w>
mov ie</w>
em e
am erica</w>
c oo
o thers</w>
tow n
Wash ington</w>
ma y
A cc
s ent</w>
er gy</w>
E lec
bu reau</w>
tour nam
Can ada</w>
te ra
si tu
z ing</w>
g am
G ar
sp ap
p tion</w>
S ou
th ea
f essor</w>
sep h</w>
h ood</w>
cor por
V al
mi dd
h i</w>
hol ds</w>
Ch ampion
sp ea
performan ce</w>
ox ford</w>
retur n</w>
Ox ford</w>
bu s</w>
exam ple</w>
18 7
ex peri
ac ross</w>
sti c</w>
R iver</w>
en viron
ari o</w>
ad o</w>
li ed</w>
offi ci
al though</w>
R i
dist ribu
In stitute</w>
st op
c up</w>
I ts</w>
pen n
ar ies</w>
Ge orge</w>
for t</w>
stu dio</w>
ur a</w>
de ta
chi ef</w>
h un
ol ina</w>
C alifornia</w>
B el
mar ket</w>
p il
G rou
tu red</w>
me t</w>
P op
mon ths</w>
ca st
er ous</w>
dow n
C i
show s</w>
clo sed</w>
hel p</w>
S ing
T or
m ig
Bu reau</w>
all er</w>
de g
fes tival</w>
T o</w>
tri c</w>
ch er</w>
ath le
Revi ew</w>
un iver
re al</w>
competi tion</w>
p on
li ved</w>
hous ing</w>
reti red</w>
for ces</w>
our s</w>
sa w</w>
N ew
g old</w>
fi gh
ex pan
1 .
pri mary</w>
G o
liam ent</w>
ge orge</w>
prov ince</w>
h ill</w>
comple te</w>
d an
sa ys</w>
tel li
b ac
c le
t land</w>
rec ogni
Cen ter</w>
Offi ce</w>
proc ess</w>
P aul</w>
pu s</w>
e 's</w>
grou ps</w>
a i</w>
in ated</w>
appro x
Wi th</w>
ta kes</w>
su pp
repor ted</w>
ti al</w>
cel eb
follow ed</w>
b b
la w
ro om</w>
con tains</w>
D ev
can ada</w>
S en
A le
t z</w>
introduc ed</w>
eh old</w>
ch ester</w>
com b
am ed</w>
s mith</w>
Is la
ste ad</w>
ani el</w>
o is</w>
hin d</w>
L an
wor d</w>
p aul</w>
bro wn</w>
oc k
sig n</w>
i or</w>
bi g</w>
u lar</w>
199 2</w>
Me dia</w>
W ar
Th omas</w>
N av
Fir st</w>
mar ine</w>
po w
ci a</w>
th omas</w>
in st
bi ography</w>
le t
s al</w>
ol a</w>
a e</w>
rela ted</w>
sy m
da m</w>
S an
ach i
hea v
fron t</w>
Coun cil</w>
up on</w>
techn ology</w>
feder al</w>
con duc
n ic
oun d
manag ement</w>
h it</w>
b on
m al</w>
l d
r s</w>
att ack</w>
C hi
can di
fil ms</w>
199 3</w>
Fran ce</w>
re ve
ad s</w>
at ors</w>
de stro
et te</w>
U K</w>
G i
in stitu
sub sequ
staf f</w>
B us
di tions</w>
comp an
hous ehold</w>
k el
se x</w>
199 1</w>
clo se</w>
S an</w>
hi o</w>
E ast</w>
we gian</w>
S al
cep t</w>
p sy
ga ve</w>
fran ce</w>
pi te</w>
ec e</w>
C a
ex per
P at
cam bridge</w>
B as
mi d
ful ly</w>
1 2
por ts</w>
ear ch</w>
ten ed</w>
ban k</w>
m ing</w>
ti s</w>
ri es</w>
li pp
V ol
ima tely</w>
char t</w>
succ ess</w>
contrac t</w>
C ro
n y</w>
h ur
B al
gu ide</w>
st a</w>
sea t</w>
clea r</w>
c in
j us
z es</w>
s y</w>
o t
g al
bur y</w>
str ong</w>
ste in</w>
ric ul
f all</w>
arti st</w>
Grou p</w>
tion ed</w>
fre qu
doc tor</w>
an der</w>
n eigh
cul ture</w>
in ning</w>
u n</w>
m ate</w>
st ly</w>
Uni on</w>
198 0</w>
invol ved</w>
ing er</w>
par ts</w>
j unior</w>
buil dings</w>
f ood</w>
C re
stu died</w>
ell ing</w>
Ch urch</w>
ch ampi
b om
j i</w>
m us
rea ched</w>
m es</w>
Da ily</w>
att ac
ell a</w>
com man
N i
illi ams</w>
sing er</w>
S ome</w>
coun tries</w>
deg ree</w>
m ill
D .</w>
ar ts</w>
bo x</w>
l ement</w>
uri ty</w>
qu es
la bor
new spap
provi ded</w>
s ar
ul t</w>
ov i
sh ould</w>
s af
k ins</w>
J er
ess es</w>
da tes</w>
Sy stem</w>
m i</w>
jap anese</w>
w a</w>
Ac adem
con serv
li ving</w>
ph il
bur gh</w>
L ou
g res
acc ep
Jap anese</w>
ma r</w>
V ic
e ks</w>
tournam ent</w>
D em
run s</w>
a x
P h
eb all</w>
al ism</w>
d atabase</w>
Sta tis
approx imately</w>
b rou
b ru
chil d</w>
manu fac
cap ital</w>
dou ble</w>
associ ated</w>
f av
Stre et</w>
B en
civi l</w>
d ance</w>
t am
E .</w>
wh e
em er
fem ale</w>
some times</w>
ch as
oc key</w>
fin an
mp ic</w>
pe ter</w>
tex as</w>
a e
mi ch
S p
collec tion</w>
ab ove</w>
C al
h op
lu s</w>
we ek
thea ter</w>
S ha
ro l
198 9</w>
ri ghts</w>
H .</w>
g ers</w>
the re
w is
sh e
tor ial</w>
wri ting</w>
L o
Fe der
Pe ter</w>
b es</w>
s in</w>
g le</w>
S mith</w>
ans as</w>
T ex
Ro yal</w>
om s</w>
Publi shing</w>
n as
lea der</w>
oun ded</w>
C lu
W .</w>
con ver
stu dent</w>
gener ally</w>
al most</w>
b ack
u tes</w>
ca sting</w>
com mittee</w>
F oot
I t
z er</w>
hn son</w>
stan ding</w>
M ac
app lic
fi el
Jap an</w>
star t</w>
p ing</w>
ph en</w>
euro pean</w>
incorpor ated</w>
at ory</w>
char les</w>
t un
B or
B an
and a</w>
am i</w>
k y
w all</w>
Char les</w>
e x</w>
ali zed</w>
ge ts</w>
n ation</w>
low er</w>
Euro pean</w>
O ly
h and</w>
An n
gen e</w>
M edi
S pan
H a
H all</w>
ma p</w>
issu e</w>
penn sylvania</w>
A ir</w>
e z</w>
M er
prac tice</w>
fu ture</w>
cro ss</w>
in dian</w>
tor ia</w>
fam ous</w>
nat ure</w>
C ap
gradu ated</w>
midd le</w>
y e
er o
v oc
d son</w>
L in
g ress</w>
c ement</w>
de al</w>
tempor ary</w>
w el
rela tion
dre w</w>
oc cur
signi fic
mp ics</w>
du ce</w>
P lan
t ch</w>
ir an</w>
sp anish</w>
ro man
ac coun
Cent ral</w>
be hind</w>
wor th</w>
t ings</w>
Cam bridge</w>
re w</w>
comm unic
0 -
medi cal</w>
th i
defea ted</w>
jap an</w>
en ced</w>
ac tor</w>
Di rec
D es
Span ish</w>
si ble</w>
In dian</w>
campa ign</w>
C up</w>
g un
stand ard</w>
sa chu
bel ow</w>
mit ted</w>
hosp ital</w>
commis sion</w>
l ength</w>
re vol
ic le</w>
Pla ces</w>
or ial</w>
set ts</w>
elec tions</w>
ew ish</w>
y ers</w>
loc ation</w>
b ow
x i
to m</w>
sachu setts</w>
tic ally</w>
rich ard</w>
sho t</w>
L .</w>
Rich ard</w>
Li brary</w>
laun ched</w>
read y</w>
de st</w>
D el
oper ations</w>
tain ment</w>
N at
cis co</w>
Acc essed</w>
aci fic</w>
A ir
sci enti
our ces</w>
Ger many</w>
ear li
fri end</w>
en ted</w>
m icro
H igh
s onal</w>
W a
w an
ket ball</w>
pho togra
R el
K ing</w>
t ra</w>
ri age</w>
to o</w>
j ac
chang es</w>
res ted</w>
esti g
ly ing</w>
ck y</w>
be th</w>
f lu
can adian</w>
statis tics</w>
pu l
a vi
represen ted</w>
mo ve</w>
c over</w>
j am
rema ins</w>
possi ble</w>
m on</w>
ili ties</w>
p in
W om
sk a</w>
com posed</w>
fi sh</w>
Mu seum</w>
blu e</w>
Can adian</w>
da ted</w>
win ning</w>
com es</w>
b ay</w>
un it</w>
198 8</w>
il lu
g by</w>
po st
V ir
pl an</w>
oo ds</w>
ch all
li ber
y an</w>
ev e</w>
v ers</w>
l an</w>
u lation</w>
academ y</w>
par ish</w>
Po st</w>
P r
pa ti
lea ding</w>
me an
D ra
ma ted</w>
oo t</w>
I ran</w>
al ter
M id
rest ling</w>
star s</w>
ri ch</w>
kn ow
z u
in ess</w>
revi ews</w>
ant i</w>
t r
C our
cast le</w>
qu es</w>
Ch ina</w>
g ing</w>
mov ement</w>
chan nel</w>
es sion</w>
dom ain</w>
S um
auth or</w>
ab ly</w>
en tered</w>
ti z
glo bal</w>
k m
an ces</w>
fin d</w>
gra de</w>
s lo
li ves</w>
K ar
a tic</w>
ger many</w>
ch ina</w>
da r</w>
tra de</w>
regu lar</w>
ang eles</w>
per son
sour ce</w>
P enn
g y
u ti
at tle</w>
M il
la tions</w>
g on</w>
H ea
le dge</w>
indu stri
b ol
min ister</w>
sh ar
el a</w>
russi an</w>
n an
cour se</w>
appe ars</w>
oper ated</w>
C o</w>
i dae</w>
C ha
man s</w>
al ed</w>
go ing</w>
disp la
ta tions</w>
pres sion</w>
pro file</w>
A ward</w>
pa st</w>
me th
H er</w>
H am
commer cial</w>
197 0</w>
out side</w>
ven tion</w>
high way</w>
mon ey</w>
b ill</w>
st ance</w>
l en</w>
leg al</w>
S we
k in</w>
progra ms</w>
rea d</w>
org an
C ri
mo stly</w>
d ential</w>
re duc
hous es</w>
Fil m</w>
g rea
econom ic</w>
M et
go t</w>
ov ers</w>
et ing</w>
t ress</w>
sc ore</w>
ell s</w>
y land</w>
i ve</w>
s ters</w>
en 's</w>
ci es</w>
prote in</w>
pro fessor</w>
G lo
tra ditional</w>
edi tor</w>
gre g
sp ent</w>
A wards</w>
rac y</w>
To p</w>
h us
dic tionary</w>
isla mic</w>
public ation</w>
sur vey</w>
ch icago</w>
ri c</w>
sen ior</w>
jour n
Isla mic</w>
P .</w>
charac teri
brou ght</w>
a c</w>
F ri
analy sis</w>
re spec
the ory</w>
D ic
ad d
fi t</w>
b l
M el
prin cip
s n
L os</w>
deci ded</w>
oun t</w>
vir ginia</w>
ex plo
fi ght</w>
a u</w>
ist ry</w>
Foot ball</w>
G .</w>
air port</w>
le e</w>
lea st</w>
foun dation</w>
wom an</w>
ma ster</w>
ac y</w>
Tw o</w>
en ergy</w>
h ap
manag er</w>
tera ture</w>
b att
s elected</w>
se x
6 0</w>
me ans</w>
mo th</w>
198 7</w>
sh i</w>
eng ine</w>
ch i</w>
inter view</w>
E ducation</w>
P resident</w>
ta b
Ar t</w>
con ference</w>
Ar my</w>
y u
v el
previ ously</w>
vi ol
co ast</w>
mat ches</w>
e qui
gu n</w>
consi sts</w>
mm ing</w>
Govern ment</w>
A p
ent ry</w>
ma kes</w>
S im
li s
Clu b</w>
feat ure</w>
h ard</w>
ro r</w>
O f</w>
t ac
le m</w>
num erous</w>
ch ron
bour ne</w>
Sci ence</w>
el e
musi cal</w>
proper ty</w>
med al</w>
i o</w>
fa r</w>
tion ally</w>
au di
i ous</w>
b ell</w>
ul ts</w>
Recor ds</w>
198 6</w>
mo del
ic ally</w>
tro pical</w>
D ar
g or
al i</w>
ist an</w>
provi des</w>
ra ised</w>
t ron
neigh bor
c are</w>
c lar
di sea
T ru
phi a</w>
sh er</w>
Res earch</w>
Li st</w>
es pec
comple x</w>
ei ther</w>
ov a</w>
an ia</w>
th us</w>
s ac
ev id
spor tation</w>
li a</w>
ra di
b it</w>
si ster</w>
su f
compan ies</w>
ag ricul
inte rest</w>
high er</w>
re t</w>
con f
fa irs</w>
per son</w>
Offi cial</w>
th ro
run ning</w>
ho st</w>
moun tain</w>
im ent</w>
Li fe</w>
high est</w>
ann a</w>
compe ted</w>
b in</w>
Re port</w>
appear ance</w>
provi de</w>
town ship</w>
org ia</w>
Penn sylvania</w>
198 5</w>
m ir
ch en</w>
in i</w>
o se</w>
pla t
beg inning</w>
issu es</w>
la del
re ly</w>
R ed</w>
inv estig
a te
w w
par ents</w>
E m
i ally</w>
G ol
3 .
j i
z o
ing ham</w>
la m
a o</w>
ra tive</w>
g ent
km 2</w>
18 5
oo k</w>
sco red</w>
do or</w>
ow er</w>
Re gi
previ ous</w>
recor ding</w>
S am
ly wood</w>
Di vision</w>
im pro
or din
as h</w>
stat us</w>
ovi et</w>
Boo ks</w>
lea ves</w>
v on</w>
ve h
c ks</w>
re quired</w>
w ins</w>
jer sey</w>
in stead</w>
ad van
C u
tu s</w>
s ound</w>
it self</w>
b o</w>
succ e
en z
P ol
dea d</w>
num bers</w>
rea tened</w>
stor e</w>
tw are</w>
ra el</w>
te le
no ted</w>
A R
enti re</w>
ladel phia</w>
fore ign</w>
s k</w>
regi onal</w>
k y</w>
I l
on e
n es</w>
or ies</w>
ill board</w>
espec ially</w>
Ra il
b ar</w>
ke ts</w>
gen cy</w>
v ar
ex p
re p
H or
ex pec
activi ties</w>
ex hibi
M ag
fin ally</w>
S hi
Sta r</w>
P a
F u
ni e</w>
to wards</w>
administ ration</w>
li t</w>
comm uni
L a</w>
oc ca
at trac
val ley</w>
sur r
C ong
pol y
Rus sian</w>
Gre at</w>
F er
il le</w>
ad es</w>
Mo st</w>
or ing</w>
Par ty</w>
gre w</w>
sing les</w>
M ad
w th</w>
cul tural</w>
el and</w>
si tes</w>
dig ital</w>
ga r</w>
me chan
Mar tin</w>
wor ld
198 4</w>
Euro pe</w>
Ro ad</w>
Boo k</w>
hear t</w>
por tra
k m</w>
d 's</w>
te er</w>
materi al</w>
B ul
Academ y</w>
ad op
c overed</w>
0 000</w>
main ly</w>
S ar
them a
fri ends</w>
und ay</w>
dow s</w>
it alian</w>
col on
al li
T i
j o</w>
acc ess</w>
quar ters</w>
m ale</w>
C ra
oper ation</w>
os oph
claim ed</w>
attem p
gr and</w>
m ond</w>
s le
Ch icago</w>
It alian</w>
sp ring</w>
vi ew
ri a</w>
c all</w>
divi ded</w>
com ing</w>
lem s</w>
au tom
sol di
dom in
tur n</w>
signific ant</w>
euro pe</w>
e e</w>
E li
cir cu
W estern</w>
mon th</w>
form ing</w>
ograph ical</w>
P en
n i</w>
min utes</w>
Ang eles</w>
en cyclopedia</w>
off ers</w>
trac ks</w>
increas ed</w>
co st</w>
V o
es cap
C ul
P ra
ocra tic</w>
ad ditional</w>
eme tery</w>
ci ties</w>
O ri
h ours</w>
E ar
ma tes</w>
B ir
li p</w>
Bo ard</w>
an cient</w>
individu al</w>
bu ried</w>
per sonal</w>
er t</w>
subsequ ently</w>
mar riage</w>
an y
t te</w>
bas ketball</w>
F ac
k h
ha vi
gen ce</w>
ack son</w>
o il</w>
Tex as</w>
za beth</w>
th ur</w>
pas sed</w>
se ts</w>
religi ous</w>
s and
co de</w>
ann e</w>
ow n
c ab
A ss
Histor ical</w>
im medi
produc er</w>
ic an</w>
fi gu
Wom en</w>
f y</w>
ci dent</w>
C ur
l i</w>
S ince</w>
B est</w>
m it</w>
we b</w>
tra in</w>
broad cast</w>
bo y</w>
ta x
en ni
desig n
ad ap
gra ph</w>
open ing</w>
tre at
Dic tionary</w>
ch air
y our</w>
g an</w>
m as</w>
C y
fi les</w>
h o</w>
r and</w>
0 .
a di
col or</w>
in stru
de x</w>
on a
tur ned</w>
me dic
A T
ch inese</w>
th or
no tes</w>
illi on</w>
for ced</w>
ass embly</w>
id es</w>
f lorida</w>
B lu
compu ter</w>
Publi c</w>
her itage</w>
m inal</w>
Is land</w>
bor ough</w>
s om
so li
cu st
ed y</w>
nes ota</w>
initi ally</w>
go es</w>
v in
al ways</w>
leg isla
c ers</w>
ar dian</w>
d w
8 -
con su
ir o</w>
k ansas</w>
allow ed</w>
198 2</w>
suppor ted</w>
ver se</w>
serv es</w>
198 3</w>
Hen ry</w>
Ch inese</w>
plan ts</w>
st e</w>
mach ine</w>
ent ing</w>
con fir
tem ple</w>
t as
m o</w>
sh own</w>
on ia</w>
O ther</w>
A S
commis sion
ty pes</w>
sec urity</w>
lo ss</w>
sch edu
plan s</w>
cas es</w>
construc ted</w>
Z ealand</w>
newspap er</w>
K en
bas eball</w>
hen ry</w>
ac quired</w>
po ol</w>
O p
ra tes</w>
o p</w>
poli cy</w>
dif fic
des pite</w>
C E
mar tin</w>
bi shop</w>
c is</w>
al ex
ore a</w>
m ine</w>
to s</w>
Gu ide</w>
em a</w>
inte rac
ide a</w>
re ment</w>
t ario</w>
af fec
su n</w>
ca th
aul t</w>
t ol
i sts</w>
ear ned</w>
196 0</w>
tech ni
ea t</w>
y outh</w>
T ech
c ell</w>
ever y
ch am
K u
T u
K o
ti an</w>
ou l
I N
st ations</w>
2 5
fore st</w>
po se</w>
comm une</w>
8 5</w>
j or
p un
et ry</w>
stra ted</w>
de b
s burg</w>
L or
ir a</w>
en i
tu gu
o ts</w>
The ir</w>
govern or</w>
ke ep
albu ms</w>
disc us
finan cial</w>
F ar
v a
F ol
H e
speci fic</w>
3 -
ond ary</w>
d un
offi cer</w>
F ore
k ings</w>
organi zed</w>
fi li
n is</w>
Champion ship</w>
el le</w>
sh er
relation ship</w>
go al</w>
produc ts</w>
M y
s un
g in</w>
w ol
ap ol
y n</w>
T ea
poli tics</w>
qu ick
chap ter</w>
rec ep
M any</w>
pp ing</w>
is on</w>
comm and</w>
sh ers</w>
t ting</w>
M ov
ta king</w>
z ealand</w>
execu tive</w>
em s</w>
arti sts</w>
mor ning</w>
pass eng
org an</w>
I m
evid ence</w>
ma tic</w>
o v</w>
c lin
em an</w>
re pres
con sin</w>
ne ar
gro wth</w>
A pp
prob lems</w>
s ter
h old</w>
pres er
cer tain</w>
li k
hy dro
C ath
cam pus</w>
n d</w>
Com mission</w>
alo g</w>
Bus iness</w>
b ig
ten ce</w>
K ing
de fin
D o
E r
Whi te</w>
B BC</w>
p y
d one</w>
psy ch
Mar k</w>
offici ally</w>
in er</w>
pur chas
s wit
Ac cording</w>
A ra
wa ter
bi an</w>
E R
sec u
8 -0
La ke</w>
ri e</w>
fol k</w>
vo te</w>
ta tive</w>
ven ue</w>
ill a</w>
lu m</w>
in side</w>
T a
oo gle</w>
bro thers</w>
vari ety</w>
ad ed</w>
is s</w>
hous e
Af rica</w>
ci tiz
wor ds</w>
champion ships</w>
8 0</w>
charac ters</w>
B lo
s wi
ani an</w>
S tra
tugu ese</w>
min or</w>
y o
s sic</w>
18 4
man i
ter a</w>
il a</w>
v or
mar i
spi ri
of fered</w>
serv ing</w>
can cer</w>
effec t</w>
C lar
be tter</w>
pa red</w>
H y
ea e</w>
se l</w>
el low</w>
st and</w>
N ames</w>
ell ed</w>
stor ies</w>
ra ther</w>
sp r
m un
ar i</w>
ay a</w>
th in
maj ority</w>
t tish</w>
me tho
re qui
inc re
On line</w>
In di
b ad
teri or</w>
pri mar
Ale x
re d
becom es</w>
u el</w>
me tal</w>
H el
str a</w>
ta u
vo ice</w>
L eg
li cen
par liament</w>
arri ved</w>
d ges</w>
s i</w>
af rica</w>
T y
Bla ck</w>
chri stian</w>
multi ple</w>
ci an</w>
disc overed</w>
Y ou</w>
gradu ate</w>
En cyclopedia</w>
9 7
il ing</w>
w eight</w>
F C</w>
poli tici
F .</w>
d r</w>
e duc
Chri stian</w>
ter ms</w>
cam p</w>
bu t
M ur
re a</w>
cap tain</w>
bur n</w>
k ish</w>
rec ent</w>
E v
ex is
fa st</w>
activi ty</w>
ul ty</w>
3 5</w>
ta ining</w>
ren amed</w>
f light</w>
f ted</w>
di cated</w>
o '
dist ric
ru les</w>
197 9</w>
si des</w>
near by</w>
pap er</w>
f un
in ju
ore an</w>
design ated</w>
j an</w>
er 's</w>
dar k</w>
par is</w>
sof tware</w>
deci sion</w>
c ric
lea ving</w>
dra ma</w>
li terature</w>
treat ment</w>
hon or</w>
wa y
g as</w>
cau sed</w>
dist inc
ti a</w>
go als</w>
T ro
v is</w>
win ner</w>
st an</w>
ag u
ca teg
sur face</w>
z ine</w>
F oun
b il
al y</w>
ex clu
F es
C as
1 -0
h ockey</w>
mi xed</w>
z il</w>
A N
198 1</w>
car olina</w>
igh ts</w>
cu t</w>
c us</w>
all ed</w>
pr o</w>
f al
gi ve</w>
d ale</w>
I reland</w>
Par is</w>
we eks</w>
vic tory</w>
promo ted</w>
to wer</w>
v ely</w>
long er</w>
Bi ography</w>
tw or
continu es</w>
situ ated</w>
re y</w>
c over
p re</w>
k at
li an</w>
com po
pri son
th u
P an
N o</w>
ser ve</w>
may or</w>
c el</w>
win ter</w>
ev in</w>
ver sus</w>
u es</w>
ce re
af ter
f red</w>
reg ar
t ree</w>
eg o</w>
g ate</w>
L ab
Sur vey</w>
en ing</w>
ri er</w>
spe ed</w>
ne arly</w>
ul l</w>
t 's</w>
organi z
an ds</w>
D ou
S il
f ru
publi can</w>
evol ution</w>
primar ily</w>
Qu e
Y ear</w>
sta dium</w>
over all</w>
G ro
sett lement</w>
king dom</w>
j ury</w>
az z</w>
la bel</w>
M ary</w>
be havi
pa in</w>
s ay</w>
villa ges</w>
effec ts</w>
M aga
D ea
m outh</w>
tran si
pro min
experi ence</w>
ar ran
heav y</w>
ow ard</w>
gu s</w>
M em
habit ants</w>
ul a</w>
engine ering</w>
H ill</w>
qu ality</w>
lea ve</w>
tran sport</w>
n am</w>
d le</w>
hel ped</w>
me eting</w>
mon t</w>
c es
sig n
D on
presen ted</w>
th ought</w>
ad or</w>
as ter</w>
y e</w>
af rican</w>
academ ic</w>
app ear</w>
S to
di tionally</w>
struc tion</w>
c ause</w>
champi on</w>
oc cer</w>
i reland</w>
resi dents</w>
no te</w>
197 8</w>
ul arly</w>
destro yed</w>
Ra dio</w>
la u
pri or</w>
D ay</w>
beg ins</w>
fa iled</w>
Af rican</w>
ak er</w>
bu d
wa i
tor ies</w>
Bro wn</w>
s ell</w>
La w</w>
R an
all ery</w>
form at</w>
ag ency</w>
at re</w>
re ferred</w>
B re
ry ing</w>
mea su
h our</w>
Bro ad
direc t</w>
ba sic</w>
sto p</w>
col labor
ali sts</w>
tri al</w>
pres sed</w>
lan tic</w>
Pop ulation</w>
sc en
Cour t</w>
Statis tics</w>
rac ing</w>
ex tre
o es</w>
re ference</w>
j es
j an
gir l</w>
in duc
ho t</w>
ur ban</w>
n ell</w>
ad ron</w>
v ard</w>
disea se</w>
ob serv
om a</w>
car s</w>
is pan
in ts</w>
particip ated</w>
in dic
brea k</w>
en ge</w>
sc ul
m exico</w>
e ding</w>
pro ce
in spi
lo ok</w>
ru gby</w>
gen e
sil ver</w>
i th</w>
t ag
separ ate</w>
and er
Le e</w>
ma x
de termin
manag ed</w>
sea sons</w>
issu ed</w>
partic ularly</w>
inter net</w>
A th
ne ed</w>
ge ographic</w>
co ach
p a</w>
197 6</w>
L ar
H on
tro ops</w>
b ron
bi o
in habitants</w>
li c</w>
posi tive</w>
et on</w>
3 2</w>
pas s</w>
ran t</w>
B .</w>
D en
ac tress</w>
bo t
candi date</w>
incorpor ates</w>
r ural</w>
b on</w>
j e
US A</w>
bo ston</w>
li ghts</w>
G ames</w>
7 0</w>
ner ship</w>
sch ol
sel ves</w>
tu ally</w>
pic ally</w>
L oc
i ds</w>
car ried</w>
giv es</w>
jo in</w>
2 -
rema ining</w>
corpor ation</w>
re qu
k ir
ai red</w>
mich igan</w>
nav y</w>
c on</w>
Dev elop
earli er</w>
w an</w>
ta il</w>
sec ondary</w>
po p</w>
pri ze</w>
al le
Th at</w>
lev els</w>
langu ages</w>
en ding</w>
o hio</w>
ad ver
D ec
Tech n
ali ties</w>
Al bu
win ners</w>
y l</w>
y et</w>
O b
B ru
sh a</w>
S pr
quick ly</w>
il ton</w>
I II</w>
197 4</w>
gran d
Fes tival</w>
pri son</w>
T .</w>
F am
an n</w>
197 7</w>
func tion</w>
Ch an
po ten
ph one</w>
ol s</w>
se arch
Wh ile</w>
197 5</w>
bir th</w>
lar ger</w>
mas sachusetts</w>
fin als</w>
9 0</w>
res ources</w>
l ers</w>
chil d
u pper</w>
Col um
al ready</w>
f ro
1 1-
ti tu
secre tary</w>
teach er</w>
house holds</w>
197 2</w>
Tim e</w>
pu r</w>
un a</w>
n it
chair man</w>
j ef
der ship</w>
k an
c ry
st ated</w>
wom en's</w>
ro ll</w>
c um
ten ant</w>
cap ac
2 4
gre en
Maga zine</w>
y ment</w>
physi cal</w>
Jo seph</w>
l or</w>
stre am</w>
U p
bor der</w>
exten ded</w>
lo t</w>
c ore</w>
la bor</w>
R ea
Ne twork</w>
H um
G az
Cor por
c z
succe eded</w>
195 0</w>
cro w
des h</w>
ho tel</w>
ens land</w>
ow a</w>
G al
posi tions</w>
is lands</w>
in depen
K .</w>
li on</w>
becom ing</w>
M exico</w>
li ter
fir m</w>
men tioned</w>
public ations</w>
T e
su e</w>
ra pi
St an
elec tron
sp ar
stop her</w>
y d</w>
s at
cell s</w>
assi stant</w>
figh ting</w>
Bu t</w>
on ed</w>
194 5</w>
entu cky</w>
y o</w>
cre w</w>
Com mittee</w>
pa ir</w>
we alth</w>
st y
C at
as on</w>
p ag
hus band</w>
h ag
star ting</w>
lo g
l on
v ation</w>
fi g
al ing</w>
wh om</w>
S ports</w>
purchas ed</w>
foot b
ho sted</w>
rec ently</w>
wor kers</w>
cre ate</w>
ga ined</w>
auth ori
ac tions</w>
J ef
z e
min is
me et</w>
9 -
sub ject</w>
high ly</w>
comm only</w>
ig i
M an</w>
appear ances</w>
do w</w>
de dicated</w>
ben e
L it
M us
nav al</w>
bran ch</w>
ri son</w>
don ald</w>
il la
trans ferred</w>
An d</w>
ph a</w>
i rish</w>
p ment</w>
ma thema
K a
ar gu
model s</w>
sc ale</w>
don e
jo seph</w>
t ton</w>
I rish</w>
Gre en</w>
ra m</w>
H eal
bo ys</w>
cli mate</w>
n on
p el
M ay
For ce</w>
bla ck
b illion</w>
ing ly</w>
b une</w>
h at
Vol ume</w>
k u</w>
th a</w>
pro jects</w>
D un
b i</w>
cer ti
ta x</w>
te ro
ell er</w>
F a
su sp
om p
y ard</w>
incre ase</w>
them selves</w>
sc ene</w>
dec la
i si
est ate</w>
sel y</w>
z ona</w>
u res</w>
con gress</w>
ill in
ha w
in ian</w>
im a</w>
re v
esti mated</w>
6 -
o 's</w>
foun der</w>
con temporary</w>
cap tured</w>
Con serv
s li
phil osoph
s ales</w>
F o
jo b</w>
v ent
consi der
Ser ies</w>
Ar ts</w>
meth od</w>
w ings</w>
al ty</w>
to p
ty pically</w>
im um</w>
el ess</w>
immedi ately</w>
197 3</w>
contro l
poli tan</w>
pro duce</w>
ro man</w>
head quarters</w>
ali a</w>
ac tiv
st ock</w>
3 3</w>
con te
la g</w>
oun ding</w>
or ado</w>
197 1</w>
j e</w>
i g</w>
p ounds</w>
b en</w>
In du
A g
influ ence</w>
m am
4 -
Ci vi
broad casting</w>
cri tical</w>
7 -
wea p
d d</w>
stor m</w>
fa ir</w>
S qu
ic les</w>
bo at</w>
tau ght</w>
n ea
ep t</w>
advan ced</w>
sta ur
architec ture</w>
amp les</w>
at ure</w>
La ter</w>
Bo th</w>
or a</w>
inc ol
tic a</w>
there fore</w>
r d</w>
gener ation</w>
e dia</w>
20 0</w>
sof t</w>
respon se</w>
da d</w>
le gen
sh ap
tim ate</w>
del y</w>
F I
produc t</w>
Spec ies</w>
elec tric</w>
sh oo
y ond</w>
si vely</w>
er ly</w>
3 6</w>
Y oun
ispan ic</w>
Feder al</w>
eu tenant</w>
fre e
ma d
l ins</w>
b ing</w>
sh all</w>
as su
P res
A la
Vir ginia</w>
elec tri
t z
beli eved</w>
mov ing</w>
wor k
o red</w>
s or</w>
R am
sour ces</w>
tru e</w>
week ly</w>
pr int</w>
fac ilities</w>
distric ts</w>
G ri
po or</w>
illin ois</w>
poli sh</w>
ol dest</w>
direc tly</w>
enter tainment</w>
W at
capac ity</w>
gir ls</w>
univer si
R ol
administ rative</w>
Ch il
recogni zed</w>
sol o</w>
re moved</w>
fic tion</w>
cri tics</w>
ro ck
ru le</w>
wi dely</w>
ch ur
ti l
sig ns</w>
fac t</w>
ma ss</w>
n ish</w>
jus tice</w>
tor al</w>
soldi ers</w>
trav el</w>
S ol
vi ews</w>
partic ular</w>
no table</w>
r ence</w>
continu e</w>
read ing</w>
ref lec
ac comp
k ri
s u</w>
le w
G or
the sis</w>
A C
Rom an</w>
politici an</w>
f ell</w>
d t</w>
196 8</w>
ne tt</w>
ru p
O per
blo od</w>
ffi c</w>
b au
J ones</w>
Bi g</w>
le ton</w>
tow ns</w>
5 -
F L</w>
g on
bo x
su bur
Foun dation</w>
Sec ond</w>
B ec
prob lem</w>
ali zation</w>
w restling</w>
t ment</w>
cath olic</w>
pa th
Ed ward</w>
con ditions</w>
2 6
d al
d '
mean ing</w>
Ge ographic</w>
ge ological</w>
ac ute</w>
Wh o</w>
deta ils</w>
et teer</w>
ol der</w>
nor wegian</w>
th reatened</w>
reve aled</w>
d al</w>
com edy</w>
al low</w>
E S
ed ward</w>
ona than</w>
G a
ra il</w>
b ab
ev al</w>
as signed</w>
fiel ds</w>
far m</w>
pri se</w>
3 7</w>
fre y</w>
respon sible</w>
is tic</w>
ac ting</w>
un known</w>
b each</w>
f alls</w>
ma d</w>
3 8</w>
sco tt</w>
Poli sh</w>
N a
S ev
Sy dney</w>
D ut
occu p
Ch ap
environ ment</w>
ar ms</w>
tim ore</w>
min us</w>
g las</w>
t um
m es
v in</w>
Jer sey</w>
h em
j ones</w>
re fer
k es
repor ts</w>
char ts</w>
G rand</w>
and y</w>
g et
ro ads</w>
4 .
m ers</w>
form erly</w>
af fili
on ds</w>
f ly</w>
de ep</w>
B ay</w>
H un
196 9</w>
tit led</w>
vol un
im mig
episo des</w>
3 0
R en
for ward</w>
dam age</w>
distribu tion</w>
ther ap
m ess
contro ver
h ou
minist ry</w>
ow ner</w>
wh ole</w>
P ho
ro se</w>
Sa int</w>
Nor wegian</w>
introduc tion</w>
t old</w>
tel ls</w>
i z
in vi
buil d</w>
ar rested</w>
fel low</w>
or ders</w>
flo or</w>
U C
Res ults</w>
H an
sy dney</w>
di ver
val ue</w>
appro ach</w>
inte gra
el ements</w>
sour i</w>
Nav y</w>
b ly</w>
Sco tt</w>
dri ve</w>
pr inc
Ab out</w>
statis tical</w>
ric s</w>
M ill
Pro duc
Cath olic</w>
ther lands</w>
el im
pea ce</w>
the w</w>
orig in</w>
ay lor</w>
auth ority</w>
hor se</w>
u l</w>
mar ks</w>
chri st
er o</w>
dem on
prob ably</w>
sett led</w>
tran sportation</w>
R ou
f oot</w>
exper im
W ales</w>
de tec
telli gence</w>
d aniel</w>
tem per
si r</w>
her ald</w>
og s</w>
lor d</w>
la hom
3 4</w>
F lorida</w>
is ing</w>
ma il</w>
cou ple</w>
pa edia</w>
Pro gra
mo di
c ard</w>
all en</w>
Bo ston</w>
V en
k al
cla im</w>
ni c</w>
F A</w>
conf lic
w ood
D om
ag ent</w>
fa ir
cere mon
W e</w>
7 5</w>
w ales</w>
chri s</w>
municip al</w>
ab and
b les</w>
av o
di c</w>
ir on</w>
cla sses</w>
pro posed</w>
S ea
el son</w>
Chri s</w>
Tea m</w>
p le
offi cers</w>
e ing</w>
g an
industri al</w>
mis sion
rema in</w>
Li ber
lear ning</w>
d g
char ge</w>
Cong ress</w>
Her ald</w>
over y</w>
effec tive</w>
c rea
W illiams</w>
W ol
t rou
is a</w>
scul p
f lor
tur ing</w>
fig ure</w>
tivi ty</w>
4 5</w>
w illiams</w>
off er</w>
ri se</w>
W ay
as ked</w>
iv ing</w>
pow er
b ad</w>
v ince</w>
en em
fac ility</w>
expan ded</w>
for ts</w>
A no
L at
e ter</w>
ne eded</w>
P ap
low ing</w>
nom inated</w>
suf fered</w>
I s</w>
nin gs</w>
s elec
Ma p</w>
scienti fic</w>
fi ci
cou ra
expec ted</w>
adop ted</w>
promin ent</w>
D atabase</w>
lahom a</w>
mis si
lik ely</w>
retur ns</w>
am eric
re staur
initi al</w>
d life</w>
per man
ant as
wh i
or dered</w>
g ely</w>
K i
sm aller</w>
edu cated</w>
/ km2</w>
En ter
clu bs</w>
196 7</w>
ar ia</w>
N um
princip al</w>
br and</w>
t ant</w>
es ted</w>
bir ds</w>
B ill</w>
foc us</w>
N A</w>
ant ry</w>
der ick</w>
pre me</w>
Tor onto</w>
O ld</w>
W eb
A ri
gu ard</w>
D aniel</w>
di ag
wan ted</w>
dy nam
Un iver
saf ety</w>
E di
ex cept</w>
h app
An drew</w>
ol as</w>
m m</w>
ri ce</w>
dist ance</w>
3 9</w>
res ol
ch en
Nor thern</w>
su it</w>
plat form</w>
j ar
te s
gro wing</w>
Mich igan</w>
u a</w>
di os</w>
li m</w>
gre ek</w>
bir d</w>
frequ ently</w>
ra in</w>
bar a</w>
y ellow</w>
aw a</w>
J us
reser ve</w>
mar ked</w>
c overs</w>
z one</w>
nor mal</w>
ear th</w>
le gi
russi a</w>
f ame</w>
oper ating</w>
blo ck</w>
k now</w>
Corpor ation</w>
ex pla
terri tory</w>
f are</w>
sp lit</w>
J ac
Jo hnson</w>
ar c
emp ire</w>
Man ag
M ul
Gre ek</w>
ta tives</w>
shor tly</w>
T own</w>
wh ose</w>
J es
g il
concer t</w>
defen se</w>
nu clear</w>
am ount</w>
tra ins</w>
decla red</w>
al an</w>
pro mis
W el
tor onto</w>
e a</w>
N u
sem i</w>
gu il
ari ty</w>
E as
ti e</w>
Develop ment</w>
conserv ation</w>
and rew</w>
t act</w>
al u
mis ter</w>
cop ies</w>
ti le</w>
accep ted</w>
j um
gui tar</w>
M ach
D ef
Chri st
re ach</w>
v el</w>
hy si
is s
D av
sk i
Ac t</w>
Lou is</w>
vo tes</w>
con om
cyclo paedia</w>
pa id</w>
fin ds</w>
j ack</w>
T om</w>
inv est
ran ked</w>
D oc
ter nal</w>
tu be</w>
tit les</w>
M oun
lipp ines</w>
lou is</w>
s son</w>
com par
confir med</w>
c emetery</w>
ke ep</w>
sh ment</w>
medic ine</w>
fran cisco</w>
st am
k am
z i</w>
H al
der son</w>
organiz ations</w>
tw ice</w>
den s</w>
B ea
Her itage</w>
Ano ther</w>
u tionary</w>
cro ss
mem orial</w>
equi pment</w>
let ters</w>
youn ger</w>
plan ned</w>
claim s</w>
G la
con clu
be c</w>
Pro ject</w>
connec ted</w>
af fairs</w>
re ci
defin ed</w>
re rs</w>
ag a</w>
ti st</w>
ess ing</w>
prin ted</w>
communi ties</w>
el i</w>
dra ft</w>
lea dership</w>
Cent re</w>
ac ts</w>
Ge ological</w>
l ined</w>
To day</w>
Sou thern</w>
s ong
Su b
ro oms</w>
ch ro
imp act</w>
B ran
ev a</w>
Val ley</w>
al g
ak a</w>
sto red</w>
jo hnson</w>
con cept</w>
U N
b lin</w>
P as
Pe ople</w>
pi ece</w>
E ach</w>
a sia</w>
pu ty</w>
Ste phen</w>
Bu il
z ar
per or</w>
sc op
en tation</w>
tra ffic</w>
R ev
m ill</w>
sur g
rela tions</w>
ima ge</w>
im e</w>
y ards</w>
du tch</w>
bea t</w>
conduc ted</w>
ju dge</w>
oper a</w>
n or</w>
v ent</w>
jec ted</w>
w oo
E conom
dru g</w>
ri an</w>
Sta tion</w>
Stu dies</w>
Sum mer</w>
lea ders</w>
ha r</w>
Youn g</w>
a p</w>
con tent</w>
techn ical</w>
L y
gar den</w>
po s
b le
Dut ch</w>
ver sions</w>
2 -0
f an</w>
anim als</w>
ap ore</w>
9 -0
b ou
emplo yed</w>
chall eng
om er
King dom</w>
ba sis</w>
on ic</w>
allow s</w>
chem ical</w>
th ings</w>
mo b
K e
lan e</w>
Al so</w>
mem ory</w>
ph en
ly n
I f</w>
lo ad</w>
Ch art</w>
ste phen</w>
feder ation</w>
u x</w>
ly n</w>
le y
é e</w>
p ay</w>
sh el
lo ck</w>
bro w
5 .
is es</w>
n ations</w>
R ock</w>
la tter</w>
or t</w>
m ent
Th ree</w>
scri p
3 -0
E mp
I C
mi ke</w>
ro les</w>
I tal
g over
stra tion</w>
tre es</w>
L and</w>
se ats</w>
cy cle</w>
o ted</w>
T al
196 5</w>
fran k</w>
trans lated</w>
196 4</w>
Ass embly</w>
teach ing</w>
ti m</w>
j ewish</w>
st al</w>
pat ri
i ted</w>
ra ces</w>
qu een</w>
photogra ph
ex ican</w>
Mi ke</w>
lar gely</w>
individu als</w>
win dows</w>
uni que</w>
know ledge</w>
b ought</w>
bri an</w>
Rail way</w>
ge orgia</w>
C li
196 6</w>
footb aller</w>
occur s</w>
ea si
ran k</w>
educ ational</w>
K n
J ewish</w>
j unc
M y</w>
j azz</w>
colum bia</w>
war t</w>
p acific</w>
gu es</w>
2 7
cre ek</w>
pa k
pas ses</w>
su g
comman der</w>
5 00</w>
Ma j
Y u
k on
op port
archi ve</w>
Gre en
el e</w>
pain ting</w>
attac ks</w>
ad y</w>
lin k</w>
t ted</w>
Nor th
app lied</w>
prac tic
E l</w>
R og
comple tely</w>
f as
di am
la p
de fini
Fran k</w>
ant ly</w>
gla ss</w>
po ss
occur red</w>
et a</w>
ti er</w>
world wide</w>
sh are</w>
mo tor
Bri tain</w>
el ing</w>
s ab
ta h</w>
T am
D or
k ill</w>
en na</w>
ch ec
en jo
P acific</w>
le tter</w>
Par liament</w>
omp son</w>
pp i</w>
ac eae</w>
yl or</w>
th re
P ak
194 0</w>
f ying</w>
Heal th</w>
fac tory</w>
alter native</w>
hi p</w>
edi ted</w>
ak i</w>
applic ations</w>
s ary</w>
T aylor</w>
le ts</w>
ra m
per ial</w>
enn y</w>
O hio</w>
s au
M ore</w>
ch er
su per</w>
Min ister</w>
Mo der
D ig
s na
a b</w>
sch e</w>
an 's</w>
stru gg
grea ter</w>
m om
g ary</w>
tra dition</w>
star ts</w>
os en</w>
fu r</w>
imp lem
D e</w>
High way</w>
Ital y</w>
cust om
pi ed</w>
m r</w>
scre en</w>
s occer</w>
d den</w>
19 30</w>
metho ds</w>
comp on
stri a</w>
follow s</w>
b un
R A
mur der</w>
attem pt</w>
k ov
econom y</w>
M ol
squ ad</w>
environ mental</w>
A l</w>
all as</w>
reg is
d ry</w>
p rec
fri end
mon t
figu res</w>
applic ation</w>
nec ess
b and
L ove</w>
wea ther</w>
2 8
con cent
ab ri
P it
D ata</w>
P ic
sh ops</w>
k ept</w>
ch or
Car olina</w>
agre ed</w>
gu est</w>
ti ally</w>
Mar i
pri ce</w>
4 -0
0 0
artic les</w>
arch ae
call s</w>
H ow</w>
shi on</w>
ha i</w>
th ly</w>
em e</w>
ts burgh</w>
K er
sci ences</w>
Glo bal</w>
atten tion</w>
cric ket</w>
S ir</w>
igh t
M it
inter pre
U l
re pla
dec or
F la
fac tor</w>
ta ylor</w>
a si
Champion ships</w>
materi als</w>
6 .
ch ase</w>
Sec re
G ame</w>
credi ted</w>
wh y</w>
in et</w>
B ow
secre t</w>
ro p
ur s</w>
C er
re sp
it aly</w>
hi ts</w>
f ans</w>
docum entary</w>
poten tial</w>
isi ana</w>
emplo ye
a ke</w>
bi ology</w>
proper ties</w>
u la
milli meters</w>
T own
protec tion</w>
diffic ult</w>
v ac
M un
tem ent</w>
C D</w>
Colum bia</w>
laun ch</w>
sex ual</w>
bro ke</w>
ap par
W is
rece ive</w>
ci ans</w>
mm er</w>
liam entary</w>
ga in</w>
ro w
mob ile</w>
j im</w>
Tran s
et t</w>
D .
f ine</w>
success fully</w>
en ough</w>
fund ing</w>
U r
pro to
incol n</w>
ad ult</w>
Su per
on ian</w>
de bu
them e</w>
M ili
reti rement</w>
s ten
19 20</w>
com ic</w>
resi dential</w>
s z
gi e</w>
A .
H ome</w>
mul ti</w>
ro ber
tur ns</w>
agre ement</w>
J an
res cu
lo v
Vic toria</w>
mer ged</w>
com o
mon um
con sul
che stra</w>
visi t</w>
ric ane</w>
S tor
au to
fe e</w>
tic ut</w>
7 -0
fac es</w>
in fec
pres sure</w>
a qu
B A</w>
t ta</w>
C el
G ir
our ce</w>
Al though</w>
g ade</w>
ap ar
E u
tru st</w>
con ven
ag ing</w>
la ck</w>
C O
en se</w>
reg iment</w>
ber lin</w>
go d</w>
ig er
po ses</w>
ex change</w>
identi fied</w>
se g
oly mpics</w>
J im</w>
zer land</w>
oc ese</w>
survi ved</w>
it 's</w>
in jury</w>
we red</w>
con tra
J ack</w>
comb at</w>
achi eved</w>
indi ana</w>
b ach</w>
pr ince</w>
d ley</w>
Oly mpics</w>
part ner</w>
fac ed</w>
L L
simp le</w>
d or</w>
religi on</w>
St ar
classi cal</w>
gran ted</w>
phi ladelphia</w>
ra ting</w>
we st
Inter net</w>
S pi
anim al</w>
Wh at</w>
i j
w ise</w>
te dly</w>
5 -0
Wil son</w>
201 1-
Ad minist
ly rics</w>
Col lec
Ter ri
plan ning</w>
ris k</w>
cla ssic</w>
occu pied</w>
surr ounding</w>
cap ita</w>
be yond</w>
9 .
or k
ste el</w>
re l</w>
pe ti
sp ac
neighbor hood</w>
L and
vic toria</w>
Se e</w>
ssi ppi</w>
pro gres
cri me</w>
visi ted</w>
ran ce</w>
ed ge</w>
de par
pil ot</w>
plan e</w>
ang er</w>
s elling</w>
t led</w>
it ing</w>
me tro
H in
sen ate</w>
ga tive</w>
reduc ed</w>
M en</w>
sec tor</w>
mar yland</w>
fer ing</w>
n ur
l '
A li
pati ents</w>
swe dish</w>
Comm unity</w>
st ay</w>
par ties</w>
s ch</w>
196 2</w>
la ws</w>
La w
ef forts</w>
regi ons</w>
n ard</w>
r are</w>
fle et</w>
in ations</w>
L ine</w>
v inc
Sou th
h as
s mo
W est
tor ate</w>
Ro ber
ther ine</w>
Fran cisco</w>
Swe dish</w>
chall enge</w>
di pl
ong side</w>
lea ds</w>
dro pped</w>
ec es</w>
bin son</w>
Civi l</w>
kin d</w>
the d
ell o</w>
oli shed</w>
A sia</w>
ea sed</w>
sequ ence</w>
d as</w>
p lu
ch osen</w>
M ed
ligh tly</w>
196 3</w>
habit at</w>
at i</w>
tu m</w>
tri ed</w>
gol den</w>
do s</w>
v es
al one</w>
Recor d</w>
en ter</w>
squ adron</w>
r ing
at ta
eigh ties</w>
t ch
L ew
W ri
f ts</w>
Fol lowing</w>
oper ates</w>
pur pose</w>
pri me</w>
vo l</w>
T om
quali fied</w>
oly mpic</w>
Comp le
attac ked</w>
Pro vince</w>
ang el
de pic
k ar</w>
j ean</w>
w es
po etry</w>
dist in
ke e</w>
fec t</w>
moun t</w>
mi x
S k
wil son</w>
r as</w>
direc tion</w>
4 2</w>
do g</w>
S he
bri tain</w>
pi one
Con ference</w>
appro ved</w>
wri ters</w>
du l
offi ces</w>
r al
ey e</w>
win d</w>
dra wn</w>
n y
aw are</w>
fol low</w>
Sco tland</w>
he im</w>
O s
s unday</w>
K el
ar m
dom es
So cial</w>
behavi or</w>
gran t</w>
i ans</w>
a sian</w>
conver ted</w>
s ound
p ages</w>
m ight</w>
fou ght</w>
ore gon</w>
min nesota</w>
S us
inspi red</w>
au gu
Oly mpic</w>
Alex ander</w>
S at
grea test</w>
jo hn
j r</w>
ar m</w>
resi ding</w>
d enti
Rus sia</w>
u d</w>
J .
uti li
S har
communic ations</w>
al pha</w>
fav or
hu mans</w>
et nam</w>
ak es</w>
liter ary</w>
su gg
be red</w>
ha y
ac tually</w>
gh ton</w>
ck er</w>
comb ined</w>
av en
t ann
electron ic</w>
twor ks</w>
lar ly</w>
o la
Ann ual</w>
l ess
nom ination</w>
giv ing</w>
wil d</w>
indepen dence</w>
B attle</w>
tal k</w>
z en</w>
ist ing</w>
di vor
sion ally</w>
E p
N .</w>
R E
i k
iver sary</w>
Mar ine</w>
wis consin</w>
ste ve</w>
e v</w>
Lit tle</w>
n an</w>
accoun t</w>
en coura
x on</w>
p ack
P rin
Qu een</w>
al ongside</w>
8 .
st ood</w>
lo an</w>
196 1</w>
stan ds</w>
beg in</w>
struc tures</w>
T our</w>
jo int</w>
ga ret</w>
cho ice</w>
Blu e</w>
S ig
performan ces</w>
a str
alex ander</w>
Ste ve</w>
or i</w>
g al</w>
cor rec
Ch ron
revi ew
il ly</w>
ob tained</w>
philosoph y</w>
ea se</w>
h ung
J am
h ong</w>
Au th
er re</w>
sh op
ex ist</w>
commission ed</w>
han ds</w>
b ang
be y</w>
Eng ine
achi ev
dem ocratic</w>
ke y
rela tively</w>
consi sted</w>
Sim on</w>
pea k</w>
s oviet</w>
re comm
C oo
al um
il er</w>
Coun try</w>
agricul tural</w>
as es</w>
E R</w>
S pain</w>
u ally</w>
fore sts</w>
gen der</w>
p au
expan sion</w>
si mon</w>
in terior</w>
b ach
iv al
i ra
ph ase</w>
agricul ture</w>
Is rael</w>
sco tland</w>
mi r</w>
revol ution</w>
a bu
O ver
0 -0
ef s</w>
U p</w>
sh ore</w>
G il
star red</w>
gent ina</w>
k id
amp ton</w>
ch a</w>
h tt
sev enti
ev ening</w>
in sul
Il lin
g allery</w>
des cen
ex pen
re signed</w>
min ute</w>
d in</w>
y ou
Ber lin</w>
M os
pat rick</w>
4 1</w>
inten ded</w>
olog ist</w>
per forming</w>
ww w
rail road</w>
R em
ba i</w>
thed ral</w>
B illboard</w>
feat uring</w>
H ur
as pec
escap e</w>
er ic</w>
a id</w>
4 7</w>
inte re
de st
6 5</w>
scri pt</w>
4 8</w>
tre al</w>
c les</w>
champi ons</w>
S oviet</w>
hea ds</w>
H and
2 9
aband oned</w>
adv is
sec onds</w>
www .
Publi c
eli zabeth</w>
el op</w>
k an</w>
bel ong
cam p
lem ents</w>
3 5
hap pen
T em
dra w</w>
d rin
B S</w>
i zed</w>
l un
per form</w>
fa il
peri o
ch t</w>
B at
on i</w>
bron ze</w>
C ru
coun t</w>
trans lation</w>
ry an</w>
us er</w>
y an
veh icles</w>
north west</w>
T ele
ic ide</w>
mo tion</w>
b illboard</w>
prov in
exten sive</w>
al o</w>
l la</w>
l ing
C A
ac res</w>
/ /
sto l</w>
der ived</w>
cent re</w>
jo ins</w>
Min istry</w>
T ar
si e</w>
cour ses</w>
la y</w>
Illin ois</w>
pap ers</w>
Sen ate</w>
st able</w>
O ver</w>
Pro file</w>
L am
progra mming</w>
sp ain</w>
inju red</w>
sto res</w>
ac id</w>
au dio</w>
dem ic</w>
H op
sti n</w>
we d
ali on</w>
r é
m p</w>
ten nis</w>
is ms</w>
sym bo
occu r</w>
all ing</w>
mis s</w>
pho sp
fic ations</w>
Chi ef</w>
l er
ref ers</w>
Be fore</w>
ch ell</w>
Li mi
com pared</w>
eg y
dev elop</w>
func tions</w>
Direc tor</w>
op position</w>
. C</w>
quar ter
K ir
ex press</w>
7 .
or an
classi fication</w>
H ear
w y
M unic
4 4</w>
control led</w>
a j
Th ir
Par t</w>
G am
rou gh</w>
t to</w>
p lea
regis tered</w>
cor ps</w>
un incorporated</w>
ima ges</w>
ref used</w>
Op en</w>
hon or
P ower</w>
pi eces</w>
is rael</w>
fac ts</w>
re fu
195 9</w>
M au
w alls</w>
194 4</w>
ur day</w>
f und</w>
Ban k</w>
fac ulty</w>
lan ta</w>
ecu lar</w>
ban ds</w>
gu it
appro ach
s ale</w>
quar ter</w>
fi re
jo e</w>
S tory</w>
F inal</w>
i er</w>
f lying</w>
bi e</w>
Hum an</w>
it u
Ath le
n ag
L ev
18 0
Lor d</w>
In dependent</w>
e ous</w>
loo king</w>
Bri an</w>
193 9</w>
A sh
bra in</w>
Su n</w>
Jo e</w>
hea ded</w>
ac ted</w>
A rea</w>
free dom</w>
s lightly</w>
wat ch</w>
tra ined</w>
la tin</w>
Mid dle</w>
f low</w>
reas on</w>
compo ser</w>
4 3</w>
gu ardian</w>
offici als</w>
ef ly</w>
in telligence</w>
ne uro
bro ken</w>
fin ish</w>
seventi es</w>
mem ber
loc ations</w>
F ree</w>
en cies</w>
and ra</w>
qui te</w>
architec t</w>
gra ve</w>
M en
s es
J ean</w>
distribu ted</w>
flow ers</w>
f on
hom es</w>
c enti
gra ph
6 4</w>
St and
d ating</w>
v o</w>
htt p</w>
D V
Pr inc
lo como
ai de</w>
re ll</w>
J ackson</w>
h en</w>
situ ation</w>
legisla tive</w>
spec tive</w>
b ound</w>
exis tence</w>
olog ies</w>
in n</w>
k ur
sc ape</w>
th ri
trans fer</w>
docum ents</w>
Moder n</w>
F ur
in si
el em
su b</w>
b loc
en demic</w>
fi a</w>
rec ru
i sion</w>
cau ses</w>
lo aded</w>
P ea
bri ef</w>
b ag
ar med</w>
E X
conflic t</w>
Bla ck
ay sia</w>
men 's</w>
d ur
scri ption</w>
met res</w>
Arch i
mis sions</w>
nine ties</w>
N om
to x
usu al</w>
rest ric
por tion</w>
por tion
scre en
ho sts</w>
pro ved</w>
N ic
re pea
E s
Statis tical</w>
di men
fo x</w>
ti ma
p ac
teri a</w>
in ci
bo y
Maj or</w>
m all</w>
o o</w>
south east</w>
com bin
S el
ris m</w>
p o</w>
S how</w>
la h</w>
ru s</w>
E arly</w>
O R
defea t</w>
th an
k lin</w>
sc oring</w>
m rs</w>
ro of</w>
195 6</w>
I T
el ed</w>
im prov
perman ent</w>
5 5</w>
re bel
og en
L e</w>
D er
V an</w>
lev eland</w>
or al</w>
ph ar
Eas tern</w>
an cy</w>
qu est</w>
li eutenant</w>
tor ney</w>
g es
j ackson</w>
Nav al</w>
la id</w>
bud get</w>
um es</w>
cep tion</w>
Elec tion</w>
H ung
H ous
illu strated</w>
Pre mi
L ong</w>
195 8</w>
195 7</w>
in dex</w>
displa y</w>
dy ing</w>
bo t</w>
s tics</w>
194 6</w>
em o
passeng er</w>
sh ape</w>
er to</w>
cal cu
adv oc
ket ing</w>
pres ence</w>
premi ered</w>
ne dy</w>
identi ty</w>
Co ast</w>
communic ation</w>
tic ism</w>
fi ts</w>
F ra
An th
B y
194 8</w>
titu de</w>
In te
Emp ire</w>
necess ary</w>
dic tion</w>
ste p</w>
for d
ll ery</w>
ar ab
sen ten
ve ter
apol is</w>
con tained</w>
categ ory</w>
dri ver</w>
mill er</w>
sa v
pre par
E gy
um s</w>
re in
ran ts</w>
pre ci
coo per
schedu led</w>
h ann
t at
antas y</w>
lo sing</w>
th in</w>
ar thur</w>
for ma
journ alist</w>
Spec ial</w>
S her
at tribu
W restling</w>
g ay</w>
min d</w>
v est
r ent</w>
bo ar
Fam ily</w>
pi ano</w>
uri es</w>
veh icle</w>
stri an</w>
T re
tin o</w>
stra ight</w>
resul ted</w>
B on
str ong
f fic
daugh ters</w>
adv ant
pow ers</w>
Govern or</w>
de si
ex pe
b at</w>
supp ly</w>
coun ties</w>
tar get</w>
exhibi tion</w>
ta i
ga tes</w>
w ich</w>
me ets</w>
bo dies</w>
s man</w>
bi c</w>
moun tains</w>
k it
weap ons</w>
par ks</w>
et ro
T it
li p
B ol
ne eds</w>
or g</w>
ab les</w>
Cre ek</w>
north east</w>
lan ce</w>
ex cel</w>
es h
con tact</w>
b ay
The atre</w>
w er
a im
4 0
ey es</w>
at om
fa shion</w>
cha in</w>
La tin</w>
inv a
4 9</w>
su sta
le 's</w>
provin cial</w>
sp read</w>
retur ning</w>
stand ards</w>
d h
ac cident</w>
arch ives</w>
K orea</w>
c ann
con test</w>
foun ding</w>
u kra
re ds</w>
scen es</w>
br ing</w>
tou ri
li fe
Techn ology</w>
o b</w>
la c
B ang
ool s</w>
An dre
new ly</w>
divi sions</w>
pe op
candi dates</w>
therap y</w>
n ick</w>
6 -0
hea t</w>
s election</w>
constitu ency</w>
ban ks</w>
ne i
sur ance</w>
vi de
Phi ladelphia</w>
ter 's</w>
ran e</w>
cre ation</w>
pic ture</w>
dis cip
pri ses</w>
bi bli
gun s</w>
gra m
F ame</w>
ren ov
con taining</w>
ti ll</w>
op po
stra teg
4 6</w>
us ers</w>
Mili tary</w>
Mill er</w>
wa ve</w>
diag no
tis m</w>
regu larly</w>
sen se</w>
c oc
presi dential</w>
on 's</w>
9 5</w>
U kra
stitu tion</w>
Mach ine</w>
N ov
v i</w>
A gency</w>
t rea
w ill
5 2</w>
show ed</w>
op posed</w>
thous e</w>
Inter view</w>
Munic ip
2011- 11-
T H
ter son</w>
5 0
Lew is</w>
spo t</w>
s ley</w>
spe ech</w>
R ac
Air port</w>
six ties</w>
195 5</w>
el igi
ex cell
cin ema</w>
z y</w>
influ enced</w>
re tt</w>
On tario</w>
C ast
simp ly</w>
t ony</w>
a er
g ang</w>
ne st</w>
O li
m ingham</w>
ev es</w>
Eli zabeth</w>
R O
son 's</w>
wri ght</w>
la dy</w>
ic ed</w>
jam in</w>
form al</w>
wri te</w>
max imum</w>
k entucky</w>
re ments</w>
H ay
attemp ts</w>
en g</w>
sc ra
gui shed</w>
ter ing</w>
be et
z on</w>
on tario</w>
chur ches</w>
bo ats</w>
C A</w>
viol ence</w>
th ic</w>
pain ted</w>
some thing</w>
k 's</w>
k on</w>
la ce</w>
iss ance</w>
shap ed</w>
physi cs</w>
cou ver</w>
power ful</w>
tima tely</w>
d é
heav ily</w>
po et</w>
gre y</w>
194 2</w>
ir y</w>
hi red</w>
194 7</w>
reas ons</w>
K ri
ci dae</w>
main tained</w>
de plo
whe ther</w>
ear th
pro fit</w>
O l
om an</w>
s ession</w>
S unday</w>
T an
5 1</w>
P au
cha ir</w>
m 's</w>
junc tion</w>
V illa
sa telli
authori ties</w>
ex amples</w>
done sia</w>
brea k
fe ed</w>
cat alog</w>
P s
k ol
wal k</w>
lew is</w>
Com munic
fi shing</w>
mis sed</w>
195 2</w>
re search
del iv
Vi deo</w>
Cent ury</w>
p ine</w>
represen tative</w>
con tain</w>
sub si
i um</w>
at us</w>
chem istry</w>
portion ment</w>
k orea</w>
ber ta</w>
back ground</w>
com mo
oo se</w>
co al</w>
w ant</w>
ceremon y</w>
S c
foc used</w>
194 1</w>
O k
w ick</w>
Ser vic
ex isting</w>
ma x</w>
ac qu
musi cian</w>
gr ounds</w>
po d</w>
eng ines</w>
me ter</w>
A M
ra eli</w>
in struc
Gu ardian</w>
star ring</w>
mat ter</w>
entu res</w>
mo tor</w>
ed a</w>
te ch</w>
ig n
w ounded</w>
Se a</w>
En viron
V an
Ho sp
us cri
l ington</w>
de puty</w>
domes tic</w>
resi stance</w>
ch in
195 4</w>
wai i</w>
uti ful</w>
val u
ili an</w>
Mel bourne</w>
ten nes
Un der</w>
impro ved</w>
g oogle</w>
Enter tainment</w>
inst alled</w>
da y
mi x</w>
w ag
sk in</w>
G oogle</w>
jo ining</w>
h ills</w>
O ut
to ward</w>
por tuguese</w>
o g</w>
publi shers</w>
mon as
gra phic</w>
co ordin
respec tively</w>
tra il</w>
medi eval</w>
po t</w>
P ro</w>
H ou
Li ke</w>
terri torial</w>
resi dence</w>
DV D</w>
F our</w>
I V</w>
Leg isla
determin ed</w>
chap el</w>
Ear th</w>
Por tuguese</w>
kill ing</w>
re z</w>
Dav is</w>
ra ti
t ap
mo sp
Des pite</w>
I A</w>
sha red</w>
A ma
194 9</w>
collec ted</w>
ne gative</w>
b ic
195 3</w>
ro l</w>
manufac tu
contribu ted</w>
ab ilities</w>
car ds</w>
bas s
Town ship</w>
Limi ted</w>
t ons</w>
co ast
onom y</w>
se u
Manag ement</w>
thous ands</w>
min ing</w>
H om
ow s</w>
b ai
ed ings</w>
re stored</w>
con dition</w>
ta ted</w>
g ent</w>
sco ttish</w>
C ir
M icro
n ate</w>
fo ssi
P age</w>
G ran
Pak istan</w>
big gest</w>
P sy
5 3</w>
S pe
kel ey</w>
e ge</w>
con vic
in nov
down town</w>
Sco ttish</w>
col d</w>
he ard</w>
sec tions</w>
S .
mag ne
fu el</w>
sh ell</w>
enem y</w>
S T
vo ted</w>
13 85</w>
audi ence</w>
re present</w>
200 8-0
re publican</w>
sing ing</w>
go w</w>
Ge orgia</w>
enti rely</w>
en coun
Fran cis</w>
de z</w>
ma ker</w>
fran cis</w>
A sian</w>
busin esses</w>
san ta</w>
ri f
sp er
Ch am
k or
Mas sachusetts</w>
citiz ens</w>
Sing les</w>
rec re
de an</w>
her self</w>
R oo
C ross</w>
eth nic</w>
L au
ric al</w>
tennes see</w>
k ong</w>
2011-11- 11</w>
re ver
Mar yland</w>
d ent
sub stan
D C</w>
Li ve</w>
in ner</w>
ent rance</w>
Secre tary</w>
da vis</w>
off en
ur o</w>
Cul ture</w>
al em</w>
enti tled</w>
r hy
op hi
investig ation</w>
mel bourne</w>
lo yd</w>
Albu m</w>
al leg
i ed</w>
O reg
C z
G od</w>
institu tion</w>
b is
E N
pain tings</w>
T elev
g n
be t</w>
dam aged</w>
D re
6 6</w>
f res
mon it
bo b</w>
techni ques</w>
teach ers</w>
b ak
Pr ince</w>
al co
Feder ation</w>
ques tions</w>
is ation</w>
col ors</w>
10 00</w>
P hysi
sa ve</w>
mar ia</w>
char ges</w>
sol u
z o</w>
sha w</w>
mol lu
fail ure</w>
ac re</w>
mov ies</w>
dro me</w>
on ist</w>
e ties</w>
Hol lywood</w>
Mov ie</w>
t une</w>
gre es</w>
S ab
avi ation</w>
repres ents</w>
produc ing</w>
i us</w>
am ate
le tin</w>
ani on</w>
fic ally</w>
pal ace</w>
p lus</w>
ju di
passeng ers</w>
Bor n</w>
g li
bir th
ad am</w>
go ti
bea u
fil led</w>
develop ing</w>
un es</w>
do x</w>
re ality</w>
lo se</w>
com position</w>
Bo b</w>
athle tic</w>
nation ally</w>
Re si
For t</w>
no thing</w>
sol ution</w>
Regi on</w>
Ph il
Mor ning</w>
ex pression</w>
tele graph</w>
B en</w>
Rou te</w>
bas s</w>
ir ing</w>
gu ar
cent uries</w>
do ing</w>
re su
w as
ne th</w>
ca tes</w>
ha bi
Administ ration</w>
Public ations</w>
c able</w>
d man</w>
con vention</w>
9 9</w>
ell i</w>
Al an</w>
lic ations</w>
mo du
affec ted</w>
te gy</w>
On ly</w>
surg ery</w>
ri vers</w>
ro y</w>
os ter</w>
Poli ce</w>
vis ual</w>
b rick</w>
inf antry</w>
ok lyn</w>
af t</w>
T enn
ann iversary</w>
cli m
g one</w>
i b
H ong</w>
sk ills</w>
z h
institu tions</w>
S A</w>
Servic es</w>
M anu
ini on</w>
be an</w>
inter nal</w>
il and</w>
employe es</w>
f oli
tt i</w>
premi er</w>
hon ors</w>
eng aged</w>
g au
in cident</w>
par liamentary</w>
coun c
t inc
represen tatives</w>
ser ious</w>
cro s
ci ted</w>
ques tion</w>
br un
hol lywood</w>
k orean</w>
wh it
fu sion</w>
mo on</w>
ef fort</w>
ul es</w>
ari st</w>
t ren
pak istan</w>
ac qui
popu lar
di son</w>
N ar
south west</w>
en sis</w>
Mar ia</w>
di ocese</w>
195 1</w>
O N</w>
Am eric
gra phy</w>
Arch ive</w>
Bra zil</w>
mov es</w>
constitu tion</w>
gi um</w>
Su per</w>
ex er
K orean</w>
hu man
in her
6 3</w>
amp shire</w>
Nat ural</w>
E dition</w>
7 2</w>
fel t</w>
us alem</w>
S la
t ty</w>
at ures</w>
pe t</w>
tann ica</w>
M S</w>
debu ted</w>
announ ces</w>
respon si
shoo ting</w>
P A</w>
easi ly</w>
5 4</w>
t ry
earli est</w>
es '</w>
at lantic</w>
Indu stry</w>
6 2</w>
K ra
engine er</w>
Sev eral</w>
b all
liber al</w>
l on</w>
bri efly</w>
resul ting</w>
repor ter</w>
oc ean</w>
her o</w>
stri ke</w>
char ged</w>
J an</w>
5 6</w>
col orado</w>
restaur ant</w>
e sts</w>
exten sion</w>
Min nesota</w>
m ely</w>
tri p</w>
M .
s tic
por ter</w>
I S</w>
h eight</w>
lu m
G old</w>
subsequ ent</w>
in ary</w>
6 1</w>
Fo x</w>
z y
ro me</w>
get ting</w>
E ric</w>
set ting</w>
tel l</w>
N ot</w>
u g
stu dios</w>
9 2</w>
A ge</w>
mi li
co w</w>
Jus tice</w>
r one</w>
el der</w>
ni ch
P in
st ab
tri ple</w>
Or der</w>
pa th</w>
T ony</w>
emplo yment</w>
Y ears</w>
mill an</w>
194 3</w>
f at
8 6</w>
fund s</w>
sound track</w>
repres enting</w>
connec tion</w>
Sci ences</w>
a po
ev alu
19 00</w>
r ho
promo tion</w>
av a</w>
compe te</w>
inf ra
gu lar</w>
h ec
Fi eld</w>
chri sti
cen ters</w>
200 9-0
ork shire</w>
rea r</w>
Com pu
gu l
recep tor</w>
u k
gro wn</w>
s ville</w>
Ar thur</w>
mathema tics</w>
cre ating</w>
Al len</w>
desig ns</w>
6 7</w>
s gow</w>
bi d</w>
cas ter</w>
Mu si
Pat rick</w>
str ength</w>
Mon t
oran ge</w>
zi g</w>
ur i</w>
particip ate</w>
pa y
Loc al</w>
cri sis</w>
rou tes</w>
fla t</w>
193 6</w>
cri tici
elem entary</w>
sig nal</w>
v or</w>
S em
har mon
fi red</w>
prote ins</w>
attemp ted</w>
relea ses</w>
dipl om
ra d</w>
A L
N ich
medi um</w>
D eb
ra tings</w>
le tt</w>
h ad
blo g</w>
K ong</w>
gene tic</w>
w ine</w>
bra zil</w>
7 6</w>
Conserv ation</w>
5 8</w>
au g
8 8</w>
co sts</w>
figh ter</w>
enni fer</w>
D an
ra tions</w>
Telev ision</w>
ho u</w>
A C</w>
la desh</w>
O ut</w>
b one</w>
ho li
pan ts</w>
F M</w>
eni x</w>
Dem ocratic</w>
M A</w>
re al
oc racy</w>
lou d</w>
s é</w>
g om
F lor
pu p
9 3</w>
6 8</w>
di ary</w>
re form</w>
extre mely</w>
bo w</w>
n oc
wa ters</w>
j ack
gro w</w>
man uscri
g l
nor m
a wa
ll o</w>
8 3</w>
V .</w>
re pu
p les</w>
o ther
mis sing</w>
diver sity</w>
pre hen
j en
ann y</w>
cho se</w>
se es</w>
oper ate</w>
C op
S un
tre ated</w>
ga stro
8 1</w>
h il
C ou
p en</w>
Re publican</w>
wal ter</w>
T ok
M I
rou gh
clin ical</w>
c at</w>
Al l
t age</w>
j ay</w>
bor ne</w>
recogni tion</w>
member ship</w>
A k
or chestra</w>
sugg ested</w>
te sts</w>
cro wn</w>
s low</w>
clo sely</w>
def ence</w>
bu ff
a th</w>
Sea son</w>
li sts</w>
z on
A vi
in sec
sou ght</w>
spea king</w>
v as
7 7</w>
A us
c ling</w>
g ins</w>
mar k
ch o</w>
hol ding</w>
metro politan</w>
fa x</w>
il ey</w>
ow ners</w>
W ea
We ek
ste ri
flow s</w>
5 7</w>
car ry</w>
w ing
adv ance</w>
col lap
z ilian</w>
ho p</w>
da vi
lin ked</w>
te sting</w>
pe ar
A dam</w>
k im</w>
n ev
emp ha
Chri sti
den cy</w>
indic ate</w>
ow ski</w>
al ab
ham mad</w>
boo k
de grees</w>
b ap
ob jects</w>
sp an</w>
har d
conserv ative</w>
fil med</w>
I UC
jac ent</w>
Wal ter</w>
inv ent
atten d</w>
sh ad
visi ble</w>
i owa</w>
10 -
Broad casting</w>
la tor</w>
C amp
h oo
8 9</w>
IUC N</w>
po wered</w>
ma ps</w>
distinc t</w>
sch o
la sted</w>
invest ment</w>
D S</w>
Medi cal</w>
Oreg on</w>
suppor ting</w>
i k</w>
sta yed</w>
w au
em peror</w>
201 1-0
p ad
pass ing</w>
sequ ences</w>
pic tures</w>
t all</w>
w ants</w>
K in
celeb rated</w>
run ner</w>
Un der
et ary</w>
N ow</w>
19 18</w>
Que ensland</w>
is er</w>
9 8</w>
op pon
B ou
Indi ana</w>
San ta</w>
Sch ools</w>
p ha
fra me</w>
t son</w>
7 1</w>
b by</w>
tur kish</w>
C in
ni k</w>
per sons</w>
r ong</w>
tal ks</w>
5 9</w>
ad mitted</w>
CE L</w>
ch el
Mem orial</w>
y on</w>
T ai
fla g</w>
ne goti
ol ine</w>
i th
ul timately</w>
co s</w>
h l</w>
colon ial</w>
193 8</w>
h ome
fac tors</w>
8 4</w>
credi ts</w>
k h</w>
elec toral</w>
re ally</w>
ha ir</w>
nic kn
Tur kish</w>
si zed</w>
gol f</w>
Be tween</w>
li br
st ages</w>
un able</w>
Ar ti
Bri dge</w>
ter r
th am</w>
Dig ital</w>
At lantic</w>
C H
Is lands</w>
ty pical</w>
fru it</w>
i tems</w>
N ight</w>
d res
9 1</w>
sh u
amate ur</w>
Hosp ital</w>
pro gress</w>
cri minal</w>
k om
under ground</w>
EX CEL</w>
song writer</w>
su icide</w>
n ad
m ic
a ys</w>
e an
ing en</w>
fa ith</w>
aven ue</w>
Jo hn
O N
deb ate</w>
Tele graph</w>
hol m</w>
stop ped</w>
al ties</w>
ol o
sta tement</w>
8 2</w>
ban k
9 4</w>
separ ated</w>
v ali
ander son</w>
L yn
ber ry</w>
9 6</w>
resp ond
and re
8 7</w>
a head</w>
glo be</w>
p 's</w>
dec ades</w>
ter minal</w>
b lan
tre as
ter ns</w>
invi ted</w>
di al
cra sh</w>
ar do</w>
the us</w>
ri dge</w>
ex tra</w>
Tran sportation</w>
ban e</w>
ty 's</w>
lo tte</w>
su spec
an c
Or g
Anth ony</w>
ide as</w>
descri ption</w>
Archi tec
st al
part nership</w>
ac cu
pol is</w>
St one</w>
201 0-0
du ty</w>
subur b</w>
se as</w>
M e</w>
econom ics</w>
3 00</w>
S ul
mo de</w>
ri de</w>
Af fairs</w>
f an
9 7</w>
E S</w>
ba by</w>
6 9</w>
s ri</w>
hop e</w>
for tun
su ffi
equ ival
she et</w>
cor ner</w>
val ry</w>
c ous
f en
suppor ts</w>
Wis consin</w>
har t</w>
7 8</w>
s am</w>
si t</w>
8 0
c ock</w>
view ed</w>
leg es</w>
D an</w>
Har vard</w>
Nat ure</w>
dy nas
g lu
rev ised</w>
ro s
bal timore</w>
A S</w>
ce tera</w>
anth ony</w>
ex tinc
lipp ine</w>
id en</w>
cab inet</w>
ar ena</w>
ne tworks</w>
san c
man chester</w>
du ke</w>
el ine</w>
gu in</w>
regar ded</w>
pre dic
A A</w>
tou ch
ine es</w>
L et
ad jacent</w>
provi ding</w>
Sp ace</w>
eigh ts</w>
Bi shop</w>
D ru
b oun
in ches</w>
mag ic</w>
flo o
ran king</w>
disc overy</w>
K am
chri stopher</w>
li m
y i
hand book</w>
po t
W ill</w>
mat t</w>
pre vent</w>
7 4</w>
alli ance</w>
dre am</w>
c ine</w>
st o</w>
tri bune</w>
tho dox</w>
har vard</w>
child hood</w>
han ded</w>
open s</w>
Wa ter</w>
Chri stopher</w>
comm on
cau ght</w>
A v
y a
P ur
dem and</w>
er ra</w>
tab les</w>
universi ties</w>
Man chester</w>
se ems</w>
i on</w>
beli eve</w>
H oward</w>
et cetera</w>
li er</w>
J or
ta wa</w>
Fore st</w>
V e
im my</w>
speci fically</w>
K al
re stor
mon thly</w>
gh ani
ati an</w>
Progra m</w>
alco ho
Chan nel</w>
A M</w>
techni que</w>
um b
hy po
Pla ce</w>
sur ve
que ensland</w>
w on
S ong</w>
con secu
ow ns</w>
add ress</w>
anim e</w>
classi fied</w>
E d</w>
d ford</w>
rece iving</w>
con gres
iv a</w>
Pro fessor</w>
si tion</w>
ari zona</w>
spea k</w>
K evin</w>
K ur
ani ty</w>
up dated</w>
H ot</w>
so il</w>
increas ing</w>
jo bs</w>
k evin</w>
har a</w>
ra tor</w>
plo t</w>
ser i
manufac turing</w>
Mis s</w>
centi meters</w>
happ y</w>
ley ball</w>
mar t</w>
sev ere</w>
visi tors</w>
bi ographical</w>
ad ults</w>
ar ily</w>
ab or
cu lar</w>
way back</w>
ac u
su r</w>
de p
adap ted</w>
o tt</w>
f ers</w>
de ut
elec tro
h ang
Way back</w>
ac commo
d op
por ted</w>
ig a</w>
cre te</w>
nov els</w>
g ru
la y
E f
tab ly</w>
E ll
a tives</w>
po sal</w>
on ard</w>
beet le</w>
me theus</w>
ac tors</w>
di ego</w>
im perial</w>
Cor ps</w>
bea utiful</w>
jour ney</w>
tim s</w>
P ow
l u</w>
og y</w>
end or
import ance</w>
fi cial</w>
ve ge
S ri</w>
B each</w>
u k</w>
e i</w>
ha z
us s</w>
est ine</w>
anth rop
Con tro
me ta
H av
t man</w>
ma ssi
plan et</w>
occa sionally</w>
ru ss
ine a</w>
fer son</w>
D am
low s</w>
he al
Cla ssi
con fi
ob ile</w>
7 9</w>
si mil
o dy</w>
ess ment</w>
de tro
19 14</w>
flow er</w>
mar kets</w>
mis souri</w>
Lan gu
7 3</w>
deliv ered</w>
193 7</w>
ch ant</w>
h oward</w>
com pi
en co
newspap ers</w>
. com
protec ted</w>
ko v</w>
om et
produc es</w>
tri be</w>
Tri bune</w>
f a</w>
colum n</w>
dev ices</w>
be ta</w>
Ch em
D own
sh ir
foun d
sy ste
cour ts</w>
sco res</w>
H aw
reve als</w>
200 7-0
aci on</w>
om ing</w>
ro ots</w>
keep er</w>
M P</w>
produc tions</w>
te en
Mat t</w>
ann ually</w>
spiri t</w>
Org ani
bot tom</w>
h r
ob jec
tion ing</w>
R ome</w>
ghani stan</w>
Moun tain</w>
lear ned</w>
bri gade</w>
R yan</w>
dou b
satelli te</w>
e zu
ma th</w>
tor ian</w>
swi mming</w>
D P</w>
ti sti
credi t</w>
19 19</w>
edi tions</w>
after wards</w>
m in</w>
v eg
ra t</w>
b son</w>
S in
d ged</w>
pri est</w>
person nel</w>
Y our</w>
j on</w>
' re</w>
ok lahoma</w>
Re presen
co tt</w>
arran g
nat ur
controver si
R .
h ispanic</w>
insul a</w>
stor s</w>
Th en</w>
et c</w>
P y
do ors</w>
voc als</w>
competi tions</w>
I ra
protec t</w>
stor age</w>
Cla ss</w>
F al
stre ets</w>
le ans</w>
pain ter</w>
ex pres
so red</w>
mu s</w>
An ton
requi res</w>
193 5</w>
L A</w>
eas y</w>
rol led</w>
L es
Pri ze</w>
P S</w>
An ne</w>
Ma il</w>
w en</w>
Ru gby</w>
the tic</w>
Con nec
st rac
su preme</w>
wit z</w>
ven s</w>
schedu le</w>
nin g
S af
direc tory</w>
tu gal</w>
ru led</w>
cul tiv
war s</w>
brea king</w>
st ock
summ ary</w>
min i
esti mates</w>
lin gu
pa irs</w>
oppo site</w>
w ear</w>
val ues</w>
J onathan</w>
hel ps</w>
gh o
kn ess</w>
appe al</w>
bu sh</w>
serv er</w>
ob served</w>
en te</w>
u de</w>
illu stra
g ood
um a</w>
No te</w>
Met ro
N ep
coast al</w>
licen sed</w>
can al</w>
H ispanic</w>
sug ge
honor ary</w>
th ur
mol ecular</w>
on ing</w>
m ills</w>
ex pressed</w>
dev ice</w>
li van</w>
Publi shers</w>
m und</w>
orig ins</w>
An derson</w>
Gor don</w>
t ler</w>
G un
Har ry</w>
mar keting</w>
com ics</w>
consecu tive</w>
F igh
hur ricane</w>
Ch ampi
bass ador</w>
sh ak
re di
p ron
We ek</w>
M ount</w>
rol ling</w>
am bi
ri al</w>
Tru st</w>
re tained</w>
str o</w>
har ry</w>
c us
st ran
st own</w>
gaz etteer</w>
sal t</w>
S port</w>
under standing</w>
ig er</w>
ro ger</w>
hy per
promo te</w>
thin k</w>
inva sion</w>
201 2-0
t ney</w>
Gol den</w>
detro it</w>
c ise</w>
requ ire</w>
D o</w>
re action</w>
c ow
rea ching</w>
par a</w>
p al</w>
k un
C .
chron icle</w>
ma h
descri bes</w>
tan k</w>
ti li
spo ken</w>
S wis
legen d</w>
at torney</w>
ste ps</w>
so lar</w>
W ood
reci pi
fini shing</w>
tas k</w>
o a</w>
el or</w>
ou gh
prin ting</w>
gor don</w>
J ane</w>
gar dens</w>
ca p</w>
Res ources</w>
b lin
musi cians</w>
h u</w>
temper ature</w>
ra ge</w>
ter ran
stra tegy</w>
hund reds</w>
and o</w>
schol ar
tre at</w>
pat tern</w>
Sta ff</w>
collec tions</w>
illi ps</w>
ste am</w>
affili ated</w>
v ul
fre sh
Clar k</w>
eb ook</w>
vi an</w>
ic op
campa ig
impro ve</w>
ten s</w>
cap ture</w>
th m</w>
E ver
Pol and</w>
circu it</w>
direc tors</w>
Bas eball</w>
Col on
n ak
gi o</w>
ch ann
Pla y
F air
differ ences</w>
ro s</w>
proc essing</w>
dis c</w>
ven ted</w>
regar ding</w>
law yer</w>
de al
ar on</w>
D ur
We b</w>
le g</w>
p an</w>
g ation</w>
acc used</w>
signi fi
mor ph
I an</w>
recor dings</w>
fif ties</w>
uni ties</w>
O ur</w>
atta ched</w>
te am
F ro
p ick</w>
pol e</w>
ren ew
desig ner</w>
fec ture</w>
gh es</w>
au t
every thing</w>
og an</w>
Dea th</w>
but ter
y es</w>
tou rism</w>
off s</w>
ca sts</w>
hol y</w>
pur su
appro pri
e rec
T im</w>
dec ade</w>
ear l</w>
z al
inc in
im al</w>
elim inated</w>
k el</w>
Arch ives</w>
accomp ani
Res er
guit arist</w>
S o</w>
La st</w>
f ab
con cep
equi pped</w>
car bon</w>
dri ving</w>
ro ll
ound ary</w>
Ma in</w>
po ems</w>
modi fied</w>
ma ke
Villa ge</w>
measu res</w>
dec lined</w>
S av
ear ning</w>
sk y
f i</w>
combin ation</w>
ou ts</w>
V ari
// www.
distin guished</w>
C lin
m me</w>
integra ted</w>
gra des</w>
te au</w>
resol ution</w>
di st</w>
re place</w>
m pi
rin ity</w>
ec k</w>
sw iss</w>
er i</w>
univer sal</w>
ol ds</w>
re v</w>
C emetery</w>
Gaz etteer</w>
dro p</w>
s m</w>
R on
ter sburg</w>
E P</w>
Phi lip</w>
S and
t u</w>
kel ly</w>
ang a</w>
re con
v y</w>
mi th
i '
I r
In troduc
St ru
Da ve</w>
id en
g ym
sa r</w>
cover age</w>
da ve</w>
ph er
iger ia</w>
st ad
ant ine</w>
Comple te</w>
ge red</w>
y ce</w>
man ual</w>
induc ted</w>
eu r</w>
sol e</w>
bo ards</w>
n old</w>
re jected</w>
my s
civi li
H ockey</w>
arran ged</w>
at mosp
emer gency</w>
bro ok</w>
er on</w>
colon el</w>
mi ts</w>
form ally</w>
sem i
exp lor
Rus sell</w>
K an
woo den</w>
v ae</w>
chang ing</w>
f eld</w>
Am ong</w>
Por t</w>
clar k</w>
ang le</w>
avo id</w>
s ad
ca thedral</w>
surr ounded</w>
athle tics</w>
pea ked</w>
the ore
s ung</w>
un like</w>
Ne therlands</w>
su ff
cir cum
pur poses</w>
vent ure</w>
re built</w>
A P
D ol
ri o</w>
Dou glas</w>
phar mac
Rog er</w>
ci on</w>
pol and</w>
LL C</w>
ck land</w>
ch ess</w>
elev ation</w>
193 3</w>
c ally</w>
R ay
are n</w>
ne therlands</w>
dou glas</w>
i x</w>
j onathan</w>
19 12</w>
sc ar
gra y</w>
el li
aspec ts</w>
W y
G reg
r h
bu dd
fi xed</w>
un t</w>
sig ning</w>
pre pared</w>
exclu sive</w>
car to
w ell
19 29</w>
cham ber</w>
demon stra
me an</w>
lin er</w>
psych ology</w>
K on
ij ing</w>
la tino</w>
reli ef</w>
ic ks</w>
assu med</w>
vi c</w>
In f
phi lip</w>
la t
sta te
as ks</w>
gro ve</w>
gen ous</w>
B rea
inte rested</w>
12 -
ox y
Buil ding</w>
municip alities</w>
accompani ed</w>
A h
Swis s</w>
T ak
war ri
Ex ecu
al bert</w>
busin ess
gu id
tur n
connec ticut</w>
B run
con ten
russ ell</w>
gra ss</w>
er ies</w>
s bane</w>
Mis si
Ari zona</w>
win dow</w>
cla ss
ent on</w>
hu ge</w>
dem ocra
st ation
19 10</w>
R ap
19 17</w>
Pat ri
t ro</w>
ad d</w>
t ari
x es</w>
dor f</w>
k as
wor n</w>
tw in</w>
favor ite</w>
ber ger</w>
to ols</w>
ob ject</w>
batt alion</w>
N az
hosp it
ac tual</w>
Lat ino</w>
v ary</w>
v ine</w>
la test</w>
ster dam</w>
Poli tical</w>
D NA</w>
P un
instru ments</w>
Swe den</w>
L ady</w>
ab b
ch ance</w>
Cap tain</w>
bow l</w>
tru th</w>
ar di
experi enced</w>
sha res</w>
sa ying</w>
pur chase</w>
rescu e</w>
gi ant</w>
fici ency</w>
ni ty</w>
proc esses</w>
ne u
stri al</w>
201 3-0
nat i</w>
F el
selec t</w>
me l</w>
S E
th en
bin ding</w>
vide os</w>
D ie</w>
sur ren
tur key</w>
F ron
me ant</w>
Bru ce</w>
Mas ter</w>
kin son</w>
g oods</w>
lan ding</w>
la p</w>
S wit
bru ce</w>
N ations</w>
sen d</w>
it z
li qu
ab led</w>
ari b
6 0
19 22</w>
am az
monum ent</w>
vic tims</w>
se attle</w>
D y
st ress</w>
as kat
sol ved</w>
arti llery</w>
hor ses</w>
Gen er
K ansas</w>
ro ws</w>
corpor ate</w>
d ang
L ight</w>
popular ity</w>
de posi
si sters</w>
s worth</w>
new s
Engine ering</w>
gradu ating</w>
ford shire</w>
organ ic</w>
bel ongs</w>
y u</w>
critici zed</w>
r ine</w>
G ary</w>
alle l</w>
a to</w>
la tes</w>
E th
j u</w>
A venue</w>
Th reatened</w>
19 31</w>
193 4</w>
Pla yers</w>
an ch
ci o</w>
ip zig</w>
J unior</w>
sen si
lu c
bro ad</w>
week end</w>
part ners</w>
equival ent</w>
differ ence</w>
na i</w>
j un
B om
dial ec
en dar</w>
al b
e on</w>
k no
de ep
be e</w>
p seu
W all</w>
fin ance</w>
win d
vol umes</w>
greg ation</w>
mar tin
tou red</w>
re duce</w>
del iver
De sign</w>
saf e</w>
experim ental</w>
adver ti
lin ks</w>
f lan
ess els</w>
el sen</w>
Cast le</w>
A I
hou ston</w>
law rence</w>
sou l</w>
u se
L is
la m</w>
kil omet
im prison
re m
in surance</w>
B os
intere sts</w>
su m
dem olished</w>
a de
R at
Qu ar
o ch
characteri stics</w>
app ed</w>
A L</w>
ky o</w>
p ig
ri ty</w>
industri es</w>
gre at
wau kee</w>
ri d</w>
ow nership</w>
establi shment</w>
can tly</w>
t rying</w>
bran ches</w>
lo gy</w>
ber ra</w>
em or
enz y
ca v
as s</w>
D on</w>
e o</w>
wal ker</w>
senten ced</w>
con sci
S am</w>
cam era</w>
Ann oun
F ire</w>
ri t</w>
Stu dy</w>
Al bert</w>
pri sing</w>
en ne</w>
M ales</w>
B et
hol e</w>
ani e</w>
illi am
19 28</w>
hap s</w>
com mitted</w>
Win ter</w>
preser ved</w>
em ed</w>
ex trac
re k</w>
Pla yer</w>
alab ama</w>
f antasy</w>
es ter
expe dition</w>
Ham ilton</w>
jef f</w>
R ock
y am
ad el
incin nati</w>
compi lation</w>
in spec
ol o</w>
de pression</w>
Da vi
lou isiana</w>
cross ing</w>
te a</w>
unc le</w>
ear ing</w>
aly sis</w>
193 2</w>
Mo ore</w>
gro ws</w>
lar vae</w>
loo ks</w>
re ign</w>
opport unity</w>
prison ers</w>
controver sy</w>
moun ted</w>
I ma
en ters</w>
pla in</w>
Jef f</w>
s ation</w>
g ur
conte sted</w>
mo sco
cir cle</w>
Chil dren</w>
some what</w>
ch arity</w>
ta g</w>
K im</w>
Tur key</w>
premi ere</w>
ste l
ogra phi
soli d</w>
eng al</w>
col lins</w>
z en
person ality</w>
compon ents</w>
ay an</w>
signifi cantly</w>
s ang</w>
publi sher</w>
T el
fiel der</w>
Fore ign</w>
J a
dynas ty</w>
w ic
photogra phy</w>
swe den</w>
sch eme</w>
architec tural</w>
k han</w>
Mos cow</w>
ent ure</w>
ru b
vo iced</w>
stru ck</w>
Terri torial</w>
Phi lippines</w>
sub jects</w>
te or
teri es</w>
st ones</w>
Chron icle</w>
aci onal</w>
Du ke</w>
har bor</w>
res ses</w>
d ogs</w>
al is</w>
li f
J en
f lies</w>
volun te
ow e</w>
k ent</w>
k az
al ex</w>
kill s</w>
s ers</w>
Ale x</w>
to t
B ell</w>
world 's</w>
ap s</w>
R evolution</w>
acc es
19 11</w>
si ca</w>
bac ks</w>
R id
at las</w>
ro b
alo gue</w>
4 00</w>
mi ami</w>
vol leyball</w>
Nor way</w>
auth ors</w>
P C</w>
inju ries</w>
B ab
vir us</w>
Mat thew</w>
A N</w>
possi bly</w>
19 27</w>
coun ter
portra yed</w>
ad i</w>
ex tra
m cc
bi o</w>
Communic ations</w>
mosco w</w>
accoun ts</w>
Bu dd
K il
phi lippines</w>
Sar ah</w>
ab sor
terran ean</w>
O S</w>
Regi onal</w>
wil dlife</w>
execu ted</w>
la ter
li ance</w>
ordin ary</w>
per fect</w>
fif a</w>
b ear</w>
rece ives</w>
ham ilton</w>
pla te</w>
M ir
M cc
bri ght</w>
defen sive</w>
fi es</w>
au stin</w>
am ing</w>
su d
Fi ve</w>
par am
R ights</w>
lea gues</w>
port land</w>
ak h
friend ly</w>
o ks</w>
ed in
Bo x</w>
lo sses</w>
ch ew
de ter
es day</w>
t re</w>
tel lec
Re d
G rea
Mis souri</w>
Tran sport</w>
is lation</w>
Re ference</w>
gen es</w>
men ian</w>
ther 's</w>
S au
mess age</w>
whe el</w>
hol ders</w>
C C</w>
su m</w>
T ou
mat thew</w>
Com mon
O ffic
blu es</w>
m ou
happen ed</w>
occup ation</w>
r ounds</w>
Th or
bu ck
om bia</w>
form ula</w>
V ar
g ly
anu s</w>
pit tsburgh</w>
k ie</w>
19 21</w>
met ro</w>
sty les</w>
h r</w>
Sing apore</w>
tiv als</w>
contribu tions</w>
Har ris</w>
t ford</w>
mo ore</w>
ab ad</w>
n el
crea tive</w>
fra g
ul u</w>
tal ent</w>
Ex press</w>
nan cy</w>
bu y</w>
cla y</w>
z u</w>
la kes</w>
cy cli
cap e</w>
bu ses</w>
med als</w>
sar ah</w>
relation ships</w>
concer ts</w>
tex ts</w>
docum ent</w>
in k</w>
b oundary</w>
t ack
o on</w>
youn gest</w>
defini tion</w>
land scape</w>
K at
advant age</w>
rough ly</w>
labor atory</w>
du o</w>
des cent</w>
arib bean</w>
Char ts</w>
cz ech</w>
Ma x</w>
B ay
C ab
wed ding</w>
nu cle
un ve
ing ing</w>
dra fted</w>
FI FA</w>
T ER
lear n</w>
j ew
tur ning</w>
t ine</w>
arti stic</w>
dru gs</w>
mea sure</w>
equ al</w>
En d</w>
B att
ar k</w>
c eased</w>
ag ents</w>
J our
bi ological</w>
s day</w>
amp a</w>
S earch</w>
in der</w>
j ason</w>
o ke</w>
Plan t</w>
c ov
Glo be</w>
N S
S ongs</w>
s tim
J ason</w>
et ings</w>
h ns</w>
Albu ms</w>
Cz ech</w>
C -</w>
ali zes</w>
S lo
appoin tment</w>
In stitu
Sy m
a stro
d inal</w>
oc ks</w>
ali tion</w>
am y</w>
m é
s low
m ck
For d</w>
su i
g as
communi st</w>
in de
bo ss</w>
go sla
har ris</w>
i red</w>
P et
ff in</w>
ch ers</w>
bom b</w>
prehen sive</w>
tra ding</w>
there after</w>
cel ona</w>
f s</w>
collabor ation</w>
a is</w>
gol d
19 25</w>
Law rence</w>
ever th
adver tis
everth eless</w>
athle tes</w>
iv al</w>
Sam uel</w>
Com man
B ack</w>
st rom</w>
r ons</w>
190 8</w>
19 26</w>
Ch o
i 's</w>
sam uel</w>
G ul
w en
all a</w>
p ers</w>
vol can
pho to</w>
Hand book</w>
Week ly</w>
enni al</w>
controversi al</w>
Th us</w>
R I
T our
qu o
O t
gir l
r ington</w>
on y
en cyclopaedia</w>
pra ised</w>
regu lation</w>
19 24</w>
s ke</w>
il es</w>
mas ters</w>
commer ci
con crete</w>
g i</w>
es te
contra st</w>
m exican</w>
or ph
ne ut
tt oman</w>
qu ake</w>
Wal ker</w>
nor way</w>
j et</w>
repla cement</w>
requi rements</w>
lea f</w>
ov o</w>
Bal timore</w>
An ti
w rest
ant oni
den ied</w>
Kel ly</w>
in y</w>
E din
M ck
make up</w>
p tian</w>
stan ces</w>
gu y</w>
in o
p in</w>
y ale</w>
D etro
du ties</w>
ra cial</w>
M exican</w>
dri ven</w>
D ri
an ne
eng er</w>
sequ ently</w>
sh an</w>
d ine</w>
Di ego</w>
G ood</w>
fil m
Bro w
wi g</w>
Hea d</w>
K entucky</w>
A del
n au
ann ing</w>
practic es</w>
ag er</w>
ti ed</w>
lon gest</w>
ph ony</w>
estab lish</w>
ec k
syn drome</w>
s now</w>
t as</w>
d anish</w>
ess ential</w>
F le
ath on</w>
Detro it</w>
h ill
ch lor
f rac
K ei
nar row</w>
char ter</w>
j on
h at</w>
stro ke</w>
pe tro
requ est</w>
par allel</w>
sing apore</w>
Thir d</w>
spon sored</w>
ren 's</w>
Th ompson</w>
Win ners</w>
For mer</w>
exis ted</w>
A BC</w>
eb ra
Wa ter
ad ing</w>
responsi bility</w>
fi cient</w>
frequ ency</w>
cau sing</w>
og a</w>
ol i</w>
i to
oper ational</w>
E vol
hi bit</w>
Re al</w>
mam m
offen sive</w>
et ta</w>
em en</w>
R ab
Po int</w>
it z</w>
19 15</w>
op tion</w>
ma kers</w>
sa tis
S ho
pre ad</w>
nor man</w>
lu x
mor t
evol utionary</w>
as sin
licen se</w>
19 16</w>
us ter</w>
sett lements</w>
cous in</w>
On ce</w>
attrac ted</w>
success or</w>
bloc ks</w>
rapi dly</w>
ri ding</w>
G allery</w>
ph ra
u tah</w>
N ick</w>
15 0</w>
qu anti
N FL</w>
dec ides</w>
p g</w>
pati ent</w>
guil ty</w>
Sec urity</w>
restor ation</w>
ma ss
syn thesis</w>
f eat</w>
é s</w>
the atre</w>
ra j
ban ded</w>
pho tos</w>
d ell</w>
si mul
cur y</w>
nav ig
chi at
D anish</w>
Cul tural</w>
ea u</w>
legisla ture</w>
Hous ing</w>
D al
R ay</w>
st ac
bor ders</w>
sugge sts</w>
Edin burgh</w>
es c
k s
Chap ter</w>
S ite</w>
brea ks</w>
ali zing</w>
depen ding</w>
r u</w>
Col orado</w>
fil ed</w>
e z
susp ended</w>
i o
In dex</w>
ph on
ver te
sa il
func tional</w>
Execu tive</w>
19 23</w>
stu dying</w>
p it</w>
fre derick</w>
comm emor
princip les</w>
du al</w>
show ing</w>
eg a</w>
ed o</w>
man 's</w>
ha us
19 13</w>
certi fied</w>
mur ray</w>
norm ally</w>
ne o</w>
col leges</w>
o bli
v essels</w>
wi des
Su preme</w>
main tain</w>
histor ian</w>
cl one</w>
strong ly</w>
du m</w>
pro jec
spea ker</w>
enter ing</w>
ti de</w>
Premi er</w>
cri ticism</w>
Econom ic</w>
great ly</w>
L eb
missi ssippi</w>
ov ic</w>
col ony</w>
th ompson</w>
t é</w>
v ement</w>
t ing
em ig
monas tery</w>
li mit</w>
Fre derick</w>
a issance</w>
hi bit
ca ve</w>
pan el</w>
mp tion</w>
h att
pro test</w>
schol ars</w>
fic tional</w>
A D</w>
s field</w>
Med al</w>
edin burgh</w>
is sa</w>
L E
ru ption</w>
re ven
c 's</w>
trea ty</w>
Revi ews</w>
other wise</w>
mir al</w>
un usual</w>
n u</w>
fund ed</w>
assi stance</w>
shop ping</w>
ch ich
En ergy</w>
si te
r in</w>
consider able</w>
be ar
Ok lahoma</w>
f ung
up date</w>
ali ze</w>
lin d
v ec
li ms</w>
cover ing</w>
s ors</w>
si ght</w>
associ ate</w>
contin ental</w>
En cyclopaedia</w>
ini st</w>
D eu
every one</w>
ann on</w>
m organ</w>
fer ences</w>
cap it
thre at</w>
enzy me</w>
th al</w>
cl er
tribu tary</w>
com pla
extre me</w>
ver lag</w>
christ mas</w>
ap p</w>
hun t</w>
di er</w>
stan ts</w>
keep ing</w>
beau ty</w>
hor n</w>
sy mp
Christ mas</w>
ap art</w>
my th
manufac tured</w>
dec line</w>
tran s</w>
coach ing</w>
co l</w>
n one</w>
sc and
ci st</w>
ten ance</w>
ru m
ge or
ti les</w>
on ym
A P</w>
ac a</w>
bu l</w>
b und
ond a</w>
univer se</w>
trav eled</w>
rapi d</w>
po em</w>
popu lations</w>
tro phy</w>
en han
um bai</w>
rac ks</w>
nan dez</w>
bas sy</w>
j ane</w>
cli f
Sci enti
Egy pt</w>
ag an</w>
S om
form ers</w>
Il lu
B ad
An n</w>
Ro ss</w>
a in
k op
th y
pre domin
leg islation</w>
common wealth</w>
activ ated</w>
eg gs</w>
cri tic</w>
l incoln</w>
k ha
h ed
I ni
ob itu
k la
ani mated</w>
T ha
li te
ar rest</w>
Pri me</w>
a il</w>
hel icop
Spr ing</w>
arri val</w>
ro cks</w>
t ter
A y
Tem ple</w>
pione er</w>
m ack
V is
extinc t</w>
il ers</w>
cer am
mov ements</w>
ere my</w>
5 000</w>
chann els</w>
ge e</w>
cas h</w>
at on</w>
e o
ac ci
ri ver
eb rew</w>
ch ari
allow ing</w>
im m
que bec</w>
li sting</w>
B and</w>
t ron</w>
t sch
cor respond
figh ters</w>
D E
vir tual</w>
re venue</w>
i i</w>
spr ings</w>
c ester</w>
e .
f us
M ea
pat terns</w>
ur us</w>
gu ez</w>
it i</w>
main tenance</w>
kilomet res</w>
Bec ause</w>
v s</w>
te m</w>
el ement</w>
y ear
no tic
Legisla tive</w>
summ it</w>
ran ks</w>
ves sel</w>
ste ven</w>
en ess</w>
hi st</w>
f led</w>
vo ting</w>
S I
birth day</w>
hel m</w>
se ek</w>
hun ting</w>
child ren's</w>
gra ded</w>
del e
er ie</w>
Fu ture</w>
Auth ority</w>
bar bara</w>
F ul
b re</w>
Swit zerland</w>
an te
Don ald</w>
Ste ven</w>
plat forms</w>
der ing</w>
wh ere
la di
N elson</w>
fri ed
h ori
L incoln</w>
sh oot</w>
el ds</w>
Tok yo</w>
go al
ff s</w>
ra ising</w>
ci ple</w>
ex ists</w>
gradu ation</w>
repu tation</w>
by cidae</w>
S on
kn ight</w>
de t</w>
defen ding</w>
te t</w>
in ter</w>
ten ing</w>
con ce
frequ ent</w>
N ag
sh ol
deta iled</w>
Bar bara</w>
Th rough</w>
o h</w>
characteri zed</w>
Collec tion</w>
to kyo</w>
190 5</w>
gu er
fac ing</w>
transi t</w>
Americ ans</w>
ne il</w>
i ff</w>
trans mission</w>
influ ential</w>
fin ding</w>
Ro se</w>
per haps</w>
y ar
in nings</w>
Web site</w>
do l</w>
tum n</w>
con text</w>
F .C</w>
o e</w>
N E
h l
ma ine</w>
an apolis</w>
I denti
Dem ocra
u ra
w eigh
Up on</w>
lin ear</w>
mean while</w>
le an</w>
E ag
scop e</w>
Sto ck
G rant</w>
H ere</w>
is che</w>
ti ous</w>
q i</w>
fav or</w>
2 3
R ad
ra id</w>
Direc tory</w>
at lanta</w>
americ ans</w>
s op
divor ced</w>
gar ia</w>
N eu
oul der</w>
ad ams</w>
E mer
ev ille</w>
Sy stems</w>
sk ating</w>
K ent</w>
des ert</w>
tun nel</w>
grand father</w>
e b</w>
swit zerland</w>
v als</w>
rec overed</w>
sculp ture</w>
C ape</w>
cap able</w>
An d
w al</w>
survi ving</w>
W he
tra ded</w>
re leg
wal king</w>
can not</w>
tin um</w>
ati a</w>
ju ris
comple tion</w>
L ong
st ats</w>
I mp
si mu
peti tion</w>
down load</w>
E sti
ass ault</w>
c i</w>
dra wing</w>
p uni
Common wealth</w>
Nor man</w>
shi p
antoni o</w>
B e</w>
don 't</w>
identi fication</w>
su gar</w>
fil l</w>
ev il</w>
K ol
co ol
bor o</w>
ali ve</w>
peri or</w>
Princ eton</w>
g el
Ad ams</w>
o to</w>
olog ists</w>
g ab
fres h</w>
S ound</w>
u lum</w>
f l
appear ing</w>
Stand ard</w>
ab road</w>
accomp li
wides pread</w>
b es
Mur ray</w>
re mo
A T</w>
N Y</w>
way ne</w>
phen om
gradu ally</w>
massi ve</w>
be ars</w>
Y ou
ch ment</w>
ther more</w>
TH E</w>
li ga</w>
sing h</w>
far mers</w>
electri cal</w>
descen d
princ eton</w>
R ace</w>
ch y</w>
d ag
rea ches</w>
hous ed</w>
d allas</w>
ra ise</w>
de e</w>
a z</w>
te sted</w>
sk et
hu gh</w>
fil ming</w>
teri al</w>
Ro binson</w>
increas es</w>
pun k</w>
bas in</w>
po pe</w>
le k
ex po
si as
Au stria</w>
mechan ical</w>
al lo
alg ori
st ric
du s</w>
don ated</w>
appar ently</w>
em bar
strugg le</w>
me etings</w>
arri ves</w>
sm oo
ri val</w>
portra it</w>
rep ren
pro posal</w>
Univer si
occa sions</w>
indi genous</w>
Sy n
dep th</w>
Camp bell</w>
H L</w>
a g</w>
vo y</w>
gom ery</w>
S hu
hun ter</w>
over view</w>
x i</w>
tam il</w>
R ho
Poli tics</w>
dea ths</w>
to ol</w>
th es</w>
