the 89062278
. 80905012
of 53642070
, 47336948
in 39512862
and 35379656
a 31461699
to 24455644
twenty 18946274
is 17731360
was 17593987
on 14632521
two 13903332
The 11627737
for 11338086
by 9376835
as 9345102
nineteen 9032331
thousand 8812833
one 8442038
with 7882236
from 7861397
at 7688628
s 7532681
an 7052115
o 6933124
retrieved 6930002
he 6873280
Retrieved 6846942
p 6598731
i 6536734
's 6534542
: 6502190
t 5780065
his 5539492
it 5397986
e 5160389
are 5133497
three 4991230
d 4750774
c 4624584
hundred 4559316
first 4464422
five 4423802
four 4314335
that 4302848
nine 4301200
were 4285264
m 4252726
re@@ 4183388
S@@ 4177423
eight 4170676
n 4124391
k@@ 3994854
six 3988658
seven 3973647
in@@ 3878975
also 3777089
l 3721824
u 3649459
has 3525569
d@@ 3510358
s@@ 3495529
or 3411762
ninety 3318825
k 3226497
b 3156983
this 3105245
o@@ 3088419
ed 3063329
t@@ 3048276
In 3035792
be 2975180
new 2949223
y@@ 2933746
r 2926233
f 2829559
es 2819130
T@@ 2811458
g@@ 2800128
y 2776210
B@@ 2771726
b@@ 2756373
ten 2748414
C@@ 2748273
He 2713177
h 2711529
P@@ 2703210
en@@ 2691009
fifteen 2610397
er 2604873
i@@ 2599466
g 2576542
ing 2568673
L@@ 2563261
its 2548436
- 2532751
p@@ 2532203
n@@ 2531157
al@@ 2516164
e@@ 2511602
an@@ 2510045
A@@ 2494799
al 2492521
fourteen 2480866
eighty 2458460
M@@ 2451173
had 2436314
twelve 2417156
u@@ 2409281
ts 2399101
thirteen 2396796
ra@@ 2390472
de 2388769
h@@ 2388371
H@@ 2366461
G@@ 2362815
D@@ 2360217
F@@ 2336137
c@@ 2323321
N@@ 2311874
f@@ 2305103
z@@ 2294232
li@@ 2283254
eleven 2274852
K@@ 2251521
ch@@ 2243567
E@@ 2218954
di@@ 2194670
ar@@ 2190724
It 2175428
thirty 2172108
R@@ 2150017
er@@ 2114091
2015 2108959
sh@@ 2101721
la@@ 2097698
2014 2086494
their 2082160
her 2077494
ro@@ 2068852
not 2042864
may 2041242
ri@@ 2015706
second 2014939
seventy 2012202
which 1992470
W@@ 1977374
1 1972010
a@@ 1967391
ers 1951790
ti@@ 1951523
have 1944418
2013 1937296
en 1927691
m@@ 1924426
am@@ 1910050
she 1901693
st 1897674
after 1889113
v@@ 1887491
2012 1886197
v 1883263
eighteen 1876500
el@@ 1871451
un@@ 1870758
original 1869326
all 1863149
sixty 1862447
forty 1856252
fifty 1853301
w@@ 1853114
O@@ 1824867
si@@ 1820546
or@@ 1792294
j@@ 1779020
they 1764653
2011 1763190
; 1754381
con@@ 1749796
th 1744646
I@@ 1739344
been 1734386
ted 1733927
2 1729826
point 1722503
es@@ 1707446
time 1685546
but 1674925
2010 1631992
th@@ 1612215
w 1608604
on@@ 1604326
l@@ 1594872
man 1590778
le@@ 1585642
is@@ 1577289
as@@ 1548320
New 1535965
march 1532916
x 1528911
ad@@ 1528857
de@@ 1528220
january 1528139
son 1525195
ation 1521447
lo@@ 1514808
st@@ 1507104
ma@@ 1504269
born 1500616
third 1494875
3 1494821
at@@ 1487968
there 1483114
us 1463271
into 1454717
who 1448646
october 1448623
november 1440743
july 1439491
over 1427185
March 1421801
January 1419576
june 1419455
tion 1410296
other 1405695
august 1404498
A 1390272
december 1386178
april 1385272
september 1383712
ting 1383258
te@@ 1383177
school 1380465
el 1376603
May 1371753
V@@ 1370692
age 1369448
4 1365741
ter 1360390
July 1359364
et 1354272
up 1350634
ate 1345997
October 1343203
J@@ 1335973
June 1332989
february 1326299
mar@@ 1325740
se@@ 1317967
August 1314106
national 1309372
April 1300159
years 1291930
September 1290856
December 1287442
5 1286632
November 1281408
can 1279554
le 1279390
co@@ 1279293
year 1279160
more 1264116
fourth 1261834
ag@@ 1260512
city 1259195
z 1256563
ic 1245905
ab@@ 1241944
der 1240903
out 1239023
te 1235334
ac@@ 1226492
February 1226283
university 1225167
ton 1224249
mo@@ 1223849
family 1223015
to@@ 1214029
2009 1205377
during 1201624
em@@ 1195363
ds 1192927
sp@@ 1181114
om@@ 1179476
j 1176894
used 1170636
6 1167823
r@@ 1167690
state 1167672
ta@@ 1165459
car@@ 1156466
ch 1155251
fifth 1147731
pro@@ 1144446
se 1142925
po@@ 1133462
au@@ 1130451
only 1130449
7 1129388
ine 1122339
world 1115182
be@@ 1113880
most 1113264
ly 1111161
ex@@ 1107573
University 1106444
vi@@ 1106027
film 1101697
became 1099717
im@@ 1095555
sixth 1095220
about 1093827
ne@@ 1086491
population 1081706
ia 1081436
per@@ 1080327
later 1078667
8 1074531
land 1067763
when 1064283
ent 1061458
seventh 1061184
2008 1057049
& 1055680
.@@ 1051199
9 1050042
eighth 1049825
red 1045274
pe@@ 1043879
op@@ 1043839
This 1040577
ic@@ 1034356
king 1030752
then 1028244
su@@ 1017394
ap@@ 1015915
-- 1013899
made 1013206
ha@@ 1009255
ninth 1004867
him 1002088
In@@ 998760
man@@ 995423
part 987787
some 986343
ke 985211
sixteen 984064
released 980874
x@@ 977478
known 976725
als 975889
team 975206
sa@@ 973427
per 971422
fi@@ 970960
no 967658
tions 966909
gu@@ 965562
bo@@ 964396
it@@ 957697
U@@ 955217
par@@ 953611
album 953224
ans 951643
between 949239
ru@@ 948570
sil 945253
qu@@ 944106
2007 940782
york 939285
ur@@ 938807
10 931253
Y@@ 929936
bu@@ 928496
many 927437
mi@@ 925403
press 921821
no@@ 920837
Re@@ 918095
tes 908029
National 907899
tri@@ 907589
il@@ 902780
Ch@@ 899789
than 899121
ed@@ 894333
bi@@ 893173
well 893068
20 891060
ph@@ 889788
ol@@ 889679
through 888382
ci@@ 887230
played 885062
ter@@ 884548
ber@@ 884388
day 881105
me@@ 879368
these 877867
ig@@ 875735
times 867009
um 864128
town 860753
ated 860507
music 859001
ks 858193
history 856951
ty 855840
lu@@ 855157
pi@@ 853550
under 852178
2006 851466
ak@@ 850059
Mar@@ 846507
located 844986
bar@@ 842445
ry 838659
tra@@ 835834
season 835681
pa@@ 835565
area 829478
ge@@ 829428
dis@@ 828833
ni@@ 828244
les 825530
where 825012
people 824335
ar 817502
pre@@ 816666
name 815314
would 813953
ding 813286
12 812729
Z@@ 812362
York 811357
archived 808024
ters 804712
har@@ 800901
tive 800547
Press 798151
united 797326
mon@@ 796970
oc@@ 796349
ley 794270
res 792115
Al@@ 791374
Con@@ 791087
ten@@ 789069
15 788779
Archived 788599
company 787065
number 785882
ons 785430
11 781035
tic 778232
du@@ 778077
died 775715
ve 775432
states 774696
until 773308
work 773142
census 773022
et@@ 771504
high 771370
Ar@@ 770333
both 768988
ca@@ 765610
ver@@ 764934
sch@@ 760679
min@@ 759571
way 758081
won 757829
United 757706
series 755139
An@@ 753907
/ 753893
ste@@ 753625
18 752742
do 751922
ous 750049
house 747806
species 746079
will 744912
ir@@ 742984
county 738047
war 731927
ul@@ 731704
now 731645
lan@@ 727980
3@@ 726604
able 725223
inter@@ 724256
hi@@ 724242
14 724179
ant 723929
19 723451
line 723107
dot 722541
cor@@ 721074
tu@@ 720426
16 719954
30 718437
13 717262
ally 716446
ta 716245
ings 715507
south 710951
am 709479
field 709404
re 709071
station 707374
group 704999
several 704627
She 702880
ang@@ 702878
com@@ 701674
la 700702
17 700298
for@@ 700247
ard 699149
district 698950
found 698912
ary 697629
é@@ 697304
since 693333
25 693277
before 693070
ded 692978
ep@@ 691729
co 688518
gra@@ 684434
old 683756
On 683321
da@@ 682650
back 682271
called 681119
american 681113
game 679243
began 679047
col@@ 678983
based 677850
named 676461
ations 675302
American 674997
end 673422
21 673325
I 672412
sion 672212
ana 671813
World 671262
early 669940
da 666760
pu@@ 666745
ou@@ 665047
ing@@ 664044
og@@ 663620
ler 661982
ec@@ 661038
use 659522
ov@@ 655920
ce 655032
der@@ 653536
22 652545
against 652036
sc@@ 649859
village 649669
24 649414
north 649014
system 644122
ow@@ 644094
however 643349
ner 642209
public 640647
sub@@ 640234
led 640036
such 636645
tor 636631
Sh@@ 636054
Ro@@ 634173
international 633120
os 633050
23 631676
ev@@ 630731
and@@ 630603
them 629240
being 627754
sts 625931
while 624978
mu@@ 624363
ker 624058
um@@ 623997
ps 622579
eleventh 621848
ga@@ 619194
ology 618608
26 618562
il 618431
place 618335
28 617515
cu@@ 617138
ge 617110
percent 616941
home 616684
4@@ 615550
ran@@ 614892
war@@ 614391
ys 613632
States 611466
ka 611328
off 611252
gi@@ 608952
each 607118
ins 606362
27 605954
des 604852
set 603486
wi@@ 601800
Car@@ 599264
ble 598304
ali@@ 598266
1@@ 595961
life 594165
ent@@ 593980
sk@@ 593681
service 592679
book 590932
Ma@@ 590463
go@@ 590333
ling 590207
do@@ 589739
S 589005
he@@ 587501
twentieth 586613
side 585724
former 583625
29 583003
member 581766
hu@@ 581513
av@@ 581454
song 581380
built 580765
ay@@ 579869
west 578011
Pro@@ 577164
den@@ 577011
nineteenth 576599
res@@ 575779
na@@ 575375
ren@@ 575335
tenth 573511
band 572998
ob@@ 572607
ba@@ 572321
art 571556
seventeen 568773
rec@@ 568354
John 567711
id@@ 566049
ju@@ 565631
fifteenth 564684
E 564368
ho@@ 563640
john 563592
any 562845
PDF 562656
bri@@ 562572
ses 562366
served 562331
bra@@ 562142
received 560466
wa@@ 560381
ating 558827
including 557816
all@@ 557378
same 556716
2005 556235
took 554873
fe@@ 553829
government 552812
club 552759
twelfth 552756
ies 551565
eighteenth 550874
so 549942
Times 548954
held 548397
ance 547763
ents 546679
very 546162
ties 545374
mer@@ 544935
They 544649
seventeenth 543077
sta@@ 542406
C 542119
ian 541356
ves 540723
published 538885
sixteenth 538298
ay 538076
ven@@ 536912
fourteenth 536901
ale 536882
ship 536442
single 535648
% 533148
ck 533078
thirteenth 532994
building 532992
football 532592
century 531887
eg@@ 531582
can@@ 528218
ea@@ 527622
os@@ 527303
jo@@ 526931
London 526136
D 524833
center 524819
ang 523387
ra 522318
london 521118
af@@ 520849
ne 520621
T 520576
ment 520534
following 520406
million 520362
long 519912
church 518736
tor@@ 518371
ence 517921
ey 516878
show 514946
around 514793
gen@@ 514051
eb@@ 512948
pen@@ 511508
top 510667
dy 510506
2004 509724
2016 508757
late 507871
ma 506696
the@@ 506198
sen@@ 505822
her@@ 505216
news 503117
tation 501874
square 501281
sh 501202
id 499076
pri@@ 498792
married 497939
5@@ 497052
like 495879
last 494650
ie 494107
left 493595
east 492371
so@@ 491868
local 491027
School 490323
college 489885
His 488759
did 488450
play 487302
Su@@ 485341
State 484999
Mo@@ 484735
down 484688
water 484353
best 484126
ford 483680
Th@@ 483062
17@@ 483026
ms 482736
2000 482533
ked 482034
dollars 480723
general 480547
thirtieth 480511
2@@ 480064
us@@ 479572
league 479426
M 478873
final 476201
del@@ 476132
ina 475951
R 475898
ors 475811
small 474978
Gu@@ 474404
men 473871
fer@@ 473806
gh@@ 473585
There 473551
18@@ 472142
own 471849
oo@@ 469410
go 467645
8@@ 465529
Par@@ 465260
lin@@ 465002
main 463835
0@@ 461973
7@@ 461859
death 461746
$ 459693
bur@@ 459596
As 459137
ham 458952
form 458394
den 457532
park 457165
ill@@ 456788
games 456401
ari@@ 456392
6@@ 456093
P 453009
sed 451483
Li@@ 451455
office 450731
und@@ 450623
na 449929
still 449194
After 449154
moved 449012
include 447780
children 447482
law 446529
ya 446279
another 446167
official 445927
Bar@@ 445800
B 444963
ke@@ 444632
ice 444308
information 442311
over@@ 442206
we@@ 440068
out@@ 439937
site 439663
pla@@ 439612
community 438779
player 438221
History 437015
ens 436995
department 436507
est@@ 436335
ber 436306
dec@@ 436277
members 435889
31 434915
career 434493
Ex@@ 430113
major 429891
De@@ 428692
fin@@ 427338
ell@@ 426708
fa@@ 426469
list 426454
under@@ 424982
2003 423072
election 422312
started 422095
ach@@ 421520
often 421376
Com@@ 421283
ai@@ 418731
again 418378
our 417664
10@@ 417624
shi@@ 415786
9@@ 415484
tt@@ 414255
large 413897
ir 413340
dra@@ 413172
air 412228
ire 412123
men@@ 411632
me 411360
/@@ 410454
Jo@@ 410097
ser@@ 409581
Bo@@ 409552
within 409283
average 409140
ani@@ 409122
iv@@ 409017
pp 408387
gar@@ 408081
Mon@@ 407762
near 407362
Le@@ 407146
Sch@@ 406070
students 405687
St@@ 404833
For 404348
Har@@ 403285
less 401122
win 400765
ism 400364
saint 400116
hy@@ 399910
father 399491
head 399416
ass@@ 399004
City 397311
At 397291
tw@@ 396240
Per@@ 395663
version 395444
river 395436
tors 395280
ster 394054
South 393759
2001 393758
0 392708
different 391805
Co@@ 391651
road 390744
2002 390432
included 389908
ef@@ 389803
berg 389330
business 389219
ments 389127
comp@@ 388995
race 388634
review 388448
see 388199
every 387976
ell 387850
currently 387142
ics 387142
ders 386782
went 386612
L 386310
bel@@ 386197
F 386033
joined 385710
ns 385493
Bu@@ 384399
Di@@ 383708
record 383415
ger 382431
ty@@ 381334
power 381054
vo@@ 380206
ory 380186
mor@@ 380163
party 379997
ines 379396
release 379241
dem@@ 379168
az@@ 378766
County 378655
International 378502
development 378421
founded 377967
tic@@ 376978
produced 376576
ck@@ 374516
ical 374460
di 374416
due 373877
sis 373662
elected 373634
ly@@ 373544
along 373040
O 372672
sing 372612
ston 372556
ver 372037
que 371383
Ju@@ 370893
non 370692
research 370142
established 370011
western 369287
title 368533
J 368305
ft 368019
written 367718
education 367519
16@@ 366881
next 366385
opened 366378
mat@@ 365954
post 365518
could 365447
end@@ 364165
News 362406
por@@ 361815
program 361630
country 361487
Be@@ 361367
trans@@ 361133
works 360801
media 360321
Me@@ 360212
bal@@ 360168
ture 359328
char@@ 359066
returned 358086
ise 357402
q 357073
ls 356773
X@@ 356700
eng@@ 355912
Census 354624
app@@ 354539
sal@@ 354501
central 354480
ric@@ 354123
story 354008
Au@@ 353287
ess 353011
cy@@ 352105
region 351058
Vi@@ 350981
Bi@@ 350940
ator 350923
video 350817
rac@@ 350762
kilometers 350224
All 349784
ces 349748
mal@@ 349739
ure 349714
Ra@@ 349614
historic 349583
ned 347537
ze 347301
sions 347066
books 346916
ori@@ 346806
tur@@ 346083
ah 345890
president 345358
board 344554
ong 343881
ry@@ 343738
via 343643
great 342197
inc@@ 341917
order 341841
ore 341689
tical 341688
els 341665
days 341319
british 341238
ess@@ 341002
association 340947
class 340878
Lu@@ 340855
production 340822
cal@@ 340388
British 339800
uni@@ 339590
War 339415
ann@@ 339156
worked 339147
ce@@ 338963
wor@@ 338932
ville 338277
light 338191
s' 338184
wood 338129
Po@@ 337619
tan@@ 337571
Col@@ 337329
hol@@ 336893
cla@@ 336419
low 335697
formed 335660
california 335536
came 335198
pal@@ 335111
However 335052
continued 334948
using 334733
white 334242
television 333931
up@@ 333322
lar 333162
among 332732
wh@@ 332642
live 332463
ness 332237
society 332027
inc 331943
appeared 331903
ko@@ 331767
role 331758
ning 331614
signed 331234
N 330688
sive 330666
ham@@ 329609
ther 328805
income 328306
oli@@ 327525
-@@ 327356
if 326973
women 326881
tro@@ 326820
tional 326492
ok@@ 326238
my 326137
clo@@ 325167
eu@@ 324833
tics 324188
ement 324071
ther@@ 324040
star 323636
ches 323466
br@@ 323017
Ad@@ 322776
right 322775
ung 322442
division 322284
dri@@ 322248
Se@@ 322239
nor@@ 321980
just 321875
stra@@ 321848
sen 321474
15@@ 320802
mc@@ 320401
free 320279
car 320116
Tra@@ 319993
services 319913
ger@@ 319760
size 319757
pan@@ 319496
full 319305
radio 319052
round 318908
human 318587
level 317996
said 317917
project 317713
available 317039
tt 316430
ro 315992
ban@@ 315829
bro@@ 315188
ki 315072
journal 314890
Mc@@ 314690
Gra@@ 314571
bre@@ 314395
ats 314228
ki@@ 314040
award 313930
website 313863
david 313606
take 313451
open 313411
various 313292
David 312700
ological 312667
los 312583
mer 311464
air@@ 311444
ash@@ 310790
because 310440
bor@@ 310436
For@@ 310215
ants 309923
ss@@ 309674
pe 308913
ath@@ 308874
chi@@ 308533
become 308473
total 308416
tin@@ 308318
ah@@ 308240
India 307962
tel@@ 307606
ff@@ 307423
run 306671
North 305902
stone 305751
much 305740
ve@@ 305682
recorded 305669
described 305626
we 305459
est 305241
median 305132
of@@ 304385
what 304256
lation 304153
director 303887
black 303585
pres@@ 303537
make 303322
island 303310
cre@@ 303274
table 303109
Ber@@ 303091
sw@@ 303056
register 302835
created 302232
india 301993
lost 301572
hor@@ 301434
G 300336
sur@@ 300050
za 299771
cri@@ 298983
you 298889
short 298307
ad 298198
even 298140
1999 297921
Hu@@ 297709
science 297598
ality 297571
popular 297361
50 297192
ates 296823
mark 296635
results 296018
sa 295246
kar@@ 294595
san 294503
port 294190
political 293962
shed 293663
support 293457
ade 293090
military 293081
ration 292917
online 292610
act 292209
council 292069
edi@@ 292060
cra@@ 292017
ba 291833
position 291454
fran@@ 291021
rer 290813
ick 290550
accessed 290400
language 290145
professional 290096
fla@@ 289972
ben@@ 288626
don@@ 288348
ils 287934
court 287629
pol@@ 287596
bs 287557
Ste@@ 287552
Bri@@ 287530
En@@ 287361
union 286975
ick@@ 286939
wife 286816
ane 286366
german 286310
189@@ 285972
common 285464
od@@ 285291
Park 284952
period 284676
young 284295
fre@@ 284292
let 283986
German 283739
appointed 283655
tom@@ 283582
rock 283486
ill 283367
announced 283078
body 282975
page 282528
ka@@ 282384
are@@ 282248
municipality 282113
report 281685
army 281565
ond@@ 281505
sold 281282
str@@ 281260
far@@ 281258
U.S. 281211
Register 281122
College 280582
ron@@ 280577
given 280288
lem@@ 280253
magazine 280039
Qu@@ 279811
ative 279793
street 278852
bla@@ 278738
families 278517
1998 278290
del 277966
Pri@@ 277911
han@@ 277625
Department 277426
sports 277352
cro@@ 277295
cur@@ 276469
100 276125
cam@@ 276081
Cor@@ 276042
eastern 275593
data 275390
ity 275269
tar@@ 275170
é 274906
tru@@ 274619
Sa@@ 274569
ama 273781
Bra@@ 273592
songs 273518
design 273271
current 273181
cat@@ 272787
son@@ 272708
enti@@ 272384
No@@ 272192
get 272190
cas@@ 272052
schools 271421
event 271401
without 271077
spec@@ 271030
ISBN 270730
case 270612
tim@@ 269981
stri@@ 269894
important 269870
ew@@ 269737
by@@ 269651
mother 269544
M. 269346
ha 269313
french 269190
cop@@ 269146
ney 268727
Or@@ 268645
zero 268584
zed 268410
fu@@ 268368
League 268261
ist 268151
ery 268008
type 267861
From 267858
French 267759
sea 267667
US 267566
Un@@ 267338
Am@@ 266983
lo 266859
II 266333
females 266192
James 265573
social 265488
lea@@ 265454
disc@@ 265278
places 265109
those 265105
Association 265095
uses 264825
ku@@ 264812
ili@@ 264759
yer 264726
ase 264618
james 264566
lies 264503
zi@@ 264413
sti@@ 264037
debut 263906
a's 263670
considered 263629
night 263212
gre@@ 263143
museum 263138
half 263072
control 262965
style 262914
developed 262788
wal@@ 262656
never 262622
ong@@ 262600
names 262540
force 262526
super@@ 262328
english 262310
volume 262244
H 262109
arch@@ 262082
range 261962
teams 261960
ways 261461
J. 261432
TV 261201
fire 260814
14@@ 260791
ving 260787
English 260769
ended 260224
1990 260156
pra@@ 260098
rou@@ 260013
features 259864
An 259743
edition 259735
ran 259338
ja 258928
listed 258886
modern 258803
cap@@ 258584
ut@@ 258541
daughter 258497
hall 258486
La@@ 258445
lar@@ 258087
eds 257848
few 257787
zation 257699
daily 257495
Australia 257373
ot 257130
mac@@ 257064
my@@ 256733
comm@@ 256707
records 256628
eli@@ 256475
ars 255908
House 255806
K 255568
miles 255551
date 255524
y's 255485
Hol@@ 255431
library 255022
bas@@ 254869
once 254676
These 254633
championship 254147
rate 254053
ages 253854
hel@@ 253699
don 253667
One 253232
construction 252994
william 252163
Journal 252018
District 251798
During 251225
van 251198
Fin@@ 251126
term 251078
does 251035
Ge@@ 250944
genus 250897
ved 250772
awards 250654
route 250302
pp@@ 250242
track 250147
episode 249980
Si@@ 249798
ss 249678
sm@@ 249567
dar@@ 249489
England 249383
originally 249380
working 249298
ton@@ 249241
William 249188
Mu@@ 248805
article 248714
Mor@@ 248122
includes 248091
ken@@ 247962
our@@ 247927
cy 247904
ths 247770
here 247723
fac@@ 247714
together 247414
1997 247410
cing 247238
Company 247081
wrote 246888
sec@@ 246830
how 246573
summer 246199
188@@ 246150
Ac@@ 246121
northern 246066
southern 246062
alist 246005
00 245861
tem@@ 245810
australia 245750
ca 245734
england 245305
brother 245204
din@@ 245126
Her@@ 245080
special 244855
areas 244843
completed 244539
West 244521
des@@ 244330
killed 244254
kes 244146
ak 244047
present 243937
ear@@ 243891
ur 243873
match 243715
C. 243685
network 243679
vari@@ 243554
du 243452
cen@@ 243398
ever 243360
val@@ 243019
playing 242558
usually 242558
speci@@ 242450
n't 242243
ite 242186
13@@ 242000
largest 241969
historical 241893
Society 241639
robert 241421
ff 241224
dae 241103
ore@@ 240942
Robert 240308
win@@ 240064
meters 239965
units 239726
W 239544
gri@@ 239365
ano 239166
ara 239066
ant@@ 238981
ington 238976
sky 238951
190@@ 238701
stage 238691
dev@@ 238671
test 238644
bat@@ 238573
ti 238441
ich 238307
tal@@ 238296
1996 238179
die 238142
ko 238142
ged 238108
ile 237596
performed 237159
come 237062
Dis@@ 236876
good 236857
railway 236643
attended 236534
throughout 236529
tre@@ 236335
ish 236019
space 236002
pat@@ 236000
further 235931
sla@@ 235824
Mal@@ 235558
tin 235218
san@@ 235142
institute 234938
hal@@ 234717
Music 234640
tour 234599
ron 234523
ena 234380
Pal@@ 234335
'@@ 234329
ica 234328
emb@@ 234244
Ru@@ 234094
study 234040
mil@@ 234009
change 233879
away 233737
making 233693
directed 233586
ja@@ 233551
qui@@ 233454
lead 233313
und 233197
designed 233112
plan@@ 232836
U 232703
Du@@ 232002
shire 231997
structure 231937
owned 231835
finished 231708
gener@@ 231091
tion@@ 230681
studies 230597
remained 230412
males 230411
vic@@ 230238
Pi@@ 230198
australian 230109
inf@@ 229667
republic 229545
police 229224
Australian 229196
result 228885
michael 228786
burg 228721
addition 228652
2.@@ 228424
ying 228131
lie 227922
bul@@ 227791
lines 227640
plant 227601
points 227472
kn@@ 227333
love 227329
similar 226896
ani 226769
X 226646
1995 226378
coach 226339
ino 226298
health 226119
ski 226108
ined 225673
Wil@@ 225546
len@@ 225476
eventually 225384
ala 225209
bridge 225179
sy@@ 225030
ones 225009
Bur@@ 224929
America 224869
ground 224796
med 224569
section 224476
wil@@ 224423
mile 224388
coun@@ 224378
washington 224366
Michael 223927
ga 223900
taken 223893
ability 223878
forms 223768
mann 223756
A. 223746
himself 223638
ear 223500
added 223397
hom@@ 223396
loc@@ 222742
lake 222717
High 222635
royal 222604
ful 222455
events 222301
awarded 222293
featured 222288
limited 222199
ker@@ 222081
thy 222056
Man@@ 221906
training 221792
lated 221719
Mi@@ 221718
By 221625
according 221471
sol@@ 221372
tered 221261
acc@@ 221161
today 221109
era 220230
little 220040
olog@@ 219747
om 219518
200@@ 219307
Ver@@ 219202
cal 219050
les@@ 219044
va 219039
publishing 218826
players 218695
sel@@ 218594
nam@@ 218576
density 218064
Republic 217911
active 217766
sting 217736
row 217640
battle 217484
week 217417
dic@@ 217391
replaced 217118
ist@@ 217075
sin@@ 216852
.com 216444
natural 216403
Information 216390
Bro@@ 216369
organization 216365
nu@@ 216239
novel 216167
ced 215893
ships 215880
fication 215828
General 215536
ine@@ 215459
sil@@ 215436
ere 215263
fied 215236
dro@@ 215044
Historic 215006
cru@@ 215005
dan 214980
aircraft 214951
dy@@ 214550
mid 214547
Ne@@ 214355
having 214316
green 214213
186@@ 214098
bert 213876
ren 213775
model 213760
40 213732
mel@@ 213655
Wor@@ 213596
arian 213378
must 213278
independent 213258
ond 213178
ata 213093
character 212861
feet 212743
plays 212372
amp@@ 212245
Fi@@ 212036
q@@ 211973
tly 211941
Service 211937
Pe@@ 211689
lin 211557
stu@@ 211552
put 211545
che@@ 211417
? 211343
illi@@ 211285
cli@@ 211134
shes 211097
land@@ 211038
soon 210809
gen 210711
yn@@ 210686
rest 210652
successful 210607
ack 210234
When 210166
systems 210063
hon@@ 210045
Ba@@ 209775
El@@ 209775
industry 209722
cel@@ 209501
reg@@ 209414
Nor@@ 209390
teri@@ 209317
base 209314
annual 209256
private 209132
ges 209040
zz@@ 208934
1994 208744
mis@@ 208689
ald 208539
lic@@ 208431
ll 208369
oni@@ 208236
Sta@@ 208173
R. 208135
seen 207976
changed 207686
movie 207656
america 207335
oun@@ 207126
others 207048
bility 207008
aw@@ 206986
tran@@ 206849
Washington 206790
sent 206767
dom@@ 206575
Cam@@ 206463
bureau 206411
wide 206410
Canada 206207
tures 206205
ack@@ 206179
key 206060
ser 205811
ched 205616
gam@@ 205596
Gar@@ 205184
Min@@ 205180
Can@@ 204878
S. 204324
hi 204131
wing 204105
oxford 203908
performance 203908
return 203880
Oxford 203836
bus 203772
example 203718
187@@ 203643
across 203580
River 203486
kin@@ 203366
ous@@ 203316
action 202939
new@@ 202923
although 202518
Ri@@ 202475
ts@@ 202379
low@@ 202187
fra@@ 202124
Institute 201962
cup 201943
Its 201879
aries 201746
George 201677
int 201543
stan@@ 201525
sons 201496
studio 201428
ura 201269
text 201197
chief 201165
ring 201131
gs 200762
California 200759
Bel@@ 200707
market 200668
met 200598
months 200475
anti@@ 200389
shows 200320
closed 200270
help 200244
! 200237
Bureau 199957
ich@@ 199907
festival 199675
To 199663
cher 199569
uri@@ 199516
dd@@ 199357
Review 199337
ene 199293
eth@@ 199269
real 199218
competition 199151
lived 199022
housing 199012
retired 198912
forces 198906
ward 198713
saw 198667
New@@ 198648
gold 198529
V 198497
1.@@ 198379
ese 198260
primary 198235
Go@@ 198227
george 198167
ets 198039
province 198022
hill 198006
complete 197758
dan@@ 197620
says 197594
ach 197181
Center 196694
mit@@ 196632
Office 196630
process 196581
Paul 196533
mission 196343
e's 196316
mp@@ 196230
000 196199
groups 196199
ai 196046
With 195733
takes 195530
reported 195267
ales 195214
followed 195012
ada 194982
bb@@ 194922
dies 194889
room 194816
contains 194740
canada 194688
lev@@ 194665
cer@@ 194598
tz 194402
introduced 194369
sem@@ 194280
smith 193799
ri 193748
syn@@ 193705
ner@@ 193491
word 193484
paul 193433
brown 193414
indi@@ 193410
At@@ 193401
big 193052
Fran@@ 192885
1992 192715
ue 192715
Media 192714
ken 192597
War@@ 192386
Ab@@ 192380
Thomas 192278
First 192201
marine 191998
cia 191886
thomas 191656
biography 191503
self 191456
ola 191226
related 191206
ek@@ 191146
nar@@ 191092
inten@@ 190771
front 190579
Council 190554
upon 190488
technology 190408
federal 190336
management 190030
hit 189953
bon@@ 189952
rated 189804
bed 189737
attack 189673
han 189603
hand@@ 189110
films 189054
doc@@ 188922
1993 188782
France 188725
writer 188622
face 188445
Stu@@ 188442
ators 188427
ette 188064
UK 187930
Gi@@ 187902
staff 187738
pic@@ 187546
phi@@ 187455
household 187357
sex 187185
1991 187149
dol@@ 187113
close 187105
San 187046
East 186908
Sal@@ 186798
gave 186638
france 186605
Ca@@ 186494
spo@@ 186485
ws 186417
cambridge 186311
mid@@ 186030
ini@@ 185854
ously 185748
iled 185557
bank 185512
tis 185122
To@@ 185087
mag@@ 184946
van@@ 184865
chart 184737
tives 184688
success 184550
contract 184531
Cro@@ 184504
ny 184487
lec@@ 184453
ental 184274
Wi@@ 184210
guide 184153
sian 184151
sta 184119
Pla@@ 184118
seat 184079
cast 183968
Win@@ 183772
ot@@ 183591
gal@@ 183567
bury 183500
strong 183473
stein 183442
tle 183244
fall 183130
artist 183127
Group 183091
doctor 182898
dor@@ 182782
culture 182577
un 182512
gran@@ 182398
hin@@ 182167
Union 182126
1980 182076
involved 182037
Por@@ 182018
inger 181940
tal 181921
parts 181823
junior 181201
buildings 181100
food 181049
cul@@ 180826
chan@@ 180633
studied 180587
ll@@ 180546
Church 180536
revi@@ 180505
Pu@@ 180486
ji 180329
mus@@ 180136
reached 180097
mes 180093
stor@@ 180072
Daily 179867
ella 179827
Ni@@ 179760
singer 179685
rea@@ 179627
Some 179601
countries 179580
degree 179571
D. 179489
arts 179361
box 179358
ial 179298
ight 178972
nation@@ 178945
Char@@ 178862
provided 178694
Fre@@ 178522
should 178410
kins 178186
run@@ 178121
ris 177988
System 177819
mi 177798
japanese 177736
living 177466
So@@ 177465
gro@@ 177227
Japanese 177077
mar 177036
gue 176960
tournament 176927
ere@@ 176906
gr@@ 176894
Ho@@ 176845
runs 176730
ax@@ 176646
view 176584
alism 176505
database 176485
sor@@ 176345
approximately 176193
child 176083
capital 175942
double 175940
associated 175902
Street 175749
Ben@@ 175706
civil 175685
ol 175651
dance 175486
201@@ 175435
ood 175396
che 175376
ently 175166
E. 175132
female 174997
bea@@ 174822
sometimes 174778
leg@@ 174773
Cla@@ 174483
native 174432
peter 174395
texas 174394
blo@@ 174385
collection 174140
sional 174120
above 173978
Cal@@ 173937
theater 173706
Sha@@ 173662
thing 173621
ching 173608
ound 173501
1989 173396
rights 173385
H. 173383
gers 173364
ban 173123
writing 173009
lands 172944
Lo@@ 172934
Peter 172859
Smith 172725
Royal 172621
Publishing 172518
leader 172448
play@@ 172342
W. 172248
cho@@ 172243
student 172209
generally 172091
pur@@ 172054
almost 172008
Ser@@ 171841
committee 171801
zer 171646
medi@@ 171545
Mac@@ 171462
sam@@ 171397
Japan 171262
start 171256
bel 171102
ph 171086
european 171029
charles 170957
consi@@ 170845
placed 170796
pit@@ 170766
anda 170700
wall 170562
Charles 170484
Tri@@ 170469
fe 170414
yed 170366
alized 170162
gets 170152
nation 169903
lower 169821
European 169817
hand 169774
ised 169653
gene 169558
Ha@@ 169398
Hall 169364
map 169234
Gen@@ 169225
issue 169154
pennsylvania 169105
Air 169077
rela@@ 169046
ow 169043
dge 169007
sia 168992
Mer@@ 168990
practice 168842
future 168785
cross 168767
indian 168540
though 168338
famous 168137
nature 168059
graduated 167978
middle 167971
ero@@ 167850
ey@@ 167838
dson 167766
fri@@ 167681
cou@@ 167571
assi@@ 167260
Lin@@ 167178
ome@@ 166854
deal 166800
lor@@ 166745
wel@@ 166713
iran 166107
spanish 166097
tory 166030
roman@@ 165955
Central 165899
behind 165894
Cambridge 165795
kers 165631
zing 165631
0-@@ 165549
medical 165465
thi@@ 165459
defeated 165429
japan 165370
actor 165186
Spanish 165100
Indian 165071
campaign 165055
mm@@ 165050
wat@@ 165023
Gre@@ 164880
ams 164756
pped 164756
Cup 164583
nom@@ 164541
standard 164459
below 164428
hospital 164359
commission 164329
length 164317
Places 164202
rin@@ 164135
elections 164015
soci@@ 163997
ends 163945
location 163910
ame 163874
aly@@ 163833
xi@@ 163766
tically 163599
The@@ 163520
richard 163519
shot 163461
L. 163433
Richard 163408
Library 163359
ox@@ 163304
launched 163244
Del@@ 163058
operations 162955
ket 162904
tual 162796
Accessed 162718
Germany 162478
fur@@ 162311
mary 162217
friend 162105
ented 162086
micro@@ 162007
em 161738
stic 161731
Rel@@ 161654
King 161632
too 161500
ball 161423
changes 161364
Q@@ 161315
sig@@ 161166
canadian 161087
flu@@ 161087
statistics 161084
hen@@ 161031
ung@@ 161031
pul@@ 160995
move 160844
represented 160844
od 160794
cover 160785
lou@@ 160771
remains 160753
possible 160752
ome 160709
pin@@ 160699
ska 160626
composed 160585
fish 160581
vis@@ 160499
Museum 160465
blue 160454
pt 160449
Canadian 160328
flo@@ 160180
winning 160144
comes 160112
bay 160095
ole 160078
unit 160056
1988 160029
duc@@ 160022
nov@@ 159939
gla@@ 159938
ide 159761
post@@ 159687
mem@@ 159672
plan 159598
cs 159285
def@@ 159260
lan 159181
academy 159017
parish 159000
Post 158936
leading 158756
Dra@@ 158607
Iran 158569
mur@@ 158416
stars 158384
rich 158363
ssi@@ 158193
boo@@ 158152
fle@@ 158115
reviews 158048
anti 158000
tr@@ 157920
pas@@ 157891
castle 157832
yl@@ 157740
China 157655
ging 157648
movement 157616
channel 157605
domain 157591
ek 157493
Rec@@ 157447
author 157427
entered 157366
global 157339
find 157313
grade 157273
tis@@ 157239
slo@@ 157178
lives 157140
bran@@ 157008
ely 157006
Kar@@ 156826
atic 156804
germany 156786
china 156696
trade 156662
regular 156559
angeles 156535
source 156281
sted 156180
Mil@@ 156150
ences 156128
Ed@@ 156048
poli@@ 156014
tter 155940
bol@@ 155884
minister 155779
shar@@ 155777
ela 155668
russian 155650
course 155626
net 155615
appears 155495
operated 155438
Co 155382
idae 155333
Cha@@ 155300
cle@@ 155267
ards 155243
resi@@ 155013
going 154869
Mas@@ 154814
aged 154778
tations 154766
mental 154750
profile 154653
Award 154628
Y 154621
fil@@ 154618
past 154366
bac@@ 154356
Her 154324
commercial 154215
ock 154164
wn 154112
1970 154097
outside 154066
Wal@@ 153829
highway 153607
money 153564
bill 153556
sure 153516
legal 153291
kin 153191
programs 153142
Cri@@ 152867
mostly 152795
houses 152651
Film 152639
val 152628
economic 152468
got 152421
score 152134
ells 152046
ita 151873
clu@@ 151567
protein 151542
professor 151441
traditional 151406
editor 151400
Is@@ 151337
dia 151313
20@@ 151245
spent 151094
Awards 151093
Top 150940
sport 150934
dictionary 150830
tery 150803
islamic 150764
publication 150755
survey 150686
chicago 150654
senior 150615
Islamic 150465
P. 150457
ligh@@ 150446
ining 150430
brought 150392
ac 150369
Sy@@ 150263
ination 150206
Fri@@ 150147
sto@@ 149923
analysis 149909
theory 149855
stre@@ 149739
bl@@ 149627
Da@@ 149461
cer 149445
sn@@ 149398
Los 149312
squ@@ 149291
decided 149276
trav@@ 149235
ven 149227
ements 149208
sign 149138
virginia 149011
explo@@ 148929
fight 148887
ree 148822
Football 148690
G. 148632
airport 148630
Pre@@ 148573
lee 148535
least 148510
foundation 148505
woman 148447
master 148387
acy 148375
Two 148361
energy 148342
manager 148302
selected 148212
ming 148108
60 148051
means 148019
moth 147946
1987 147878
ogra@@ 147852
dru@@ 147783
ati@@ 147719
shi 147643
engine 147639
chi 147635
interview 147584
Education 147567
President 147561
pl@@ 147499
Art 147432
conference 147407
Army 147405
yu@@ 147401
vel@@ 147240
previously 147185
ef 147153
coast 147032
matches 146991
gun 146817
consists 146767
Government 146708
Ap@@ 146664
entry 146648
Rom@@ 146624
makes 146622
pon@@ 146507
lis@@ 146304
Club 146287
feature 146238
hard 146199
ror 146160
Of 146045
im 145934
tac@@ 145895
sho@@ 145819
numerous 145753
Science 145521
musical 145434
property 145385
formation 145285
ae 145199
ep 145176
medal 145115
io 145076
far 145064
fort 145003
Records 144723
1986 144676
ically 144519
tropical 144503
hea@@ 144500
fo@@ 144496
Dar@@ 144463
ali 144353
exten@@ 144317
pho@@ 144300
provides 144237
Lan@@ 144235
raised 144175
sco@@ 144036
care 143956
dom 143631
vol@@ 143589
Research 143545
List 143525
complex 143352
either 143331
ova 143330
ania 143285
thus 143253
sac@@ 143160
tel 143158
Bal@@ 143149
lia 143112
radi@@ 143096
Tur@@ 143013
ace 143007
coo@@ 142983
star@@ 142971
sister 142956
# 142950
ough 142938
companies 142936
cl@@ 142894
interest 142851
higher 142825
ography 142766
person 142504
elec@@ 142457
celeb@@ 142433
Official 142400
thro@@ 142394
running 142349
host 142327
mountain 142321
ries 142301
Life 142245
highest 142234
anna 142171
zes 142145
competed 142093
bin 142092
adv@@ 142060
Report 141987
appearance 141938
provide 141924
township 141909
Pennsylvania 141898
1985 141854
Elec@@ 141797
chen 141680
ini 141625
beginning 141348
issues 141333
off@@ 141325
Red 141170
parents 141041
aci@@ 140986
Em@@ 140964
ym@@ 140884
spi@@ 140805
3.@@ 140713
ji@@ 140698
zo@@ 140689
lam@@ 140605
ao 140577
12@@ 140348
sea@@ 140327
185@@ 140274
scored 140224
door 140195
previous 140024
histor@@ 139985
recording 139868
Division 139823
ash 139566
status 139555
Books 139522
leaves 139353
von 139335
ip@@ 139334
ners 139309
tively 139193
required 139192
wins 139175
jersey 139148
instead 139104
bom@@ 139096
Cu@@ 139057
tus 139049
sound 139042
itself 139031
We@@ 139029
bo 138985
Bas@@ 138888
sul@@ 138722
web@@ 138715
spor@@ 138641
dead 138589
numbers 138583
concer@@ 138510
store 138488
San@@ 138462
noted 138309
AR@@ 138260
tam@@ 138250
entire 138239
foreign 138158
sk 138137
part@@ 138116
regional 138071
ky 138067
nes 137990
Oc@@ 137987
vir@@ 137969
1-@@ 137954
ories 137954
nic@@ 137938
especially 137909
bar 137850
var@@ 137777
Hor@@ 137596
quali@@ 137528
activities 137519
equ@@ 137500
fore@@ 137446
Mag@@ 137422
finally 137378
Shi@@ 137358
Star 137128
Pa@@ 137102
nie 137054
towards 136988
administration 136859
La 136763
sar@@ 136645
valley 136538
hur@@ 136347
poly@@ 136334
Russian 136327
Great 136309
Fer@@ 136293
Most 136200
Party 136173
grew 136105
onom@@ 136060
singles 135979
Mad@@ 135965
ref@@ 135952
cultural 135829
sites 135771
imp@@ 135712
digital 135700
iso@@ 135651
sey 135577
Martin 135571
bers 135541
Ang@@ 135512
1984 135445
Europe 135403
Ter@@ 135390
Road 135344
Book 135340
heart 135162
km 135129
d's 135100
Ger@@ 135047
material 135021
Bul@@ 135005
ew 134907
Academy 134841
que@@ 134814
covered 134725
0000 134701
mainly 134680
friends 134552
italian 134477
Ti@@ 134327
jo 134256
access 134233
male 134085
Cra@@ 134068
disp@@ 133995
operation 133994
claimed 133891
grand 133806
mond 133789
sle@@ 133769
connec@@ 133730
Chicago 133721
Italian 133670
enn@@ 133641
spring 133599
ray 133572
ast@@ 133568
ria 133501
call 133485
divided 133445
coming 133388
Comm@@ 133375
autom@@ 133341
trac@@ 133304
turn 133253
gg@@ 133207
significant 133142
europe 133136
gh 133126
tar 133125
ee 133106
tiv@@ 133059
cha@@ 133012
Western 133006
shing 132999
month 132962
igh@@ 132892
wards 132872
Pen@@ 132744
ni 132739
minutes 132731
Angeles 132678
org@@ 132670
encyclopedia 132657
offers 132586
tracks 132503
sion@@ 132465
increased 132431
cost 132384
Vo@@ 132381
Pra@@ 132304
additional 132221
cities 132206
Ori@@ 132144
hours 132142
Bir@@ 132123
eh@@ 132085
Board 132046
ancient 132044
supp@@ 131995
individual 131975
buried 131889
personal 131873
ational 131862
mas@@ 131812
ping 131752
subsequently 131695
marriage 131691
any@@ 131591
inst@@ 131519
stant 131480
bru@@ 131458
basketball 131421
Fac@@ 131406
kh@@ 131338
oil 131193
tent 131164
Texas 131141
passed 131026
sets 131000
religious 130930
sand@@ 130924
fes@@ 130779
code 130717
cial 130686
nat@@ 130686
anne 130637
ez 130548
ago 130546
Historical 130498
gin@@ 130464
ering 130431
producer 130411
Women 130382
fy 130344
Cur@@ 130319
li 130233
yle 130231
Since 130120
Best 130097
web 130051
Mat@@ 130029
train 129926
broadcast 129857
boy 129801
tax@@ 129798
opening 129699
Dictionary 129584
your 129569
gan 129566
dea@@ 129562
broad@@ 129549
Cy@@ 129504
files 129460
ho 129421
tan 129239
0.@@ 129174
adi@@ 129167
color 129153
atory 129082
emer@@ 128964
turned 128919
Lea@@ 128870
US@@ 128770
AT@@ 128747
chinese 128742
thor@@ 128671
notes 128655
forced 128612
assembly 128585
florida 128497
computer 128477
Public 128422
heritage 128388
ately 128301
Island 128298
borough 128201
som@@ 128199
initially 128062
goes 128043
vin@@ 128036
always 127986
ple 127963
dw@@ 127894
8-@@ 127892
high@@ 127891
consu@@ 127886
iro 127845
ami 127826
kansas 127825
allowed 127811
1982 127810
supported 127808
verse 127742
serves 127700
1983 127657
Henry 127632
Chinese 127594
bin@@ 127569
plants 127506
machine 127470
ste 127470
temple 127374
mo 127285
shown 127274
ex 127273
wa 127258
onia 127159
Other 127154
AS@@ 127092
types 127070
security 127046
loss 127035
plans 126962
ast 126947
cases 126862
constructed 126843
search 126842
Zealand 126828
newspaper 126809
ky@@ 126756
Ken@@ 126709
baseball 126619
henry 126613
Inter@@ 126565
acquired 126544
Sen@@ 126512
pool 126509
rates 126375
policy 126374
despite 126368
martin 126327
bishop 126315
mine 126224
Guide 126184
interac@@ 126118
idea 126103
sun 126071
tol@@ 126001
earned 125964
1960 125944
youth 125842
cell 125786
cement 125768
pil@@ 125733
Ku@@ 125695
Tu@@ 125689
Ko@@ 125628
IN@@ 125340
stations 125336
25@@ 125242
north@@ 125240
bes 125216
Af@@ 125196
forest 125180
ony 125167
commune 125092
jor@@ 125059
regu@@ 124932
ira 124746
mul@@ 124716
Their 124674
governor 124652
met@@ 124632
Plan@@ 124590
albums 124587
discus@@ 124547
financial 124542
Far@@ 124491
invol@@ 124445
va@@ 124346
He@@ 124280
specific 124271
3-@@ 124270
dun@@ 124201
officer 124173
kings 124112
organized 124024
dow@@ 123949
continu@@ 123909
Championship 123842
elle 123833
sher@@ 123801
standing 123796
relationship 123776
goal 123764
products 123762
My@@ 123749
sun@@ 123700
gin 123658
sev@@ 123648
wol@@ 123605
yn 123509
phy 123504
sym@@ 123406
Sp@@ 123367
politics 123361
chapter 123293
mol@@ 123228
Many 123227
pping 123126
ison 123109
command 123079
tting 123057
taking 122997
zealand 122972
Cap@@ 122959
executive 122934
read@@ 122894
artists 122860
morning 122806
Im@@ 122608
evidence 122602
hop@@ 122593
matic 122591
ov 122586
eman 122543
growth 122425
App@@ 122422
problems 122417
hold 122367
certain 122285
hydro@@ 122221
campus 122203
nd 122161
cin@@ 122125
she@@ 121987
reser@@ 121979
Commission 121951
Business 121946
Chi@@ 121934
wea@@ 121829
Do@@ 121573
lied 121555
Er@@ 121515
White 121448
worth 121427
BBC 121398
py@@ 121369
done 121367
survi@@ 121366
nas@@ 121323
bec@@ 121238
fol@@ 121228
collec@@ 121197
Mark 121149
officially 121044
iner 120999
unc@@ 120976
thers 120927
According 120800
Ara@@ 120800
water@@ 120789
bian 120749
hear@@ 120620
bit@@ 120606
Lake 120557
rie 120546
folk 120525
vote 120519
illa 120485
bia 120418
inside 120410
Ta@@ 120408
brothers 120311
variety 120235
Africa 119997
Hi@@ 119907
words 119889
championships 119845
80 119750
Val@@ 119674
characters 119662
yers 119654
jer@@ 119651
anth@@ 119640
ounds 119635
Blo@@ 119553
anian 119482
Stra@@ 119435
minor 119416
yo@@ 119396
184@@ 119342
mani@@ 119224
ila 119158
Ph@@ 119145
voc@@ 119137
mari@@ 119103
offered 119055
kil@@ 118946
pea@@ 118885
serving 118880
wit@@ 118856
cancer 118849
bow@@ 118847
effect 118818
' 118733
better 118704
Hy@@ 118688
inal 118591
stand 118551
Names 118539
elled 118538
stories 118491
rather 118488
mun@@ 118388
ari 118377
aya 118359
dent 118308
majority 118276
Online 118104
bad@@ 118040
red@@ 117951
becomes 117930
ut 117923
dre@@ 117900
metal 117893
contribu@@ 117857
Hel@@ 117841
voice 117770
Cre@@ 117673
Fe@@ 117643
parliament 117605
arrived 117593
dges 117577
si 117540
tial 117514
africa 117495
Ty@@ 117407
Black 117402
christian 117374
multiple 117334
discovered 117275
lations 117182
You 117178
graduate 117142
Encyclopedia 117100
97@@ 117038
iling 117007
weight 116999
FC 116995
F. 116927
dr 116914
fir@@ 116898
Christian 116895
terms 116859
camp 116803
Medi@@ 116733
captain 116732
burn 116674
recent 116622
Ev@@ 116559
activity 116424
fast 116424
35 116385
fic@@ 116377
renamed 116375
flight 116344
main@@ 116333
lus 116205
o'@@ 116201
rules 116183
1979 116155
sides 116153
nearby 116132
paper 116123
ico 116044
fun@@ 115975
designated 115940
prote@@ 115934
jan 115921
er's 115876
dark 115849
paris 115813
decision 115678
software 115678
leaving 115608
drama 115590
literature 115571
treatment 115569
honor 115528
gas 115447
caused 115432
tia 115414
goals 115412
Tro@@ 115394
winner 115362
agu@@ 115306
surface 115246
Hea@@ 115198
dates 115197
bil@@ 115170
mation 115100
Cas@@ 115053
hockey 114975
mixed 114935
AN@@ 114840
1981 114817
carolina 114800
cut 114740
cus 114738
oods 114738
pro 114701
fal@@ 114699
give 114683
dale 114681
tom 114667
Ireland 114646
Paris 114609
phy@@ 114601
weeks 114581
victory 114562
promoted 114506
ens@@ 114493
tower 114466
longer 114418
Biography 114412
ills 114389
continues 114386
situated 114284
rey 114196
oph@@ 114190
pre 114109
lian 114096
hn 114021
thu@@ 114015
Pan@@ 114014
No 113995
serve 113989
mayor 113984
winter 113886
cell@@ 113846
versus 113817
head@@ 113766
fred 113739
tree 113580
gate 113554
Lab@@ 113543
Survey 113496
rier 113432
speed 113397
nearly 113396
ech@@ 113357
ull 113329
t's 113322
Sil@@ 113287
Bor@@ 113274
primarily 113157
Year 113102
reli@@ 113047
stadium 112988
ans@@ 112981
overall 112920
fron@@ 112900
south@@ 112885
Gro@@ 112868
settlement 112788
kingdom 112786
19@@ 112757
loo@@ 112569
label 112559
fel@@ 112554
Mary 112473
dar 112470
say 112377
IS@@ 112317
try 112308
villages 112231
effects 112221
mach@@ 112162
dings 112147
mouth 112121
experience 112078
heavy 112068
gus 111955
bir@@ 111933
engineering 111854
Hill 111847
alls 111835
quality 111819
leave 111806
transport 111798
Tor@@ 111782
Whi@@ 111732
helped 111726
meeting 111724
mont 111710
ces@@ 111707
sign@@ 111686
with@@ 111626
presented 111584
thought 111578
aster 111491
dence 111475
ye 111472
african 111463
dium 111422
academic 111403
appear 111401
back@@ 111349
las 111301
ditionally 111279
struction 111270
cause 111247
champion 111234
ona 111230
ireland 111210
residents 111170
ima@@ 111069
ute 111013
note 111002
1978 110984
destroyed 110914
Radio 110911
lau@@ 110893
tho@@ 110877
ation@@ 110866
anu@@ 110827
prior 110817
Day 110813
begins 110778
failed 110777
Ham@@ 110764
African 110758
aker 110746
tories 110658
Brown 110643
dif@@ 110539
Law 110522
Ran@@ 110511
yan 110463
fec@@ 110459
format 110410
agency 110343
referred 110305
Bre@@ 110136
cated 110091
dated 110067
hour 110049
Sur@@ 110036
direct 109981
basic 109950
ever@@ 109944
tra 109930
stop 109825
alists 109765
trial 109705
Population 109562
Court 109553
Sec@@ 109535
Statistics 109528
racing 109515
oes 109440
ester 109354
reference 109341
jes@@ 109322
jan@@ 109310
girl 109298
hot 109242
urban 109220
nell 109203
zu@@ 109170
disease 109056
observ@@ 109053
oma 109025
arri@@ 108994
cars 108983
ints 108967
participated 108913
break 108888
eve 108883
dist@@ 108859
entary 108826
brea@@ 108722
swe@@ 108721
eding 108644
mexico 108644
fer 108637
organ@@ 108590
fully 108588
proce@@ 108568
termin@@ 108563
look 108502
jac@@ 108468
rugby 108446
silver 108408
tag@@ 108354
separate 108348
Lee 108234
managed 108015
dou@@ 107961
seasons 107945
issued 107927
particularly 107905
internet 107890
cent@@ 107823
dered 107822
need 107821
geographic 107809
oper@@ 107782
bell 107780
pa 107744
1976 107730
Lar@@ 107726
Hon@@ 107706
oly@@ 107585
troops 107543
bio@@ 107538
inhabitants 107511
lic 107504
positive 107482
shor@@ 107428
sters 107358
32 107269
mig@@ 107189
ota 107184
tain 107181
greg@@ 107171
pass 107157
B. 107082
Den@@ 107015
actress 107002
candidate 106950
incorporates 106941
beli@@ 106881
rural 106879
je@@ 106764
USA 106751
boston 106743
lights 106694
Games 106659
70 106619
conduc@@ 106476
ids 106463
carried 106455
gives 106386
join 106366
2-@@ 106282
remaining 106270
corporation 106196
kir@@ 106141
aired 106137
michigan 106135
navy 106107
con 106103
let@@ 106070
pper 106069
earlier 106038
wan 106030
tail 106012
secondary 106011
Res@@ 105993
pop 105982
prize 105946
That 105923
levels 105873
languages 105866
pes 105846
ending 105767
ohio 105715
nin@@ 105693
Dec@@ 105659
elling 105655
wer 105652
Des@@ 105627
winners 105595
yl 105562
Ob@@ 105541
yet 105541
sha 105500
quickly 105428
emp@@ 105379
III 105246
1974 105244
Festival 105207
compu@@ 105177
prison 105174
T. 105166
ann 105154
1977 105127
function 105109
ght 105050
rich@@ 105049
phone 105047
While 104999
initi@@ 104962
1975 104953
birth 104933
larger 104912
massachusetts 104908
finals 104847
90 104839
struc@@ 104808
resources 104776
lers 104759
ain 104740
upper 104679
lit@@ 104666
already 104625
fro@@ 104620
ado 104611
bli@@ 104571
secretary 104461
teacher 104423
households 104396
1972 104363
Arch@@ 104317
Time 104303
Met@@ 104287
atten@@ 104146
quar@@ 104129
pur 104100
una 104081
nit@@ 104059
chairman 103985
kan@@ 103866
cry@@ 103810
respon@@ 103810
stated 103804
women's 103762
roll 103744
incorporated 103730
down@@ 103710
24@@ 103685
dents 103675
green@@ 103646
law@@ 103646
Magazine 103634
Ban@@ 103615
tain@@ 103609
physical 103577
Joseph 103521
liber@@ 103433
stream 103416
border 103413
extended 103412
dam@@ 103362
lot 103356
core 103254
labor 103250
Rea@@ 103230
Network 103218
batt@@ 103171
develop@@ 103155
succeeded 103137
1950 103132
crow@@ 103122
avi@@ 103095
hotel 103091
Gal@@ 103020
positions 103016
islands 102975
physi@@ 102942
K. 102885
inv@@ 102883
lion 102859
becoming 102834
Mexico 102833
firm 102794
mentioned 102776
ural 102749
:@@ 102693
publications 102690
Te@@ 102681
sue 102671
tric 102649
Stan@@ 102634
spar@@ 102595
bit 102559
sat@@ 102552
cells 102542
mal 102483
Ci@@ 102465
assistant 102405
fighting 102390
But 102385
1945 102337
au 102328
crew 102315
mir@@ 102307
Committee 102285
vers 102217
visi@@ 102183
pair 102170
ece 102166
Cat@@ 102111
pag@@ 102085
husband 102075
hag@@ 102048
gun@@ 102044
starting 102028
log@@ 101982
vation 101884
aling 101847
whom 101846
Sports 101831
purchased 101829
stat@@ 101814
hosted 101810
recently 101795
workers 101760
create 101752
gained 101750
actions 101611
ze@@ 101573
minis@@ 101485
meet 101479
9-@@ 101454
subject 101440
highly 101423
commonly 101420
ock@@ 101413
sy 101381
Man 101283
appearances 101278
dedicated 101215
bene@@ 101147
Mus@@ 101117
naval 101112
branch 101082
rison 101071
donald 101021
port@@ 100975
reas@@ 100932
transferred 100932
And 100891
Air@@ 100842
irish 100816
Ka@@ 100775
argu@@ 100743
models 100720
scale 100689
publi@@ 100659
eas@@ 100646
rep@@ 100636
wri@@ 100616
joseph 100565
tton 100515
pap@@ 100493
Irish 100489
Green 100483
cks 100475
ram 100415
sher 100414
boys 100384
climate 100370
non@@ 100352
une 100349
pel@@ 100312
May@@ 100306
Force 100293
billion 100213
black@@ 100213
ingly 100200
hat@@ 100120
Vic@@ 100114
Volume 100004
conver@@ 100000
ku 100000
tha 99976
projects 99967
euro@@ 99958
Dun@@ 99957
bi 99953
tax 99891
tero@@ 99881
eller 99875
Fa@@ 99858
alo@@ 99734
yard 99723
increase 99692
holds 99669
ques 99665
themselves 99663
Wh@@ 99632
scene 99627
estate 99606
hum@@ 99478
add@@ 99476
Sing@@ 99427
congress 99407
haw@@ 99320
inian 99286
jam@@ 99263
ima 99232
estimated 99220
6-@@ 99201
o's 99162
founder 99084
contemporary 99062
Coun@@ 99024
captured 98995
sli@@ 98943
eld 98837
sales 98825
Fu@@ 98748
job 98724
vision 98693
ears 98692
Series 98673
constitu@@ 98651
Arts 98633
method 98628
wings 98612
alty 98604
top@@ 98601
typically 98564
immediately 98537
Sam@@ 98536
bour@@ 98529
1973 98521
ille 98506
mechan@@ 98472
produce 98437
roman 98435
headquarters 98432
alia 98425
len 98422
33 98333
stock 98333
comman@@ 98321
1971 98116
gar 98116
je 98062
ig 98044
chron@@ 98024
pounds 97993
ben 97966
clar@@ 97957
rick 97949
Ag@@ 97936
influence 97928
4-@@ 97893
stro@@ 97888
broadcasting 97853
posed 97844
critical 97838
7-@@ 97823
dd 97809
storm 97797
fair 97766
Squ@@ 97732
boat 97701
taught 97667
aul@@ 97646
nea@@ 97645
advanced 97582
architecture 97525
Later 97474
Both 97470
ora 97467
Bla@@ 97461
tica 97431
therefore 97345
rd 97335
dly 97315
generation 97313
ular 97299
200 97238
clear 97208
soft 97204
response 97186
dad 97171
timate 97111
tains 97030
product 97028
Species 96951
electric 96946
sively 96873
gor@@ 96840
36 96832
Federal 96781
ok 96755
racy 96745
mad@@ 96670
bing 96650
shall 96618
Pres@@ 96599
Ala@@ 96589
provi@@ 96571
ession 96567
Virginia 96565
tz@@ 96549
vention 96516
believed 96490
moving 96456
ored 96454
work@@ 96454
sor 96453
Ram@@ 96444
sources 96428
true 96427
weekly 96395
print 96366
facilities 96352
king@@ 96345
attrac@@ 96342
districts 96335
Gri@@ 96334
poor 96322
illinois 96289
polish 96272
oldest 96236
directly 96231
entertainment 96216
Wat@@ 96187
capacity 96135
girls 96130
Rol@@ 96056
administrative 96006
Tru@@ 95971
recognized 95968
ae@@ 95966
solo 95957
removed 95893
fiction 95877
critics 95874
rock@@ 95838
rule 95834
widely 95832
til@@ 95789
signs 95783
fact 95782
mass 95772
nish 95770
justice 95719
cle 95667
tries 95663
soldiers 95647
travel 95597
shop 95589
Sol@@ 95528
views 95484
particular 95481
notable 95466
continue 95429
reading 95397
reflec@@ 95393
kri@@ 95368
ads 95353
su 95347
posi@@ 95294
BC 95270
AC@@ 95239
ury 95235
Roman 95222
politician 95133
fell 95121
dt 95088
1968 95059
sal 95041
nett 95032
enz@@ 95027
ric 95027
rup@@ 94951
Oper@@ 94937
exper@@ 94933
blood 94894
bau@@ 94839
Jones 94828
Big 94817
leton 94771
towns 94760
5-@@ 94742
gon@@ 94729
prin@@ 94719
box@@ 94708
tou@@ 94703
Foundation 94637
Second 94623
problem 94599
alization 94598
za@@ 94575
wrestling 94553
catholic 94520
att@@ 94497
path@@ 94480
sing@@ 94463
Edward 94460
conditions 94453
26@@ 94431
dal@@ 94425
d'@@ 94409
revol@@ 94409
domin@@ 94401
meaning 94384
Geographic 94360
geological 94357
acute 94336
Who 94323
details 94308
older 94296
norwegian 94237
threatened 94214
revealed 94211
dal 94193
comedy 94144
lying 94136
allow 94111
ES@@ 94108
edward 94105
Ga@@ 94094
bab@@ 94084
rail 94084
Tran@@ 94066
ert 94038
assigned 93999
fields 93998
farm 93972
prise 93966
long@@ 93964
37 93961
frey 93958
responsible 93951
istic 93894
acting 93883
bili@@ 93870
ou 93850
unknown 93841
beach 93810
falls 93784
38 93730
scott 93713
Polish 93697
Na@@ 93685
Sydney 93669
direc@@ 93599
environment 93570
arms 93533
minus 93471
mes@@ 93443
vin 93342
Jersey 93341
hem@@ 93337
jones 93323
refer@@ 93321
kes@@ 93278
plo@@ 93264
reports 93254
rail@@ 93229
charts 93219
serv@@ 93210
Grand 93208
andy 93193
roads 93154
4.@@ 93139
form@@ 93116
formerly 93086
ditions 93047
fly 93034
Gol@@ 93016
dig@@ 92975
deep 92960
inte@@ 92938
Bay 92922
Hun@@ 92889
ook 92882
1969 92880
titled 92854
kra@@ 92846
dam 92836
chester 92818
immig@@ 92813
episodes 92811
may@@ 92800
30@@ 92791
Ren@@ 92781
forward 92734
damage 92691
distribution 92687
ministry 92610
owner 92584
whole 92572
Pho@@ 92570
rose 92569
Saint 92559
Norwegian 92545
cc@@ 92539
introduction 92509
told 92500
tells 92485
iz@@ 92474
build 92404
arrested 92389
fellow 92350
orders 92338
floor 92262
Results 92237
Han@@ 92229
sydney 92222
pr@@ 92193
value 92165
approach 92144
elements 92123
Navy 92087
Scott 92041
drive 92039
Sar@@ 92028
nec@@ 92019
gy@@ 92000
proc@@ 91972
About 91954
statistical 91935
tec@@ 91912
Produc@@ 91848
Mid@@ 91813
Catholic 91811
peace 91769
origin 91713
authority 91680
horse 91678
marks 91662
ul 91662
exp@@ 91593
ero 91588
probably 91542
settled 91521
transportation 91507
foot 91440
Pol@@ 91432
Wales 91390
detec@@ 91384
ily 91382
daniel 91348
eral 91319
sir 91296
Lou@@ 91286
herald 91280
multi@@ 91275
lord 91272
34 91228
Florida 91209
mail 91188
couple 91132
chu@@ 91031
card 91028
allen 91013
Boston 90992
Ven@@ 90980
Pop@@ 90971
claim 90969
kal@@ 90969
wood@@ 90917
accep@@ 90859
Dom@@ 90843
agent 90795
ide@@ 90748
fair@@ 90733
We 90711
mon 90695
75 90684
wales 90679
chris 90678
municipal 90649
bles 90617
ool 90552
dic 90525
iron 90514
classes 90512
proposed 90496
mit 90470
Chris 90431
Team 90430
ple@@ 90381
officers 90375
eing 90356
gan@@ 90330
industrial 90316
ye@@ 90261
mission@@ 90242
remain 90202
Liber@@ 90187
irs 90166
respec@@ 90139
learning 90134
read 90087
dg@@ 90078
charge 90065
displa@@ 90051
Congress 90031
Herald 90016
ews 89946
glo@@ 89946
effective 89937
Williams 89884
Wol@@ 89830
trou@@ 89819
isa 89788
flor@@ 89736
nes@@ 89719
figure 89694
tivity 89666
45 89526
williams 89525
offer 89515
rise 89513
asked 89494
Mel@@ 89453
bad 89381
facility 89364
expanded 89363
eter 89326
needed 89310
Pap@@ 89270
nominated 89258
suffered 89237
Is 89231
Map 89177
ei@@ 89177
scientific 89148
tex@@ 89141
expected 89055
ograph@@ 89041
moder@@ 89037
adopted 89035
prominent 88946
Database 88928
likely 88920
returns 88918
initial 88848
whi@@ 88796
ordered 88789
Mis@@ 88740
ful@@ 88740
Ki@@ 88731
smaller 88714
educated 88692
/km2 88691
clubs 88673
1967 88642
Dev@@ 88614
fit 88613
aria 88608
Num@@ 88594
principal 88561
brand 88550
tant 88545
tour@@ 88497
kets 88483
Reg@@ 88465
birds 88456
Bill 88449
ault 88395
focus 88374
ides 88360
Toronto 88300
Old 88261
ious 88187
peri@@ 88160
guard 88157
Daniel 88151
wanted 88119
dynam@@ 88058
safety 88051
Edi@@ 88048
except 88046
jus@@ 88040
Andrew 87974
olas 87909
mm 87898
rice 87883
distance 87879
39 87876
oms 87860
chen@@ 87826
pun@@ 87804
Northern 87758
oul@@ 87738
suit 87725
evol@@ 87723
platform 87703
tural 87699
jar@@ 87692
tes@@ 87672
growing 87664
Michigan 87644
ua 87641
lim 87613
greek 87610
bird 87587
frequently 87562
rain 87544
yellow 87475
awa 87470
reserve 87468
marked 87461
covers 87454
zone 87442
normal 87410
nia 87374
earth 87313
legi@@ 87301
russia 87298
fame 87295
operating 87287
block 87262
know 87253
Corporation 87245
expla@@ 87167
territory 87166
manag@@ 87161
fare 87160
split 87131
Jac@@ 87127
Johnson 87108
arc@@ 87107
empire 87097
Mul@@ 87056
Greek 87052
shortly 87028
Town 87021
whose 86976
Jes@@ 86907
vice 86869
gil@@ 86794
concert 86789
defense 86745
amount 86724
nuclear 86724
trains 86668
alan 86635
declared 86635
promis@@ 86632
Wel@@ 86620
journ@@ 86619
toronto 86600
hun@@ 86595
ea 86578
Nu@@ 86569
semi 86568
tie 86467
Phi@@ 86433
Development 86427
conservation 86414
andrew 86392
mister 86347
copies 86286
tile 86263
accepted 86247
jum@@ 86206
guitar 86190
Pat@@ 86186
Def@@ 86116
tos 86102
reach 86090
Z 86081
vel 86068
ered 86047
ski@@ 86021
Act 86020
Louis 85988
votes 85975
audi@@ 85944
paid 85936
finds 85911
jack 85867
Tom 85865
ranked 85812
Doc@@ 85811
ternal 85792
tube 85788
titles 85771
louis 85745
sson 85741
compar@@ 85737
confirmed 85736
viol@@ 85730
cemetery 85724
keep 85718
circu@@ 85708
eat 85694
medicine 85688
francisco 85681
stam@@ 85672
kam@@ 85643
zi 85627
Hal@@ 85624
mea@@ 85618
organizations 85609
twice 85582
Bea@@ 85547
iver@@ 85538
Heritage 85514
Another 85490
equipment 85355
memorial 85355
letters 85317
younger 85312
planned 85295
claims 85268
Gla@@ 85244
conclu@@ 85219
Project 85198
connected 85190
affairs 85189
defined 85147
rers 85142
aga 85096
Hen@@ 85080
ork 85080
cies 85064
tist 85059
printed 85045
ket@@ 85007
communities 85001
soli@@ 84933
draft 84925
Vol@@ 84915
leadership 84857
Centre 84843
igh 84831
cep@@ 84821
acts 84806
Geological 84800
Today 84774
sup@@ 84771
Southern 84764
Jer@@ 84749
Sub@@ 84742
rooms 84730
regi@@ 84659
chro@@ 84643
ral 84639
tian 84637
ouse 84622
impact 84582
Bran@@ 84551
eva 84541
Dem@@ 84515
exam@@ 84513
Valley 84498
aka 84480
johnson 84453
concept 84441
UN@@ 84399
blin 84396
ades 84393
Pas@@ 84375
People 84373
piece 84360
Each 84313
asia 84254
Stephen 84246
zar@@ 84147
entation 84102
traffic 84071
Rev@@ 84066
instru@@ 84036
mill 84035
gon 84005
relations 83996
image 83944
ports 83936
ime 83898
yards 83885
dutch 83840
arti@@ 83834
beat 83831
conducted 83830
judge 83821
opera 83800
alli@@ 83798
nor 83782
mates 83772
drug 83730
rian 83725
Station 83719
Studies 83717
Summer 83707
leaders 83703
Young 83700
har 83700
ap 83680
num@@ 83663
content 83654
bal 83653
technical 83643
Ly@@ 83633
garden 83571
ble@@ 83566
pos@@ 83566
Dutch 83565
versions 83525
fan 83515
animals 83500
vil@@ 83490
bou@@ 83458
Fil@@ 83455
employed 83450
challeng@@ 83445
omer@@ 83426
Kingdom 83410
basis 83397
organ 83386
onic 83368
mans 83359
allows 83346
ate@@ 83340
chemical 83323
things 83316
Ke@@ 83286
lane 83282
Also 83259
memory 83226
lyn@@ 83197
If 83148
swit@@ 83133
outh 83085
arly 83075
promo@@ 83059
Chart 83054
stephen 83025
federation 83023
ux 82997
lum 82983
ographical 82909
ée 82898
pay 82874
shel@@ 82870
lock 82858
5.@@ 82841
brow@@ 82841
ises 82824
nations 82823
investig@@ 82809
Rock 82794
latter 82792
ort 82777
ment@@ 82763
Three 82751
scrip@@ 82712
IC@@ 82509
mike 82507
High@@ 82502
roles 82495
rely 82420
gover@@ 82414
stration 82398
trees 82396
Land 82380
seats 82377
cycle 82356
view@@ 82345
oted 82312
tch 82311
Tal@@ 82292
1965 82288
frank 82256
sett@@ 82253
translated 82232
1964 82228
Assembly 82215
teaching 82207
tim 82203
sses 82150
jewish 82146
stal 82094
ited 82052
patri@@ 82052
races 82044
queen 82034
photograph@@ 82033
Mike 82018
tici@@ 82003
largely 81990
mate 81988
individuals 81909
windows 81902
knowledge 81871
unique 81871
tun@@ 81869
bought 81839
brian 81811
cour@@ 81805
kel@@ 81802
Railway 81777
georgia 81726
Cli@@ 81722
1966 81721
footballer 81704
occurs 81698
rank 81691
educational 81688
Kn@@ 81675
Jewish 81668
My 81635
jazz 81620
columbia 81613
wart 81594
pacific 81578
27@@ 81546
creek 81523
passes 81468
commander 81452
500 81422
Yu@@ 81377
contrac@@ 81374
kon@@ 81366
archive 81314
Green@@ 81301
comple@@ 81289
ele 81270
painting 81269
attacks 81265
link 81228
techn@@ 81211
tted 81208
North@@ 81205
applied 81195
prov@@ 81148
dio 81113
El 81102
completely 81055
fas@@ 81044
diam@@ 81034
tele@@ 80943
Frank 80930
antly 80920
glass 80874
colum@@ 80871
poss@@ 80859
occurred 80830
cau@@ 80825
eta 80817
analy@@ 80802
tier 80784
worldwide 80750
share 80739
motor@@ 80721
Britain 80717
eling 80714
sab@@ 80691
Dor@@ 80656
Tam@@ 80656
kill 80621
enna 80593
chec@@ 80580
enjo@@ 80579
Pacific 80550
letter 80544
Parliament 80540
chap@@ 80527
sity 80503
aceae 80428
tribu@@ 80392
1940 80374
fying 80324
eth 80309
stand@@ 80291
Health 80281
tioned 80270
sel 80264
factory 80261
dian 80223
alternative 80221
hip 80171
edited 80138
aki 80118
cham@@ 80114
togra@@ 80113
applications 80109
Taylor 80014
lets 80001
tte 79985
ram@@ 79983
enny 79958
spr@@ 79949
Ohio 79944
sau@@ 79939
ris@@ 79934
More 79915
cher@@ 79914
eal@@ 79905
super 79884
Minister 79879
adap@@ 79834
een 79815
ab 79810
sna@@ 79810
tas@@ 79771
sche 79760
an's 79738
ean 79714
greater 79665
mom@@ 79639
gary 79631
tradition 79620
feder@@ 79582
starts 79575
fur 79519
implem@@ 79505
De 79498
identi@@ 79476
Highway 79457
Italy 79451
cab@@ 79451
custom@@ 79443
produc@@ 79436
mr 79420
screen 79398
soccer 79351
dden 79345
Mur@@ 79343
1930 79341
methods 79338
cent 79335
bun@@ 79300
follows 79300
RA@@ 79292
murder 79276
attempt 79273
kov@@ 79258
economy 79249
thir@@ 79191
jec@@ 79168
Mol@@ 79155
squad 79137
gian 79092
environmental 79080
Al 79074
dry 79067
prec@@ 79065
ingham 79055
mont@@ 79007
figures 79000
application 78971
band@@ 78933
Love 78914
ER@@ 78913
ress 78876
weather 78846
28@@ 78835
concent@@ 78827
abri@@ 78814
Pit@@ 78800
Data 78781
Pic@@ 78780
preser@@ 78770
med@@ 78768
shops 78755
open@@ 78739
kept 78720
chor@@ 78687
Carolina 78631
hood 78598
agreed 78575
guest 78563
tially 78559
drew 78558
Mari@@ 78557
price 78555
4-0@@ 78547
phil@@ 78544
enter@@ 78529
articles 78435
archae@@ 78416
calls 78386
How 78367
hai 78353
sburg 78349
alter@@ 78327
Ker@@ 78257
Global 78253
sciences 78253
attention 78246
cricket 78230
Sir 78217
ight@@ 78214
Mit@@ 78180
interpre@@ 78160
Ul@@ 78153
decor@@ 78127
Fla@@ 78123
factor 78099
taylor 78094
asi@@ 78071
Championships 78049
materials 78046
6.@@ 78043
Game 77989
credited 77984
why 77980
Bow@@ 77956
secret 77943
reduc@@ 77877
urs 77804
Cer@@ 77799
italy 77754
hits 77723
fans 77689
documentary 77673
potential 77671
prac@@ 77635
biology 77569
properties 77538
millimeters 77535
ula@@ 77535
protection 77524
difficult 77521
vac@@ 77518
amed 77484
Mun@@ 77470
CD 77413
Columbia 77398
launch 77382
sexual 77367
broke 77363
receive 77327
mmer 77313
ster@@ 77311
destro@@ 77308
gain 77304
sou@@ 77291
row@@ 77278
As@@ 77275
mobile 77267
jim 77262
Trans@@ 77232
D.@@ 77212
ett 77212
fine 77199
successfully 77195
enough 77185
funding 77180
Ur@@ 77172
proto@@ 77168
adult 77139
Super@@ 77128
onian 77115
theme 77100
rol@@ 77091
retirement 77090
sten@@ 77081
1920 77065
comic 77051
residential 77027
sz@@ 77018
gie 76986
A.@@ 76957
ele@@ 76947
Home 76940
multi 76931
rober@@ 76928
turns 76922
agreement 76921
Jan@@ 76919
Victoria 76906
lov@@ 76906
merged 76868
ario 76828
consul@@ 76815
visit 76784
Stor@@ 76734
auto@@ 76733
fee 76700
faces 76614
infec@@ 76587
pressure 76567
aqu@@ 76560
BA 76544
set@@ 76544
tta 76532
Cel@@ 76525
Gir@@ 76520
ource 76507
Although 76497
tten 76488
apar@@ 76462
Eu@@ 76458
aging 76441
conven@@ 76441
trust 76441
lack 76419
CO@@ 76412
ense 76402
regiment 76381
berlin 76376
god 76363
agre@@ 76267
exchange 76239
know@@ 76219
identified 76215
seg@@ 76206
olympics 76202
Jim 76188
survived 76135
Mich@@ 76099
Sim@@ 76041
it's 76031
injury 75982
Jack 75956
combat 75951
achieved 75947
indiana 75925
bach 75906
dley 75859
prince 75859
Olympics 75818
partner 75802
faced 75796
simple 75790
dor 75758
religion 75725
gol@@ 75671
Star@@ 75669
psych@@ 75661
classical 75660
ots 75651
granted 75636
cir@@ 75611
philadelphia 75587
rating 75582
depen@@ 75579
west@@ 75572
Internet 75569
Spi@@ 75560
animal 75553
What 75545
tedly 75522
5-0@@ 75512
ops 75502
Wilson 75496
lyrics 75419
planning 75376
classic 75375
risk 75375
occupied 75346
capita 75315
surrounding 75315
beyond 75285
9.@@ 75283
eme@@ 75171
steel 75157
rel 75140
gaz@@ 75133
spac@@ 75128
neighborhood 75127
Land@@ 75119
victoria 75118
See 75099
progres@@ 75070
crime 75058
visited 75020
edge 74986
depar@@ 74978
repor@@ 74956
pilot 74934
plane 74929
anger 74922
selling 74915
iting 74905
Hin@@ 74797
senate 74790
spon@@ 74789
reduced 74775
Men 74753
sector 74744
nan@@ 74702
fering 74698
maryland 74698
l'@@ 74668
nur@@ 74668
Ali@@ 74650
patients 74634
swedish 74627
Community 74611
stay 74597
parties 74548
sch 74547
1962 74543
laws 74539
fted 74470
ghts 74465
efforts 74445
regions 74423
nard 74404
rare 74392
fleet 74336
esses 74329
inations 74296
Line 74294
vinc@@ 74278
South@@ 74270
has@@ 74246
show@@ 74210
craft 74209
smo@@ 74179
hibi@@ 74153
West@@ 74147
pus 74141
care@@ 74137
torate 74129
ledge 74117
Rober@@ 74104
therine 74074
Francisco 74053
transi@@ 74044
Swedish 73990
exhibi@@ 73988
challenge 73977
leads 73939
CE@@ 73904
dropped 73895
Civil 73871
descri@@ 73859
kind 73847
ello 73821
Asia 73812
Sum@@ 73783
competi@@ 73783
sequence 73768
das 73763
plu@@ 73759
chosen 73752
1963 73733
iss 73723
habitat 73670
ati 73658
tum 73654
wan@@ 73639
tried 73602
golden 73597
dos 73578
alone 73559
Record 73539
enter 73512
squadron 73492
essed 73490
ring@@ 73439
scienti@@ 73419
eighties 73412
tch@@ 73381
Don@@ 73362
ped 73361
Sto@@ 73360
Wri@@ 73332
fts 73327
Following 73301
operates 73289
purpose 73284
prime 73250
vol 73247
Tom@@ 73223
qualified 73219
olympic 73215
attacked 73113
Province 73109
angel@@ 73108
depic@@ 73104
kar 73102
jean 73070
sequ@@ 73063
wes@@ 73062
poetry 73004
simp@@ 72972
mount 72944
mix@@ 72930
Sk@@ 72910
ower 72897
wilson 72889
ras 72887
spe@@ 72866
ital 72864
direction 72859
42 72845
deb@@ 72823
dog 72776
She@@ 72772
britain 72735
institu@@ 72729
Conference 72724
approved 72648
writers 72647
dul@@ 72646
offices 72642
ral@@ 72628
progra@@ 72604
them@@ 72600
eye 72581
Ear@@ 72553
wind 72528
drawn 72513
ny@@ 72481
aware 72477
follow 72451
govern@@ 72442
Scotland 72436
heim 72416
Os@@ 72403
sunday 72373
arm@@ 72328
esti@@ 72314
ights 72282
Social 72260
behavior 72238
grant 72237
ians 72231
asian 72229
public@@ 72220
converted 72219
pages 72174
enting 72145
might 72130
fought 72123
oregon 72117
minnesota 72090
Sus@@ 72088
inspired 72084
augu@@ 72073
Olympic 72046
Alexander 72000
augh@@ 71992
Sat@@ 71968
greatest 71967
profes@@ 71948
john@@ 71944
jr 71932
arm 71928
ret 71927
residing 71905
phic 71888
Russia 71857
ud 71831
J.@@ 71825
utili@@ 71823
Shar@@ 71809
communications 71796
alpha 71790
humans 71766
whe@@ 71765
etnam 71731
akes 71719
literary 71683
bered 71643
hay@@ 71634
actually 71612
cker 71599
ghton 71599
combined 71596
electronic 71517
Eli@@ 71508
ola@@ 71465
Annual 71450
less@@ 71446
nomination 71417
giving 71413
wild 71393
independence 71383
Battle 71370
Clar@@ 71325
talk 71315
zen 71308
eric@@ 71301
Ep@@ 71283
N. 71256
RE@@ 71251
ik@@ 71249
Marine 71222
wisconsin 71215
ool@@ 71211
steve 71206
ev 71169
Little 71150
nan 71143
sible 71142
account 71122
encoura@@ 71116
xon 71097
pack@@ 71085
Prin@@ 71068
Queen 71067
ound@@ 71064
alongside 71033
8.@@ 71021
stood 71015
oring 71012
loan 70982
1961 70972
stands 70962
begin 70930
structures 70915
Tour 70905
flow@@ 70904
joint 70886
choice 70878
garet 70878
Blue 70874
eland 70812
sex@@ 70793
compe@@ 70792
Sig@@ 70786
performances 70774
astr@@ 70769
alexander 70760
Steve 70740
ori 70723
correc@@ 70700
Wa@@ 70688
review@@ 70685
illy 70666
obtained 70657
gent@@ 70621
philosophy 70614
ease 70609
hung@@ 70608
Jam@@ 70606
swi@@ 70596
hong 70579
erre 70556
thin@@ 70538
exist 70501
commissioned 70488
eni@@ 70464
hands 70438
bang@@ 70389
bey 70371
secu@@ 70370
achiev@@ 70355
democratic 70327
evolution 70325
key@@ 70325
relatively 70314
consisted 70313
Simon 70310
torial 70308
peak 70298
soviet 70295
recomm@@ 70293
ign 70292
Coo@@ 70266
alum@@ 70264
iler 70262
Country 70235
sic 70234
agricultural 70204
ases 70192
ER 70172
Spain 70146
forests 70119
gender 70091
pau@@ 70085
spiri@@ 70083
expansion 70061
simon 70054
interior 70052
aver@@ 70051
bach@@ 70031
ira@@ 69962
phase 69958
ices 69932
agriculture 69916
Israel 69912
scotland 69900
mir 69887
revolution 69865
abu@@ 69862
Over@@ 69855
origin@@ 69829
efs 69821
Up 69817
shore 69813
Gil@@ 69812
but@@ 69801
starred 69798
gentina 69796
kid@@ 69794
ampton 69772
cha 69750
ula 69743
evening 69730
gallery 69723
expen@@ 69681
resigned 69678
din 69650
minute 69650
you@@ 69644
Berlin 69637
patrick 69625
41 69620
intended 69603
ologist 69601
performing 69590
railroad 69541
kat@@ 69479
Rem@@ 69460
dish 69455
exclu@@ 69446
Billboard 69438
featuring 69407
Hur@@ 69379
escape 69354
eric 69323
aid 69319
47 69294
dest@@ 69288
65 69275
script 69242
48 69240
treal 69219
rant 69210
cles 69202
champions 69161
announ@@ 69155
Soviet 69154
heads 69144
29@@ 69095
abandoned 69093
advis@@ 69089
seconds 69082
rece@@ 69078
elizabeth 69015
zer@@ 69013
affec@@ 69009
kan 68984
priv@@ 68982
neighbor@@ 68972
belong@@ 68919
camp@@ 68896
35@@ 68878
clin@@ 68871
draw 68861
drin@@ 68848
BS 68817
ized 68809
lun@@ 68805
perform 68799
appro@@ 68777
perio@@ 68762
deta@@ 68754
coach@@ 68725
cht 68712
Bat@@ 68706
oni 68704
Uni@@ 68702
sha@@ 68677
bronze 68676
Cru@@ 68674
count 68671
translation 68631
ryan 68630
user 68589
yan@@ 68577
northwest 68563
vehicles 68563
sus 68487
motion 68470
characteri@@ 68455
billboard 68431
collabor@@ 68419
alo 68417
extensive 68417
musi@@ 68407
ority 68391
lla 68381
ling@@ 68363
CA@@ 68360
acres 68353
stol 68336
mitted 68326
derived 68273
00@@ 68260
vey 68247
ried 68244
mich@@ 68232
centre 68231
joins 68225
particip@@ 68217
Ministry 68214
Tar@@ 68208
foc@@ 68190
sie 68171
courses 68169
recep@@ 68166
lay 68157
Illinois 68152
Senate 68145
papers 68145
Over 68144
stable 68144
Profile 68111
Lam@@ 68097
programming 68093
spain 68088
tera 68033
injured 68009
stores 67961
acid 67951
audio 67948
Hop@@ 67941
deci@@ 67817
lear@@ 67815
ré@@ 67794
mp 67792
tennis 67782
isms 67775
symbo@@ 67748
temporary 67723
Q 67709
occur 67705
alling 67703
miss 67681
phosp@@ 67680
fications 67677
Chief 67653
ler@@ 67652
refers 67646
Before 67633
chell 67627
compared 67601
egy@@ 67591
develop 67580
functions 67565
Director 67552
opposition 67530
quarter@@ 67498
Kir@@ 67493
express 67482
7.@@ 67480
Dou@@ 67476
grand@@ 67475
classification 67473
Hear@@ 67470
wy@@ 67461
44 67440
school@@ 67439
controlled 67422
aj@@ 67420
Part 67407
Gam@@ 67399
tto 67363
plea@@ 67354
registered 67340
corps 67336
presi@@ 67297
unincorporated 67297
images 67279
refused 67278
Open 67271
Power 67260
israel 67230
pieces 67230
facts 67215
1959 67211
refu@@ 67211
mic 67197
Mau@@ 67193
walls 67186
1944 67179
urday 67163
fund 67159
Bank 67154
faculty 67132
bands 67122
ety 67108
approach@@ 67097
sale 67086
quarter 67076
fire@@ 67056
joe 67055
Story 67050
Final 67025
cient 67023
ier 67015
flying 67009
bie 67008
Human 67002
Athle@@ 66991
nag@@ 66986
Lev@@ 66937
180@@ 66935
Lord 66924
Independent 66900
defen@@ 66900
eous 66889
looking 66885
Brian 66884
1939 66873
ual 66871
Ash@@ 66870
brain 66866
dest 66865
Sun 66864
Joe 66862
headed 66833
acted 66790
Area 66785
freedom 66778
ours 66759
slightly 66751
Spr@@ 66749
watch 66737
trained 66725
latin 66720
reti@@ 66712
Middle 66707
flow 66706
composer 66705
reason 66705
43 66703
resident 66698
guardian 66665
officials 66656
intelligence 66645
neuro@@ 66637
broken 66625
ech 66609
finish 66609
seventies 66605
chem@@ 66581
locations 66567
chri@@ 66544
Free 66531
encies 66523
lement 66514
andra 66467
architect 66460
quite 66460
Men@@ 66436
grave 66436
ses@@ 66432
Jean 66424
distributed 66422
flowers 66406
fon@@ 66392
stan 66377
homes 66352
graph@@ 66315
64 66299
rying 66290
dating 66270
vo 66266
85 66247
http 66247
fav@@ 66196
ounded 66192
aide 66173
locomo@@ 66173
Jackson 66155
rell 66155
hen 66119
situation 66112
legislative 66102
spective 66097
limi@@ 66096
bound 66093
existence 66067
blu@@ 66050
ologies 66046
inn 66029
kur@@ 66017
file 66010
thri@@ 66010
transfer 65972
documents 65969
Modern 65941
Fur@@ 65930
insi@@ 65921
sub 65900
endemic 65885
ably 65882
organi@@ 65882
iment 65865
fia 65859
recru@@ 65854
causes 65815
loaded 65811
Pea@@ 65810
brief 65761
bag@@ 65751
armed 65742
conflict 65725
Black@@ 65720
aysia 65705
men's 65699
Bus@@ 65694
dur@@ 65682
scription 65678
metres 65655
missions 65621
nineties 65613
Nom@@ 65603
tox@@ 65585
psy@@ 65566
restric@@ 65542
portion 65530
screen@@ 65515
hosts 65504
ues 65479
Up@@ 65465
proved 65460
Nic@@ 65458
repea@@ 65445
Es@@ 65442
Statistical 65441
Indi@@ 65436
dimen@@ 65422
fox 65410
pac@@ 65388
teria 65374
inci@@ 65368
boy@@ 65366
Major 65363
mall 65325
oo 65320
southeast 65318
secre@@ 65307
Sel@@ 65298
Associ@@ 65295
one@@ 65276
po 65274
Show 65259
lah 65242
rus 65233
Early 65216
OR@@ 65213
defeat 65206
than@@ 65203
Mov@@ 65172
klin 65164
scoring 65161
mrs 65135
roof 65120
Dea@@ 65113
1956 65107
tice 65100
IT@@ 65082
improv@@ 65056
town@@ 65053
55 65050
permanent 65050
rebel@@ 65045
ogen@@ 65037
Le 65032
Poli@@ 65026
Der@@ 65015
Van 65014
leveland 64976
oral 64954
Eastern 64908
after@@ 64903
ancy 64889
overs 64884
lieutenant 64875
quest 64875
ges@@ 64857
jackson 64848
Naval 64847
budget 64843
laid 64843
ception 64827
Election 64774
Hung@@ 64771
illustrated 64759
Long 64757
1958 64739
1957 64723
index 64719
display 64718
bot 64704
1946 64689
emo@@ 64679
desig@@ 64670
passenger 64654
shape 64640
erto 64631
scre@@ 64628
calcu@@ 64622
advoc@@ 64616
gest 64599
presence 64597
premiered 64587
nedy 64567
identity 64562
Coast 64551
communication 64540
ffi@@ 64527
sell 64525
fits 64514
person@@ 64503
Fra@@ 64489
By@@ 64483
1948 64477
titude 64436
Inte@@ 64428
Empire 64406
necessary 64395
diction 64389
step 64384
arab@@ 64350
ques@@ 64339
ema 64328
veter@@ 64293
contained 64273
category 64265
driver 64238
miller 64224
sav@@ 64215
prepar@@ 64213
ution 64192
ums 64127
rein@@ 64126
rants 64112
preci@@ 64097
cooper@@ 64080
scheduled 64067
yo 64062
hann@@ 64045
tat@@ 64013
losing 63985
thin 63981
arthur 63970
forma@@ 63952
Special 63942
journalist 63942
Sher@@ 63921
attribu@@ 63895
separ@@ 63893
Wrestling 63868
gay 63866
gui@@ 63866
mind 63861
vest@@ 63851
rent 63829
boar@@ 63827
Family 63816
piano 63806
vehicle 63788
strian 63762
Tre@@ 63752
straight 63716
resulted 63689
Bon@@ 63672
daughters 63643
ador 63625
powers 63575
popu@@ 63553
Governor 63538
desi@@ 63520
bat 63489
supply 63484
some@@ 63470
counties 63469
target 63463
exhibition 63457
tai@@ 63450
gates 63422
wich 63372
meets 63360
measu@@ 63351
bodies 63347
dation 63345
rema@@ 63338
sman 63335
bic 63334
forming 63318
mountains 63318
kit@@ 63315
weapons 63313
parks 63265
ood@@ 63253
Tit@@ 63244
lip@@ 63223
Bol@@ 63204
needs 63180
org 63176
ables 63165
Creek 63152
northeast 63150
lance 63141
excel 63136
esh@@ 63131
contact 63126
bay@@ 63107
Theatre 63106
wer@@ 63103
aim@@ 63100
40@@ 63091
Vir@@ 63087
eyes 63087
atom@@ 63076
fashion 63048
chain 63044
Latin 63042
49 63030
induc@@ 63030
susta@@ 63025
le's 63019
provincial 63009
spread 63004
escap@@ 63000
returning 62985
standards 62979
dh@@ 62969
accident 62933
archives 62923
Korea 62914
cann@@ 62904
contest 62894
founding 62888
ukra@@ 62873
scenes 62832
bring 62823
big@@ 62795
life@@ 62790
touri@@ 62790
Technology 62783
ob 62778
Dist@@ 62771
lac@@ 62762
Bang@@ 62756
Andre@@ 62735
newly 62734
divisions 62733
peop@@ 62712
candidates 62702
nick 62701
therapy 62701
6-0@@ 62691
heat 62690
selection 62670
constituency 62668
banks 62644
nei@@ 62631
Tw@@ 62564
distinc@@ 62545
ives 62539
tured 62538
sep@@ 62529
Philadelphia 62519
ter's 62503
rane 62501
differ@@ 62486
creation 62483
picture 62482
discip@@ 62459
prises 62458
bibli@@ 62448
guns 62445
gram@@ 62433
Fame 62394
eks 62378
renov@@ 62372
ographic 62366
containing 62349
till 62325
terri@@ 62316
strateg@@ 62309
46 62307
users 62303
Military 62291
Miller 62287
wave 62274
diagno@@ 62273
Sco@@ 62263
1-0@@ 62258
tism 62258
regularly 62222
sense 62221
coc@@ 62207
Spec@@ 62206
presidential 62205
on's 62184
95 62183
Ukra@@ 62169
stitution 62166
Machine 62152
Nov@@ 62145
vi 62126
Agency 62098
will@@ 62079
52 62076
showed 62061
opposed 62033
thouse 62022
Interview 62013
Municip@@ 62009
terson 61983
50@@ 61961
Lewis 61952
spot 61936
sley 61895
Rac@@ 61869
speech 61869
Airport 61823
bor 61823
sixties 61818
1955 61813
eligi@@ 61801
excell@@ 61800
cinema 61798
presen@@ 61795
zy 61790
influenced 61773
8-0@@ 61749
rett 61747
Ontario 61717
simply 61664
tely 61662
tony 61660
milli@@ 61658
tow@@ 61658
aer@@ 61648
gang 61626
nest 61616
alle@@ 61614
Oli@@ 61610
mingham 61601
eves 61587
Elizabeth 61581
RO@@ 61566
son's 61563
pressed 61557
wright 61532
lady 61523
emplo@@ 61517
jamin 61514
formal 61510
write 61505
maximum 61503
kentucky 61500
Hay@@ 61485
attempts 61481
eng 61432
scra@@ 61405
hn@@ 61396
tering 61394
zon 61349
ontario 61344
churches 61342
cz@@ 61313
boats 61312
CA 61307
violence 61306
citiz@@ 61302
thic 61294
fund@@ 61283
painted 61270
k's 61268
something 61268
kon 61255
lace 61253
shaped 61239
physics 61220
couver 61218
powerful 61210
lon@@ 61199
dé@@ 61187
heavily 61168
poet 61161
grey 61160
1942 61153
iry 61152
hired 61145
1947 61132
reasons 61125
Kri@@ 61111
maintained 61091
fru@@ 61076
deplo@@ 61065
whether 61063
earth@@ 61059
profit 61056
Ol@@ 61049
session 61034
alog 61031
Sunday 61030
Tan@@ 61002
51 60994
Pau@@ 60993
chair 60966
m's 60963
junction 60950
authorities 60930
examples 60921
donesia 60919
break@@ 60918
feed 60917
catalog 60916
Ps@@ 60878
kol@@ 60876
walk 60861
lewis 60850
fishing 60773
Bru@@ 60769
missed 60767
1952 60763
research@@ 60760
Video 60743
aled 60715
Century 60691
pine 60684
representative 60681
contain 60680
subsi@@ 60678
ium 60640
atus 60637
chemistry 60635
portionment 60613
korea 60605
berta 60600
background 60589
oose 60578
coal 60547
want 60543
spea@@ 60536
ceremony 60524
divi@@ 60523
Sc@@ 60477
Que@@ 60470
focused 60465
1941 60442
wick 60435
existing 60430
jef@@ 60430
max 60421
acqu@@ 60398
musician 60392
grounds 60385
pod 60348
engines 60337
meter 60327
AM@@ 60324
raeli 60319
instruc@@ 60317
Guardian 60304
starring 60301
gy 60290
matter 60290
entures 60287
motor 60278
eda 60253
tech 60247
ign@@ 60242
alities 60229
wounded 60226
Sea 60205
Environ@@ 60201
Boo@@ 60177
Van@@ 60155
strated 60144
lington 60111
scri@@ 60107
deputy 60100
domestic 60097
resistance 60096
chin@@ 60092
certi@@ 60090
1954 60078
waii 60071
associ@@ 60066
valu@@ 60058
Melbourne 60044
Under 60022
improved 60020
google 59995
Entertainment 59992
bon 59992
sty@@ 59991
day@@ 59988
installed 59988
mix 59983
mill@@ 59979
wag@@ 59976
skin 59934
ols 59928
Google 59925
joining 59923
hills 59917
inated 59916
execu@@ 59902
susp@@ 59891
isla@@ 59877
Out@@ 59850
toward 59840
tative 59830
portuguese 59825
og 59815
publishers 59791
Direc@@ 59779
coordin@@ 59767
graphic 59767
respectively 59766
trail 59741
uring 59736
medieval 59730
pot 59687
Pro 59667
Hou@@ 59662
Like 59656
territorial 59646
suppor@@ 59642
residence 59637
DVD 59630
Four 59622
IV 59616
determined 59604
chapel 59601
Earth 59584
Portuguese 59581
killing 59575
activ@@ 59551
Mem@@ 59550
rez 59547
Davis 59538
rati@@ 59489
tap@@ 59487
Despite 59479
IA 59473
shared 59462
Ama@@ 59456
1949 59442
collected 59423
negative 59413
bic@@ 59391
1953 59383
onto 59379
rol 59378
manufactu@@ 59366
contributed 59365
abilities 59350
cards 59333
ape 59331
Township 59307
Limited 59306
consider@@ 59303
tons 59252
apol@@ 59248
electri@@ 59246
onomy 59219
Management 59208
thousands 59206
mining 59187
Hom@@ 59182
ows 59180
bai@@ 59179
edings 59165
lag 59163
restored 59157
condition 59156
tated 59152
Op@@ 59130
gent 59122
scottish 59105
Cir@@ 59102
Micro@@ 59099
fossi@@ 59097
nate 59097
Page 59095
Gran@@ 59093
Pakistan 59086
biggest 59083
Psy@@ 59030
53 59025
Spe@@ 59024
keley 59021
ege 59018
convic@@ 59012
innov@@ 58995
downtown 58990
Scottish 58950
cold 58944
heard 58929
elev@@ 58923
sections 58898
S.@@ 58894
magne@@ 58889
fuel 58888
shell 58886
enemy 58865
ST@@ 58860
voted 58851
1385 58832
audience 58829
2008-0@@ 58827
represent 58827
republican 58822
cky 58819
singing 58814
ida 58792
Georgia 58785
entirely 58775
encoun@@ 58749
Francis 58747
maker 58741
francis 58738
Asian 58732
businesses 58727
santa 58718
rif@@ 58710
sper@@ 58693
Cham@@ 58691
Massachusetts 58686
kor@@ 58686
citizens 58675
Singles 58658
recre@@ 58649
dean 58636
herself 58620
Roo@@ 58617
Cross 58614
ethnic 58576
Lau@@ 58551
ready 58541
rical 58539
tennessee 58502
kong 58493
2011-11-11 58484
rever@@ 58479
enced 58478
Maryland 58477
dent@@ 58469
substan@@ 58455
DC 58453
Live 58443
inner 58411
entrance 58409
Secretary 58401
davis 58393
uro 58390
Culture 58383
entitled 58368
rhy@@ 58362
ophi@@ 58344
investigation 58337
melbourne 58336
loyd 58331
Jef@@ 58309
Album 58276
alleg@@ 58273
God 58231
institution 58216
bis@@ 58205
EN@@ 58189
paintings 58178
gn@@ 58167
bet 58163
Dre@@ 58155
damaged 58155
66 58154
docum@@ 58131
bob 58121
monit@@ 58121
techniques 58119
teachers 58115
bak@@ 58110
Prince 58107
Federation 58099
questions 58095
isation 58083
colors 58080
1000 58073
Leg@@ 58041
Physi@@ 58039
save 58013
maria 58000
charges 57988
solu@@ 57982
zo 57970
bot@@ 57967
shaw 57944
mollu@@ 57924
acre 57910
failure 57910
movies 57899
onist 57888
tera@@ 57872
eties 57861
Lor@@ 57857
Hollywood 57855
Movie 57852
cum@@ 57849
cis@@ 57828
tune 57823
Sab@@ 57819
aviation 57797
represents 57776
producing 57747
ius 57746
letin 57690
anion 57683
palace 57667
plus 57664
judi@@ 57651
passengers 57644
Born 57633
gli@@ 57630
Blu@@ 57616
adam 57574
Histor@@ 57551
filled 57549
developing 57544
unes 57539
reality 57534
lose 57527
composition 57507
Bob 57505
athletic 57482
mam@@ 57475
Resi@@ 57466
nationally 57466
Fort 57454
nothing 57453
Region 57441
solution 57441
Phil@@ 57436
Morning 57435
expression 57431
telegraph 57424
op 57382
Ben 57376
Route 57372
bass 57369
iring 57357
guar@@ 57350
centuries 57301
doing 57293
ames 57282
resu@@ 57274
was@@ 57270
neth 57256
eless 57214
cates 57213
habi@@ 57212
Administration 57192
foun@@ 57188
Publications 57181
cable 57173
dman 57167
convention 57145
99 57144
elli 57141
teen 57140
Alan 57123
lications 57119
modu@@ 57117
affected 57072
Broad@@ 57058
Only 57050
surgery 57032
rivers 57023
roy 57022
oster 57021
Police 57019
visual 57009
brick 57004
infantry 56999
oklyn 56993
vis 56993
aft 56971
Tenn@@ 56955
anniversary 56944
clim@@ 56941
gone 56933
ib@@ 56927
Hong 56926
skills 56919
cian 56884
zh@@ 56874
institutions 56858
SA 56844
fem@@ 56844
Services 56842
Manu@@ 56811
inion 56780
foot@@ 56750
Gaz@@ 56741
internal 56731
iland 56723
ross 56719
employees 56700
foli@@ 56687
tti 56685
premier 56676
honors 56671
engaged 56643
gau@@ 56632
incident 56624
parliamentary 56621
counc@@ 56615
commission@@ 56591
fam@@ 56580
representatives 56575
cros@@ 56566
serious 56566
cited 56560
brun@@ 56559
question 56559
hollywood 56542
korean 56540
whit@@ 56531
fusion 56514
moon 56503
effort 56482
ules 56475
ander@@ 56473
tren@@ 56467
pakistan 56462
acqui@@ 56454
dison 56426
Nar@@ 56425
cip@@ 56393
southwest 56389
ensis 56368
Maria 56367
1951 56366
diocese 56366
ON 56364
graphy 56351
Archive 56339
Brazil 56330
moves 56325
ith 56323
constitution 56302
gium 56289
Super 56282
Korean 56272
exer@@ 56272
human@@ 56265
inher@@ 56234
63 56223
ampshire 56206
Edition 56199
Natural 56199
Bec@@ 56183
72 56181
felt 56179
usalem 56173
Sla@@ 56161
tty 56159
manu@@ 56158
atures 56155
pet 56153
tannica 56136
nis 56127
MS 56120
Rail@@ 56116
debuted 56115
announces 56113
shooting 56102
PA 56095
easily 56087
54 56077
try@@ 56067
earliest 56052
ances 56045
es' 56042
atlantic 56039
Industry 56035
62 56032
Kra@@ 56029
engineer 56025
Several 56023
ball@@ 56022
liberal 56014
lon 56011
briefly 56010
dow 56001
resulting 55987
reporter 55980
hero 55962
ocean 55962
strike 55949
charged 55948
Jan 55941
56 55910
colorado 55908
onal 55900
restaurant 55880
ests 55874
extension 55871
prob@@ 55842
Minnesota 55835
mers 55827
trip 55821
M.@@ 55801
arch 55800
stic@@ 55799
porter 55793
indic@@ 55790
IS 55782
civi@@ 55776
tence 55772
height 55771
lum@@ 55769
Gold 55766
subsequent 55749
inary 55744
61 55721
meth@@ 55704
Fox 55667
laun@@ 55663
zy@@ 55661
call@@ 55658
rome 55652
getting 55647
Eric 55611
setting 55610
tell 55602
Not 55599
ug@@ 55592
studios 55591
92 55569
Age 55551
mili@@ 55531
alex@@ 55488
Justice 55475
rone 55463
elder 55453
nich@@ 55445
tum@@ 55423
Nat@@ 55421
Pin@@ 55420
stab@@ 55415
triple 55389
Order 55383
path 55382
Tony 55378
employment 55377
Years 55376
millan 55364
portra@@ 55364
1943 55359
fat@@ 55336
86 55331
funds 55329
soundtrack 55323
representing 55322
Sciences 55292
connection 55292
apo@@ 55281
1900 55280
evalu@@ 55280
rho@@ 55275
pass@@ 55272
promotion 55252
FI@@ 55244
ava 55244
compete 55239
gular 55232
infra@@ 55232
kill@@ 55232
hec@@ 55223
Field 55219
christi@@ 55169
centers 55166
2009-0@@ 55165
orkshire 55163
rear 55121
thesis 55120
Compu@@ 55114
gul@@ 55111
receptor 55091
uk@@ 55081
grown 55076
sville 55064
Arthur 55054
creating 55053
mathematics 55053
Allen 55044
conte@@ 55042
designs 55042
67 55039
sgow 55026
bid 54996
caster 54988
Musi@@ 54986
Patrick 54980
strength 54963
Mont@@ 54961
orange 54934
uri 54926
participate 54923
pay@@ 54912
Local 54896
crisis 54881
routes 54851
flat 54839
1936 54828
elementary 54813
signal 54798
vor 54795
Sem@@ 54776
fired 54769
harmon@@ 54769
athle@@ 54766
proteins 54766
attempted 54765
releases 54764
diplom@@ 54749
alled 54735
princ@@ 54735
rad 54724
AL@@ 54718
Chan@@ 54704
tland 54701
Nich@@ 54699
medium 54691
Deb@@ 54689
ratings 54683
lett 54661
had@@ 54655
erous 54644
blog 54629
Kong 54619
ose 54617
stead 54611
genetic 54582
wine 54570
brazil 54568
mov@@ 54563
76 54544
FL 54540
-0@@ 54535
Conservation 54531
58 54520
aug@@ 54515
88 54506
costs 54502
wis@@ 54493
Ann@@ 54491
fighter 54489
ennifer 54423
Dan@@ 54414
rations 54410
Television 54398
aded 54397
hou 54392
ld@@ 54350
AC 54347
Soci@@ 54332
Out 54319
ladesh 54319
bone 54307
holi@@ 54286
pants 54284
FM 54278
enix 54263
Democratic 54255
MA 54235
real@@ 54219
ocracy 54218
Comp@@ 54211
eigh@@ 54191
loud 54172
sé 54170
Flor@@ 54143
pup@@ 54129
93 54115
68 54111
diary 54110
ands 54109
reform 54083
extremely 54078
ister 54044
bow 54032
noc@@ 54031
taining 54031
waters 54021
jack@@ 54018
grow 54005
manuscri@@ 54002
gl@@ 53999
awa@@ 53989
partici@@ 53972
stance 53972
llo 53966
83 53953
V. 53940
ples 53935
missing 53910
diversity 53903
jen@@ 53874
anny 53848
chose 53840
gene@@ 53837
sees 53825
Cop@@ 53818
operate 53818
Sun@@ 53790
chas@@ 53788
treated 53787
pression 53786
gastro@@ 53778
81 53774
tern 53761
hil@@ 53733
Cou@@ 53730
pen 53722
Republican 53715
walter 53714
MI@@ 53701
suf@@ 53699
clinical 53695
cat 53681
com 53674
All@@ 53671
tage 53665
jay 53663
stru@@ 53650
fic 53648
borne 53643
recognition 53638
membership 53635
Ak@@ 53634
tempor@@ 53631
orchestra 53620
suggested 53613
tests 53608
crown 53604
slow 53603
Chap@@ 53601
corpor@@ 53600
closely 53597
defence 53593
buff@@ 53576
ath 53569
Season 53561
lists 53549
zon@@ 53548
indu@@ 53546
construc@@ 53537
Avi@@ 53525
insec@@ 53519
sought 53516
speaking 53508
vas@@ 53486
77 53464
Aus@@ 53440
cling 53438
lins 53436
gins 53418
Chri@@ 53416
mark@@ 53385
cho 53379
holding 53353
fax 53346
metropolitan 53346
iley 53300
owners 53298
Wea@@ 53291
steri@@ 53282
flows 53280
57 53277
carry 53272
wing@@ 53271
advance 53259
collap@@ 53236
zilian 53233
hop 53232
davi@@ 53231
linked 53227
pear@@ 53206
testing 53206
Adam 53197
evi@@ 53196
kim 53136
nev@@ 53125
empha@@ 53124
Christi@@ 53119
dency 53116
indicate 53115
owski 53105
hammad 53096
book@@ 53089
degrees 53087
bap@@ 53073
objects 53063
span 53057
hard@@ 53055
conservative 53052
filmed 53038
Walter 53017
invent@@ 53007
attend 53003
shad@@ 52988
visible 52987
iowa 52968
10-@@ 52967
ising 52960
Broadcasting 52958
nel 52958
lator 52950
tings 52944
tment 52941
hoo@@ 52935
89 52931
IUCN 52890
powered 52881
distinct 52878
maps 52878
scho@@ 52870
lasted 52868
vent@@ 52858
investment 52845
DS 52842
Medical 52809
Oregon 52792
supporting 52791
ik 52779
stayed 52764
emperor 52750
2011-0@@ 52748
pad@@ 52746
passing 52744
sequences 52743
Chil@@ 52718
pictures 52713
tall 52712
wants 52705
Kin@@ 52691
celebrated 52687
runner 52686
Under@@ 52680
etary 52666
Now 52663
1918 52651
Queensland 52647
iser 52641
98 52640
oppon@@ 52635
Bou@@ 52622
Indiana 52620
Santa 52615
poin@@ 52598
Schools 52595
dows 52594
pha@@ 52592
frame 52585
tson 52584
71 52568
bby 52561
turkish 52540
activi@@ 52531
Cin@@ 52530
nik 52527
persons 52524
rong 52521
talks 52511
christ@@ 52509
59 52483
admitted 52479
chel@@ 52429
Memorial 52405
yon 52401
Tai@@ 52396
flag 52387
stitu@@ 52384
gle 52382
negoti@@ 52374
ith@@ 52373
oline 52373
ultimately 52363
cos 52361
hl 52359
colonial 52355
1938 52330
home@@ 52329
factors 52326
84 52325
credits 52323
kh 52318
electoral 52317
really 52309
hair 52308
nickn@@ 52295
Turkish 52293
sized 52281
golf 52276
Between 52271
libr@@ 52267
stages 52261
unable 52260
Arti@@ 52253
Bridge 52249
terr@@ 52246
tham 52238
Digital 52228
Atlantic 52225
CH@@ 52221
Islands 52213
typical 52202
fruit 52196
items 52192
Night 52191
dres@@ 52184
91 52183
elson 52183
shu@@ 52172
accoun@@ 52166
amateur 52160
Hospital 52155
progress 52143
criminal 52137
kom@@ 52125
EXCEL 52122
underground 52122
songwriter 52115
suicide 52112
nad@@ 52102
mic@@ 52087
ays 52086
ean@@ 52065
faith 52050
ingen 52050
avenue 52046
sculp@@ 52043
John@@ 52042
xed 52042
ON@@ 52039
debate 52034
Telegraph 52017
holm 51993
alties 51980
stopped 51980
olo@@ 51973
statement 51942
82 51941
bank@@ 51917
94 51912
ived 51912
etry 51906
pose 51889
separated 51888
vali@@ 51878
anderson 51873
Lyn@@ 51869
berry 51865
96 51864
gres@@ 51861
andre@@ 51829
87 51828
ahead 51827
conf@@ 51811
globe 51810
p's 51808
decades 51807
terminal 51800
blan@@ 51795
treas@@ 51756
invited 51736
km2 51718
crash 51713
ardo 51709
ridge 51643
extra 51629
Transportation 51605
Loc@@ 51580
ty's 51576
lotte 51568
suspec@@ 51561
anc@@ 51548
Anthony 51543
ideas 51538
description 51529
Architec@@ 51527
stal@@ 51524
partnership 51520
accu@@ 51497
polis 51495
Stone 51450
2010-0@@ 51444
duty 51433
occup@@ 51416
suburb 51413
Me 51409
seas 51409
figu@@ 51405
economics 51404
300 51401
Sul@@ 51398
mode 51394
ride 51393
Affairs 51371
fan@@ 51370
97 51369
ES 51317
69 51313
baby 51313
sri 51307
fortun@@ 51298
hope 51298
lem 51284
suffi@@ 51281
sheet 51271
corner 51264
valry 51260
mas 51256
fen@@ 51253
supports 51244
Wisconsin 51240
hart 51239
78 51224
sam 51220
sit 51219
80@@ 51211
cock 51197
viewed 51192
Dan 51187
nings 51186
aga@@ 51183
Harvard 51177
nav@@ 51169
Nature 51168
glu@@ 51165
revised 51161
ros@@ 51153
baltimore 51139
AS 51132
anthony 51123
assu@@ 51120
lippine 51106
iden 51101
stry 51097
cabinet 51093
americ@@ 51063
arena 51047
networks 51046
sanc@@ 51038
Univer@@ 51031
categ@@ 51027
maj@@ 51021
manchester 51009
Fol@@ 50991
duke 50982
eline 50976
effec@@ 50969
guin 50968
regarded 50965
predic@@ 50954
AA 50937
touch@@ 50935
inees 50929
Let@@ 50927
adjacent 50916
providing 50912
Space 50909
eights 50898
Bishop 50878
iver 50873
Dru@@ 50866
boun@@ 50860
inches 50856
magic 50855
floo@@ 50844
cel 50830
ranking 50826
discovery 50818
til 50799
Kam@@ 50779
christopher 50773
lim@@ 50748
yi@@ 50741
handbook 50712
pot@@ 50698
Will 50697
matt 50689
prevent 50687
74 50676
alliance 50670
dream 50666
cine 50661
sto 50660
tribune 50659
harvard 50642
thodox 50642
childhood 50641
handed 50630
opens 50628
Water 50622
Christopher 50611
caught 50596
wai@@ 50594
Av@@ 50593
ya@@ 50592
Pur@@ 50586
demand 50564
erra 50560
tables 50556
universities 50534
Manchester 50518
seems 50512
ion 50511
Howard 50501
believe 50501
etcetera 50491
lier 50488
Jor@@ 50473
tawa 50462
Forest 50450
villa@@ 50441
Ve@@ 50438
immy 50432
specifically 50431
Kal@@ 50426
monthly 50409
atian 50400
Program 50392
alcoho@@ 50390
AM 50386
Channel 50386
technique 50376
umb@@ 50363
mess@@ 50359
Place 50345
hypo@@ 50345
surve@@ 50336
queensland 50334
won@@ 50322
Song 50312
owns 50299
address 50292
anime 50291
classified 50283
Ed 50281
dford 50267
receiving 50260
congres@@ 50255
sin 50250
Professor 50239
iva 50239
occa@@ 50230
ists 50224
sition 50202
arizona 50199
Kevin 50184
speak 50184
Kur@@ 50168
Web@@ 50166
anity 50164
updated 50163
Hot 50156
soil 50147
increasing 50144
jobs 50131
kevin 50127
hara 50117
rator 50082
plot 50081
owa 50064
seri@@ 50062
manufacturing 50057
Miss 50037
centimeters 50022
happy 50020
ature 50004
mart 50004
Euro@@ 50003
severe 49990
visitors 49981
adults 49975
biographical 49975
arily 49973
rea 49955
abor@@ 49954
cular 49950
wayback 49938
protec@@ 49934
acu@@ 49927
sur 49918
finan@@ 49917
adapted 49899
fers 49895
ott 49895
deut@@ 49893
anim@@ 49892
electro@@ 49887
hang@@ 49886
Wayback 49878
accommo@@ 49875
dop@@ 49874
ported 49872
volun@@ 49854
iga 49844
influ@@ 49833
novels 49828
gru@@ 49822
lay@@ 49808
Ef@@ 49788
tably 49780
Ell@@ 49770
atives 49767
onard 49733
ential 49731
beetle 49725
lit 49718
metheus 49718
actors 49714
diego 49710
syl@@ 49706
Corps 49694
imperial 49694
beautiful 49686
journey 49685
Pow@@ 49683
Recor@@ 49682
lu 49681
tary 49662
ogy 49661
endor@@ 49641
importance 49631
ficial 49630
vege@@ 49624
Sri 49610
Beach 49606
uk 49604
ei 49601
haz@@ 49594
legen@@ 49581
uss 49581
estine 49570
anthrop@@ 49569
Contro@@ 49560
meta@@ 49557
Hav@@ 49551
tman 49523
planet 49500
occasionally 49497
inea 49493
ferson 49476
Dam@@ 49474
lows 49472
heal@@ 49467
ulation 49464
staf@@ 49457
Classi@@ 49451
confi@@ 49432
obile 49429
79 49424
simil@@ 49408
ody 49407
essment 49389
1914 49374
flower 49370
markets 49365
missouri 49348
Langu@@ 49345
73 49340
delivered 49338
1937 49334
chant 49333
bly 49332
howard 49326
ulty 49284
enco@@ 49279
.com@@ 49272
newspapers 49272
kov 49263
protected 49263
produces 49252
tribe 49242
Tribune 49240
missi@@ 49239
column 49195
fa 49195
devices 49175
beta 49169
Chem@@ 49166
Down@@ 49152
shir@@ 49145
FA 49136
found@@ 49131
syste@@ 49126
courts 49121
scores 49118
Haw@@ 49113
reveals 49093
2007-0@@ 49089
acion 49076
oming 49066
moun@@ 49065
roots 49062
keeper 49061
MP 49059
productions 49057
teen@@ 49038
Matt 49026
annually 49025
spirit 49017
Organi@@ 49007
rement 49005
bottom 48993
pec@@ 48990
hr@@ 48989
objec@@ 48986
tioning 48968
Rome 48942
ghanistan 48939
Mountain 48931
learned 48930
brigade 48929
Ryan 48928
doub@@ 48919
ezu@@ 48911
satellite 48911
math 48910
torian 48906
swimming 48899
DP 48890
tisti@@ 48887
credit 48878
1919 48876
editions 48857
diffic@@ 48848
afterwards 48846
min 48831
veg@@ 48818
rat 48810
bson 48800
Sin@@ 48793
hus@@ 48793
dged 48786
desh 48782
buil@@ 48781
priest 48779
personnel 48774
Your 48764
pedia 48763
're 48760
jon 48760
oklahoma 48756
Represen@@ 48753
succ@@ 48752
cott 48747
arrang@@ 48735
natur@@ 48723
R.@@ 48702
ogni@@ 48688
hispanic 48683
insula 48680
stors 48671
Then 48669
cust@@ 48663
etc 48662
Py@@ 48642
doors 48641
vocals 48634
Ira@@ 48617
competitions 48617
protect 48612
Class 48602
storage 48602
Fal@@ 48596
streets 48593
leans 48587
painter 48586
expres@@ 48575
hou@@ 48570
mus 48568
Anton@@ 48561
Rus@@ 48550
requires 48550
1935 48543
LA 48541
easy 48530
rolled 48527
Les@@ 48524
Prize 48520
PS 48518
Anne 48505
expec@@ 48501
Mail 48495
determin@@ 48494
wen 48493
Rugby 48492
thetic 48490
Connec@@ 48487
strac@@ 48481
supreme 48478
vens 48461
witz 48461
schedule 48459
ning@@ 48423
Saf@@ 48422
directory 48409
ruled 48405
tugal 48405
cultiv@@ 48399
wars 48398
breaking 48384
stock@@ 48378
ican 48376
summary 48376
mini@@ 48371
estimates 48356
lingu@@ 48351
pairs 48349
opposite 48336
Cour@@ 48327
wear 48325
values 48320
Jonathan 48315
helps 48313
gho@@ 48305
kness 48300
Ass@@ 48287
appeal 48274
ogs 48271
bush 48262
server 48252
observed 48234
Tim@@ 48229
ente 48228
ude 48225
yment 48207
illustra@@ 48203
good@@ 48191
uma 48186
Note 48176
Metro@@ 48170
Nep@@ 48164
Rich@@ 48159
lipp@@ 48158
coastal 48144
canal 48127
licensed 48127
Hispanic 48122
honorary 48107
thur@@ 48094
molecular 48083
rev@@ 48063
oning 48056
expressed 48054
mills 48054
device 48044
livan 48043
Publishers 48042
mund 48039
eded 48017
Anderson 48011
origins 48011
Gordon 48001
tler 47998
Gun@@ 47990
Harry 47988
terior 47985
marketing 47971
comics 47965
Figh@@ 47963
consecutive 47963
hurricane 47951
Champi@@ 47944
bassador 47942
shak@@ 47936
redi@@ 47930
pron@@ 47918
Week 47896
Mount 47895
rolling 47892
ption 47891
ambi@@ 47880
crea@@ 47879
rial 47879
Trust 47876
retained 47872
stro 47865
en's 47861
vor@@ 47855
harry 47853
cus@@ 47841
stran@@ 47839
stown 47826
gazetteer 47815
salt 47803
Sport 47786
understanding 47770
iger 47765
roger 47759
hyper@@ 47758
promote 47755
think 47750
invasion 47749
2012-0@@ 47743
tney 47727
Golden 47721
detroit 47712
cise 47700
Do 47692
require 47692
cow@@ 47681
reaction 47681
para 47674
reaching 47674
pal 47666
kun@@ 47665
C.@@ 47660
chronicle 47635
mah@@ 47628
describes 47612
tank 47609
tili@@ 47599
spoken 47586
legend 47581
attorney 47575
steps 47574
Wood@@ 47572
solar 47572
recipi@@ 47567
finishing 47565
task 47564
oa 47561
elor 47556
ough@@ 47555
printing 47554
gordon 47553
Jane 47551
gardens 47535
cap 47531
Resources 47521
blin@@ 47520
musicians 47512
hu 47505
temperature 47495
rage 47491
strategy 47480
hundreds 47465
ando 47464
scholar@@ 47460
treat 47457
pattern 47450
Staff 47446
collections 47438
illips 47433
steam 47422
affiliated 47418
magaz@@ 47417
vul@@ 47416
fresh@@ 47392
Clark 47391
stop@@ 47390
ebook 47387
vian 47383
campaig@@ 47375
improve 47364
tens 47356
capture 47350
thm 47349
Ever@@ 47345
Poland 47338
compo@@ 47337
circuit 47332
recogni@@ 47332
directors 47329
alg@@ 47323
Baseball 47318
Colon@@ 47312
experim@@ 47304
nak@@ 47299
Gor@@ 47295
gio 47294
Play@@ 47291
Fair@@ 47271
differences 47250
ros 47249
processing 47246
disc 47236
vented 47234
regarding 47228
aron 47227
deal@@ 47227
lawyer 47227
Dur@@ 47210
Web 47202
leg 47188
pan 47176
gation 47167
accused 47160
appe@@ 47137
morph@@ 47135
Ian 47127
recordings 47119
tened 47118
tab@@ 47109
fifties 47101
unities 47099
Our 47092
auth@@ 47091
attached 47089
team@@ 47084
Fro@@ 47080
pick 47075
pole 47052
designer 47049
renew@@ 47049
fecture 47046
ghes 47045
aut@@ 47044
everything 47037
ogan 47024
Death 47019
Christ@@ 47012
butter@@ 46993
yes 46989
tourism 46982
offs 46976
casts 46974
holy 46970
pursu@@ 46962
appropri@@ 46953
erec@@ 46942
Tim 46918
illu@@ 46912
decade 46909
earl 46904
zal@@ 46879
imal 46862
eliminated 46859
kel 46857
Archives 46853
Reser@@ 46840
guitarist 46821
Last 46814
So 46814
fab@@ 46805
concep@@ 46803
carbon 46801
equipped 46801
comb@@ 46791
driving 46776
roll@@ 46770
Main 46759
poems 46750
modified 46739
scen@@ 46729
Village 46713
measures 46705
declined 46702
max@@ 46668
Sav@@ 46659
earning 46655
bec 46629
sky@@ 46629
fi 46600
combination 46596
outs 46573
Vari@@ 46565
//www.@@ 46558
distinguished 46557
Clin@@ 46552
mme 46548
integrated 46543
experi@@ 46535
grades 46521
Eng@@ 46512
teau 46511
resolution 46504
dist 46496
replace 46490
mpi@@ 46480
rinity 46479
eck 46477
swiss 46464
eri 46462
universal 46461
olds 46456
rev 46453
Cemetery 46452
Gazetteer 46451
drop 46445
Ron@@ 46444
sm 46444
tersburg 46438
EP 46426
Philip 46425
Sand@@ 46415
tu 46402
kelly 46383
anga 46381
guil@@ 46369
recon@@ 46358
vy 46354
mith@@ 46338
i'@@ 46328
Cong@@ 46319
Ir@@ 46314
Introduc@@ 46307
Stru@@ 46306
Dave 46300
iden@@ 46299
gym@@ 46294
sar 46293
coverage 46286
dave 46279
pher@@ 46259
dlife 46256
igeria 46253
stad@@ 46243
Complete 46241
antine 46241
gered 46240
yce 46225
eur 46218
inducted 46218
manual 46218
sole 46212
boards 46210
nold 46208
grou@@ 46195
rejected 46195
mys@@ 46186
scop@@ 46179
civili@@ 46166
Hockey 46157
arranged 46146
atmosp@@ 46141
emergency 46130
brook 46128
saf@@ 46125
eron 46118
colonel 46109
mits 46099
formally 46093
semi@@ 46084
explor@@ 46083
Russell 46070
Kan@@ 46061
wooden 46051
Alex@@ 46011
changing 46002
Among 45998
feld 45998
Port 45995
clark 45988
angle 45985
demon@@ 45984
avoid 45976
sad@@ 45970
sely 45968
cathedral 45966
surrounded 45954
athletics 45951
ember 45951
peaked 45943
theore@@ 45921
sung 45914
unlike 45910
chil@@ 45907
Netherlands 45904
bud@@ 45901
circum@@ 45887
suff@@ 45887
purposes 45879
venture 45857
rebuilt 45853
AP@@ 45834
rest@@ 45834
Dol@@ 45833
phen@@ 45831
rio 45831
Douglas 45829
pharmac@@ 45822
Roger 45793
cion 45791
poland 45787
LLC 45786
ckland 45781
chess 45773
elevation 45768
mathema@@ 45743
1933 45732
cally 45729
Ray@@ 45724
aren 45717
douglas 45705
netherlands 45705
ix 45703
jonathan 45701
1912 45699
scar@@ 45697
adop@@ 45693
gray 45687
elli@@ 45685
aspects 45682
Wy@@ 45664
Greg@@ 45660
rh@@ 45659
budd@@ 45653
affili@@ 45648
fixed 45648
prepared 45639
signing 45639
unt 45639
exclusive 45637
carto@@ 45629
well@@ 45625
1929 45619
chamber 45614
engine@@ 45603
demonstra@@ 45600
mean 45584
integra@@ 45580
liner 45564
universi@@ 45557
Kon@@ 45548
psychology 45548
ijing 45525
latino 45508
Sou@@ 45504
relief 45498
icks 45495
assumed 45492
vic 45487
load 45485
Inf@@ 45484
philip 45477
lat@@ 45476
state@@ 45473
asks 45463
premi@@ 45458
grove 45451
Brea@@ 45432
interested 45428
12-@@ 45427
oxy@@ 45411
Building 45404
accompanied 45403
municipalities 45403
Ah@@ 45391
Swiss 45388
Tak@@ 45372
warri@@ 45360
albert 45352
business@@ 45341
On@@ 45335
guid@@ 45313
turn@@ 45294
connecticut 45292
Brun@@ 45291
conten@@ 45287
russell 45279
grass 45271
eries 45268
sbane 45260
reve@@ 45257
Missi@@ 45252
Arizona 45225
window 45217
class@@ 45212
enton 45211
huge 45210
utionary 45206
democra@@ 45202
tress 45195
station@@ 45186
telli@@ 45184
1910 45181
Rap@@ 45180
1917 45179
Patri@@ 45174
tro 45159
add 45152
tari@@ 45151
xes 45144
dorf 45142
kas@@ 45125
worn 45123
favorite 45120
twin 45120
berger 45119
politan 45104
tools 45101
object 45100
battalion 45098
Naz@@ 45097
hospit@@ 45096
Latino 45094
actual 45094
vary 45091
vine 45089
latest 45083
sterdam 45082
Political 45071
DNA 45070
Pun@@ 45066
instruments 45058
Sweden 45041
Lady 45039
abb@@ 45038
dle 45038
chance 45035
Captain 45034
bowl 45030
truth 45014
ardi@@ 45010
experienced 45009
shares 44989
saying 44988
purchase 44985
rescue 44978
giant 44947
elim@@ 44915
ficiency 44913
nity 44894
processes 44892
neu@@ 44885
strial 44880
2013-0@@ 44875
Fel@@ 44850
select 44842
mel 44835
SE@@ 44827
then@@ 44817
binding 44811
videos 44801
Die 44799
surren@@ 44793
turkey 44779
Fron@@ 44773
meant 44772
Bruce 44770
Master 44764
kinson 44763
goods 44759
landing 44751
lap 44743
bruce 44707
Nations 44700
send 44699
itz@@ 44697
liqu@@ 44694
abled 44686
60@@ 44672
1922 44670
amaz@@ 44667
ferred 44656
represen@@ 44650
monument 44649
victims 44645
Dy@@ 44641
seattle 44641
avo@@ 44628
stress 44626
askat@@ 44622
solved 44612
artillery 44605
horses 44576
Gener@@ 44570
rative 44562
Kansas 44547
essor 44545
rows 44544
corporate 44542
compan@@ 44538
dang@@ 44536
achi@@ 44514
Light 44507
popularity 44493
deposi@@ 44468
sisters 44467
sworth 44440
Conserv@@ 44431
news@@ 44431
Engineering 44423
graduating 44415
fordshire 44411
organic 44405
belongs 44377
selec@@ 44365
yu 44365
criticized 44360
rine 44353
edu@@ 44352
modi@@ 44352
Gary 44344
hund@@ 44339
ato 44322
lates 44321
Eth@@ 44320
ju 44313
Avenue 44301
Threatened 44298
1931 44296
1934 44293
Players 44291
anch@@ 44288
cio 44285
ipzig 44284
Junior 44280
sensi@@ 44279
luc@@ 44276
broad 44272
weekend 44262
equivalent 44260
partners 44260
search@@ 44250
difference 44248
Lat@@ 44242
yd 44238
fici@@ 44231
nai 44229
jun@@ 44226
Bom@@ 44222
dialec@@ 44219
endar 44213
alb@@ 44207
eon 44204
kno@@ 44195
deep@@ 44188
bee 44179
pseu@@ 44177
Wall 44172
finance 44171
wind@@ 44161
gregation 44151
volumes 44151
martin@@ 44150
econom@@ 44142
toured 44135
reduce 44134
deliver@@ 44126
Design 44122
safe 44111
experimental 44109
adverti@@ 44099
links 44091
flan@@ 44084
elsen 44073
yal 44069
Castle 44060
Acc@@ 44054
Econom@@ 44050
AI@@ 44047
houston 44046
ume 44043
lawrence 44040
fini@@ 44039
soul 44038
use@@ 44032
Lis@@ 44031
lam 44024
ssic 44000
pati@@ 43993
imprison@@ 43991
rem@@ 43978
Bos@@ 43977
insurance 43977
interests 43966
sum@@ 43959
demolished 43949
ade@@ 43924
Rat@@ 43915
Quar@@ 43901
och@@ 43886
curr@@ 43876
characteristics 43868
model@@ 43858
apped 43856
AL 43848
pig@@ 43837
rity 43820
industries 43816
waukee 43811
temper@@ 43807
rid 43806
ownership 43796
establishment 43791
trying 43782
branches 43779
logy 43778
berra 43770
ass 43741
cav@@ 43741
ening 43733
Don 43725
't 43712
eo 43696
walker 43688
consci@@ 43679
sentenced 43679
Sam 43673
camera 43671
Announ@@ 43668
Fire 43659
rit 43657
Study 43649
Albert 43640
prising 43639
enne 43633
Males 43626
Bet@@ 43612
anie 43604
hole 43604
illiam@@ 43600
1928 43596
committed 43594
Winter 43592
preserved 43587
emed 43579
extrac@@ 43576
rek 43562
Player 43555
alabama 43543
fantasy 43542
ester@@ 43541
expedition 43538
Hamilton 43531
jeff 43512
Rock@@ 43506
yam@@ 43503
adel@@ 43502
incinnati 43497
compilation 43496
inspec@@ 43485
olo 43481
depression 43476
Davi@@ 43467
louisiana 43439
crossing 43424
tea 43419
uncle 43413
earing 43404
alysis 43396
1932 43395
toral 43395
Moore 43392
grows 43377
larvae 43366
looks 43362
reign 43355
opportunity 43343
controversy 43340
prisoners 43340
mounted 43330
Ima@@ 43318
Isla@@ 43310
enters 43310
plain 43307
Jeff 43301
sation 43298
NA 43296
gur@@ 43292
nal 43292
ures 43288
contested 43281
circle 43275
Children 43270
arity 43266
somewhat 43260
charity 43259
Kim 43242
tag 43242
Turkey 43241
premiere 43234
ographi@@ 43232
stel@@ 43232
subur@@ 43228
collins 43226
engal 43226
solid 43226
personality 43223
zen@@ 43223
components 43215
ayan 43207
significantly 43200
sang 43193
publisher 43190
Tel@@ 43186
Foreign 43185
fielder 43185
Ja@@ 43180
dynasty 43166
wic@@ 43163
photography 43158
sweden 43155
scheme 43152
distribu@@ 43144
architectural 43143
khan 43123
Moscow 43121
Fo@@ 43113
enture 43110
rub@@ 43103
voiced 43097
struck 43095
Philippines 43093
Territorial 43093
subjects 43075
teor@@ 43072
medic@@ 43066
teries 43064
stones 43057
Chronicle 43054
acional 43050
Duke 43037
harbor 43026
resses 43019
dogs 43006
alis 43000
lif@@ 42995
Jen@@ 42994
flies 42993
volunte@@ 42981
Ari@@ 42966
owe 42963
dition 42948
kent 42940
twor@@ 42925
kaz@@ 42924
alex 42912
kills 42910
sers 42904
Alex 42900
tot@@ 42892
Bell 42891
aps 42889
world's 42889
Revolution 42885
acces@@ 42882
1911 42880
sica 42875
backs 42872
Rid@@ 42866
Academ@@ 42865
atlas 42865
Techn@@ 42855
rob@@ 42851
alogue 42850
400 42833
miami 42827
Norway 42826
volleyball 42826
authors 42818
Cen@@ 42803
PC 42800
injuries 42787
Bab@@ 42783
virus 42773
Matthew 42765
AN 42751
possibly 42747
administ@@ 42740
1927 42736
counter@@ 42734
portrayed 42725
adi 42724
extra@@ 42702
mcc@@ 42685
bio 42680
Communications 42662
moscow 42660
accounts 42658
Budd@@ 42652
Kil@@ 42649
philippines 42643
Sarah 42631
absor@@ 42623
tained 42620
terranean 42620
OS 42615
cast@@ 42613
Regional 42601
ior 42589
executed 42587
wildlife 42587
later@@ 42586
liance 42585
strugg@@ 42578
ordinary 42574
11-@@ 42571
perfect 42556
fifa 42554
bear 42551
receives 42550
hamilton 42546
plate 42542
Mir@@ 42522
Mcc@@ 42515
bright 42513
defensive 42510
fies 42508
austin 42507
aming 42501
sud@@ 42499
Five 42478
param@@ 42462
Rights 42458
U.@@ 42452
leagues 42447
portland 42446
akh@@ 42437
friendly 42420
oks 42409
Box 42386
losses 42383
chew@@ 42379
deter@@ 42376
esday 42374
tre 42370
Red@@ 42356
tellec@@ 42356
Grea@@ 42353
Missouri 42348
Transport 42341
stitute 42329
Reference 42319
genes 42301
menian 42285
ther's 42279
Sau@@ 42273
message 42272
wheel 42268
holders 42265
CC 42262
sum 42260
Tou@@ 42244
matthew 42237
pain 42235
Offic@@ 42234
blues 42229
mou@@ 42221
happened 42212
occupation 42194
rounds 42191
Thor@@ 42185
buck@@ 42181
ombia 42179
formula 42169
Var@@ 42166
anus 42142
gly@@ 42142
pittsburgh 42136
kie 42130
stria 42126
1921 42124
metro 42123
styles 42120
hr 42105
Singapore 42100
tivals 42098
contributions 42095
Harris 42094
tford 42090
moore 42069
abad 42062
nel@@ 42060
creative 42058
frag@@ 42045
Express 42034
talent 42034
ulu 42034
nancy 42033
buy 42028
clay 42025
zu 42017
lakes 42015
cycli@@ 42014
cape 42010
buses 41992
medals 41982
relationships 41975
sarah 41975
concerts 41970
texts 41961
document 41941
cross@@ 41938
ink 41938
boundary 41933
oon 41927
tack@@ 41927
shment 41917
Indu@@ 41916
definition 41912
youngest 41912
landscape 41911
Kat@@ 41903
advantage 41902
roughly 41890
laboratory 41883
duo 41881
descent 41880
aribbean 41861
Charts 41859
Max 41838
czech 41838
Bay@@ 41837
Cab@@ 41832
classi@@ 41831
wedding 41826
nucle@@ 41815
unve@@ 41813
FIFA 41801
drafted 41801
inging 41801
allas 41800
TER@@ 41799
learn 41790
jew@@ 41789
artistic 41787
tine 41787
turning 41787
drugs 41781
measure 41773
equal 41757
End 41753
Batt@@ 41750
ark 41742
ceased 41737
agents 41736
Jour@@ 41734
biological 41731
sday 41724
ampa 41704
Search 41694
inder 41688
jason 41686
oke 41679
Plant 41667
cov@@ 41662
confir@@ 41655
Globe 41651
NS@@ 41639
Songs 41638
stim@@ 41637
Jason 41635
hns 41625
Albums 41615
ould 41611
Czech 41608
C- 41599
alizes 41585
Slo@@ 41581
Institu@@ 41580
appointment 41580
Sym@@ 41568
astro@@ 41559
dinal 41554
tron@@ 41546
ocks 41544
alition 41527
amy 41523
partic@@ 41523
advan@@ 41512
mé@@ 41509
introduc@@ 41506
slow@@ 41503
mck@@ 41496
Tex@@ 41490
Ford 41486
sui@@ 41483
gas@@ 41478
communist 41476
inde@@ 41475
boss 41469
gosla@@ 41453
harris 41448
Pet@@ 41437
ired 41437
chers 41435
ffin 41435
bomb 41419
prehensive 41417
trading 41412
celona 41407
thereafter 41407
fs 41399
collaboration 41396
ais 41384
gold@@ 41374
1925 41372
resol@@ 41365
Lawrence 41363
advertis@@ 41350
Fam@@ 41339
evertheless 41337
athletes 41326
Samuel 41324
ival 41324
Comman@@ 41318
Back 41312
strom 41294
rons 41292
1908 41285
1926 41276
Cho@@ 41273
i's 41244
samuel 41235
Gul@@ 41229
alla 41226
wen@@ 41226
pers 41223
volcan@@ 41220
inning 41215
photo 41211
Handbook 41208
Weekly 41207
ennial 41195
controversial 41185
thre@@ 41180
Thus 41176
RI@@ 41174
Tour@@ 41171
quo@@ 41166
Ot@@ 41165
girl@@ 41158
rington 41156
ony@@ 41151
encyclopaedia 41147
praised 41135
regulation 41134
1924 41131
ske 41125
iles 41123
masters 41119
commerci@@ 41115
concrete 41107
este@@ 41103
gi 41103
contrast 41093
mexican 41086
orph@@ 41081
neut@@ 41079
ttoman 41077
quake 41068
Walker 41067
jet 41063
norway 41063
replacement 41060
requirements 41031
leaf 41027
ovo 41026
stra 41020
Baltimore 41009
Anti@@ 40999
wrest@@ 40992
denied 40975
Kelly 40973
iny 40968
Mck@@ 40956
makeup 40936
ptian 40932
stances 40924
guy 40916
ino@@ 40914
pin 40913
yale 40903
duties 40896
racial 40894
Mexican 40892
Ath@@ 40878
Dri@@ 40869
driven 40869
anne@@ 40861
enger 40855
sequently 40852
shan 40833
shoo@@ 40825
Diego 40820
dine 40820
Good 40818
Brow@@ 40815
film@@ 40815
Head 40803
wig 40803
Kentucky 40798
Adel@@ 40793
nau@@ 40790
anning 40784
practices 40780
ager 40766
authori@@ 40762
tied 40758
teer 40746
longest 40729
phony 40718
Progra@@ 40716
rew 40712
establish 40705
eck@@ 40698
syndrome 40674
invi@@ 40673
snow 40672
tas 40653
danish 40652
essential 40651
Fle@@ 40646
mad 40646
athon 40630
Detroit 40619
hill@@ 40611
chlor@@ 40609
frac@@ 40606
Kei@@ 40596
narrow 40592
charter 40587
hat 40577
jon@@ 40577
stroke 40555
petro@@ 40545
request 40530
clea@@ 40527
parallel 40527
singapore 40518
Third 40513
sponsored 40512
Thompson 40509
Winners 40502
Former 40494
ABC 40491
existed 40491
ebra@@ 40490
Water@@ 40488
ading 40486
responsibility 40481
ricul@@ 40481
eting 40478
ficient 40478
frequency 40472
causing 40469
oga 40465
tah 40462
oli 40450
ito@@ 40445
operational 40442
Evol@@ 40441
hibit 40439
Real 40433
mamm@@ 40428
offensive 40423
etta 40421
emen 40416
Rab@@ 40410
Point 40390
itz 40380
1915 40362
option 40355
practic@@ 40354
makers 40344
satis@@ 40331
Sho@@ 40330
norman 40307
lux@@ 40302
mort@@ 40281
assin@@ 40280
evolutionary 40280
license 40275
1916 40263
uster 40255
settlements 40248
Once 40247
cousin 40247
attracted 40238
successor 40234
blocks 40231
rapidly 40224
Gallery 40219
riding 40219
phra@@ 40218
utah 40217
Nick 40203
150 40201
quanti@@ 40200
appar@@ 40199
NFL 40191
behavi@@ 40183
decides 40179
pg 40176
Security 40163
guilty 40163
patient 40163
restoration 40162
mass@@ 40161
attle 40155
lip 40154
synthesis 40150
feat 40149
theatre 40124
és 40124
raj@@ 40118
banded 40114
photos 40107
dell 40102
cury 40101
simul@@ 40101
dependent 40100
navig@@ 40093
chiat@@ 40080
ander 40062
nam 40058
titu@@ 40057
illa@@ 40055
Regi@@ 40054
Danish 40053
Cultural 40052
eau 40051
legislature 40042
Housing 40028
Dal@@ 40027
Ray 40026
stac@@ 40025
borders 40023
suggests 40020
Edinburgh 40013
esc@@ 40012
ks@@ 40006
Chapter 39987
Site 39983
breaks 39977
alizing 39973
ecu@@ 39965
depending 39952
ru 39948
Colorado 39941
filed 39939
ez@@ 39937
suspended 39936
io@@ 39932
Index 39928
phon@@ 39927
functional 39925
sail@@ 39925
verte@@ 39925
Executive 39895
1923 39882
studying 39879
frederick 39870
pit 39870
commemor@@ 39862
gence 39851
principles 39851
dual 39849
showing 39846
ega 39844
edo 39831
man's 39815
haus@@ 39813
anese 39804
1913 39803
certified 39802
Stre@@ 39779
murray 39773
colleges 39762
neo 39762
normally 39762
obli@@ 39761
vessels 39752
Supreme 39738
maintain 39737
historian 39732
clone 39725
strongly 39712
dum 39711
summ@@ 39711
projec@@ 39710
speaker 39703
entering 39702
Premier 39700
tide 39700
criticism 39697
Economic 39691
greatly 39687
Leb@@ 39682
mississippi 39681
ency 39680
199@@ 39676
ovic 39673
colony 39670
turing 39663
done@@ 39653
thompson 39644
té 39637
Way@@ 39633
vement 39626
emig@@ 39624
ting@@ 39624
monastery 39622
limit 39615
Frederick 39610
aissance 39569
beg@@ 39562
hibit@@ 39562
cave 39561
panel 39552
mption 39541
hatt@@ 39536
protest 39535
scholars 39532
fictional 39527
AD 39520
sfield 39516
Medal 39514
igi@@ 39504
Publi@@ 39496
edinburgh 39485
issa 39482
LE@@ 39478
rs 39478
ruption 39461
reven@@ 39456
c's 39451
treaty 39447
Reviews 39435
otherwise 39431
miral 39428
unusual 39426
every@@ 39418
nu 39416
assistance 39410
funded 39410
shopping 39397
Energy 39393
chich@@ 39393
pical 39384
site@@ 39384
rin 39378
considerable 39377
bear@@ 39372
Oklahoma 39358
fung@@ 39351
update 39350
alize 39349
lind@@ 39348
vec@@ 39337
covering 39330
lims 39330
sors 39326
sight 39325
associate 39323
continental 39320
Encyclopaedia 39319
inist 39306
Deu@@ 39289
everyone 39288
annon 39276
morgan 39264
ferences 39261
capit@@ 39242
threat 39222
UC@@ 39216
enzyme 39208
thal 39185
cler@@ 39184
iving 39181
tributary 39180
compla@@ 39176
extreme 39174
verlag 39148
christmas 39146
app 39143
dier 39140
hunt 39140
overy 39137
stants 39129
gues 39125
keeping 39124
beauty 39114
horn 39112
symp@@ 39110
utes 39109
Christmas 39104
apart 39095
myth@@ 39094
manufactured 39093
decline 39091
trans 39090
coaching 39084
col 39068
defini@@ 39068
none 39064
scand@@ 39058
cist 39053
rum@@ 39038
geor@@ 39037
tiles 39033
onym@@ 39032
AP 39030
aca 39016
bul 39011
bund@@ 39008
onda 39007
expan@@ 39003
ovi@@ 38990
universe 38976
traveled 38974
pow@@ 38954
rapid 38953
poem 38942
populations 38940
trophy 38937
enhan@@ 38936
awar@@ 38927
umbai 38923
racks 38914
bassy 38913
nandez 38913
clif@@ 38911
jane 38911
Scienti@@ 38907
Egypt 38905
agan 38902
Som@@ 38901
formers 38898
Illu@@ 38894
Bad@@ 38893
Ann 38888
Ross 38884
ain@@ 38872
kop@@ 38870
thy@@ 38866
bron@@ 38865
predomin@@ 38858
legislation 38853
commonwealth 38847
metho@@ 38840
activated 38838
eggs 38833
critic 38832
lincoln 38814
Buil@@ 38812
kha@@ 38811
hed@@ 38805
Ini@@ 38802
obitu@@ 38798
kla@@ 38795
animated 38784
Tha@@ 38783
lite@@ 38781
arrest 38777
Prime 38773
func@@ 38764
ail 38761
helicop@@ 38753
Spring 38748
arrival 38747
rocks 38743
tter@@ 38732
Ay@@ 38725
Temple 38717
neigh@@ 38715
pioneer 38710
mack@@ 38697
Vis@@ 38686
extinct 38683
ilers 38680
ceram@@ 38670
movements 38668
eremy 38664
5000 38649
channels 38639
gee 38635
cash 38633
aton 38626
eo@@ 38623
acci@@ 38621
river@@ 38616
ebrew 38613
chari@@ 38609
allowing 38602
imm@@ 38593
quebec 38588
listing 38586
Band 38582
tron 38580
tsch@@ 38571
correspond@@ 38560
fighters 38550
DE@@ 38538
virtual 38509
revenue 38504
ii 38488
springs 38484
sci@@ 38481
cester 38479
e.@@ 38475
fus@@ 38474
Mea@@ 38473
patterns 38470
urus 38462
guez 38457
iti 38449
maintenance 38445
kilometres 38442
Because 38439
vs 38437
tem 38435
element 38434
year@@ 38429
notic@@ 38426
Legislative 38424
summit 38420
ranks 38403
vessel 38401
steven 38400
eness 38394
hist 38391
fled 38390
voting 38386
SI@@ 38379
birthday 38378
helm 38375
seek 38368
hunting 38359
children's 38350
graded 38342
dele@@ 38336
erie 38334
Future 38331
Authority 38329
barbara 38328
Ful@@ 38324
bre 38314
Switzerland 38312
ante@@ 38308
Donald 38307
Steven 38304
platforms 38302
dering 38299
diver@@ 38286
where@@ 38286
King@@ 38284
ladi@@ 38284
Nelson 38282
fried@@ 38281
hori@@ 38271
Lincoln 38266
shoot 38258
elds 38256
Tokyo 38255
goal@@ 38253
ffs 38247
eae 38245
raising 38242
ciple 38240
exists 38232
graduation 38226
reputation 38223
bycidae 38220
Son@@ 38217
knight 38204
det 38201
defending 38200
tet 38182
inter 38181
tening 38180
conce@@ 38177
frequent 38171
Nag@@ 38163
shol@@ 38162
detailed 38160
Barbara 38144
Through 38138
oh 38121
Collection 38118
characterized 38118
tokyo 38111
1905 38093
guer@@ 38092
It@@ 38077
facing 38074
Americans 38072
lined 38072
transit 38072
neil 38070
iff 38069
influential 38060
transmission 38060
Rose 38052
finding 38052
perhaps 38047
conserv@@ 38036
dens 38035
yar@@ 38035
innings 38032
Website 38028
dol 38026
context 38022
tumn 38022
F.C 38005
oe 38003
NE@@ 38002
hl@@ 38001
maine 37996
anapolis 37981
Identi@@ 37977
opport@@ 37974
Democra@@ 37971
happ@@ 37964
ura@@ 37963
weigh@@ 37956
Upon 37949
linear 37947
meanwhile 37942
lean 37941
Eag@@ 37940
scope 37934
Grant 37927
Stock@@ 37927
Here 37923
ische 37915
teach@@ 37912
tious 37888
uro@@ 37883
qi 37880
favor 37873
23@@ 37870
Rad@@ 37862
raid 37858
Directory 37847
atlanta 37831
americans 37828
sop@@ 37823
divorced 37820
garia 37815
Neu@@ 37808
essing 37807
3-0@@ 37802
oulder 37792
adams 37790
Emer@@ 37789
eville 37777
Systems 37776
Kent 37775
skating 37775
desert 37774
tunnel 37767
eb 37766
grandfather 37766
switzerland 37764
vals 37746
recovered 37738
sculpture 37737
Cape 37734
And@@ 37704
capable 37704
wal 37703
woo@@ 37703
surviving 37702
Whe@@ 37699
traded 37696
releg@@ 37694
walking 37691
cannot 37688
tinum 37687
venue 37686
atia 37676
ference 37675
juris@@ 37675
soldi@@ 37670
completion 37669
Long@@ 37665
stats 37658
Imp@@ 37649
Sev@@ 37649
simu@@ 37648
petition 37647
download 37646
Esti@@ 37623
assault 37615
reci@@ 37613
ci 37611
drawing 37610
derson 37599
puni@@ 37593
Commonwealth 37592
Norman 37591
ship@@ 37588
cers 37583
antonio 37575
Be 37573
jected 37567
don't 37566
identification 37562
sugar 37560
fill 37559
evil 37557
Kol@@ 37545
cool@@ 37544
alive 37530
boro 37530
perior 37528
Princeton 37523
get@@ 37522
gel@@ 37519
Adams 37516
oto 37511
ologists 37508
gab@@ 37506
fresh 37505
Sound 37492
peti@@ 37484
ulum 37482
fl@@ 37475
appearing 37472
Standard 37463
abroad 37457
accompli@@ 37454
widespread 37439
cric@@ 37435
bes@@ 37428
Murray 37413
remo@@ 37408
AT 37390
NY 37384
wayne 37375
phenom@@ 37374
gradually 37373
tiz@@ 37365
massive 37360
ordin@@ 37356
bears 37354
You@@ 37350
chment 37337
aly 37330
thermore 37330
THE 37329
liga 37315
singh 37314
farmers 37310
electrical 37307
descend@@ 37306
princeton 37297
teg@@ 37296
Collec@@ 37293
Race 37293
chy 37282
famili@@ 37279
dag@@ 37275
housed 37272
reaches 37272
dallas 37271
dee 37262
raise 37262
az 37250
tested 37248
hugh 37247
sket@@ 37247
filming 37245
terial 37244
Robinson 37242
increases 37241
memb@@ 37233
punk 37227
basin 37225
pope 37220
lek@@ 37208
expo@@ 37199
sias@@ 37190
Austria 37180
mechanical 37179
allo@@ 37172
algori@@ 37165
stric@@ 37152
dus 37148
donated 37141
apparently 37131
embar@@ 37110
struggle 37103
repla@@ 37086
meetings 37085
arrives 37062
smoo@@ 37061
imum 37051
portrait 37045
rival 37045
repren@@ 37031
proposal 37026
Universi@@ 37021
occasions 37018
habit@@ 37006
indigenous 37003
Syn@@ 37001
rica 36991
depth 36965
Campbell 36962
HL 36960
ag 36959
gomery 36949
voy 36949
Shu@@ 36941
hunter 36934
overview 36929
Rho@@ 36925
tamil 36925
xi 36925
Politics 36917
Sea@@ 36916
deaths 36915
tool 36914
thes 36905
increas@@ 36859
Moun@@ 36822
jury 36782
friend@@ 36635
binson 36631
amples 36598
ake 36529
defin@@ 36510
photogra@@ 36508
inspi@@ 36474
keep@@ 36463
ady 36224
Hum@@ 36214
midd@@ 36160
tsburgh 36127
iness 36117
compon@@ 36096
wise 36095
rand 36064
contro@@ 36026
enty 36020
credi@@ 36016
colon@@ 36009
commer@@ 35982
shap@@ 35888
hap@@ 35881
lars 35814
2-0@@ 35775
quarters 35753
succe@@ 35684
adron 35657
tit@@ 35491
mitte@@ 35429
stem 35412
ssippi 35394
uel 35363
establi@@ 35345
Nav@@ 35319
Rog@@ 35306
academ@@ 35305
sof@@ 35236
educ@@ 35214
ves@@ 35174
unity 35169
eme 35154
osoph@@ 35053
ested 34931
tually 34904
contra@@ 34877
ona@@ 34834
disea@@ 34826
enge 34799
pain@@ 34793
> 34718
Pr@@ 34582
forman@@ 34578
there@@ 34545
weap@@ 34507
chur@@ 34481
ditional 34476
appoin@@ 34459
lew@@ 34456
eval 34273
Med@@ 34232
isiana 34198
Swe@@ 34167
enni@@ 34161
atab@@ 34159
fiel@@ 34156
Rou@@ 34115
pione@@ 34019
architec@@ 33974
edy 33954
denti@@ 33880
Cul@@ 33870
thema@@ 33767
Ale@@ 33716
tionally 33648
divor@@ 33477
sug@@ 33354
elop@@ 33325
lik@@ 33315
oned 33291
signific@@ 33254
week@@ 33159
Law@@ 33088
vent 33088
chase 33034
Tea@@ 33028
restaur@@ 33004
invest@@ 32999
ley@@ 32913
dney 32766
penn@@ 32725
terature 32711
song@@ 32643
twenti@@ 32495
eton 32453
impro@@ 32384
descen@@ 32379
nic 32375
Terri@@ 32293
tivi@@ 32286
Auth@@ 32248
monum@@ 32196
gir@@ 32096
eased 32041
possi@@ 32035
dios 32030
Jus@@ 31995
rescu@@ 31937
immedi@@ 31932
occer 31881
eutenant 31835
munic@@ 31765
gradu@@ 31649
fore 31645
jects 31591
Glo@@ 31535
indepen@@ 31532
cath@@ 31502
orge 31436
ticut 31398
Kel@@ 31389
peror 31372
antry 31357
unic@@ 31198
liter@@ 31143
ellow 31121
shop@@ 31110
electron@@ 31082
control@@ 31081
alu@@ 31077
azz 30982
fili@@ 30932
thea@@ 30799
albu@@ 30733
contin@@ 30686
environ@@ 30641
bai 30536
Fore@@ 30511
enem@@ 30506
tatives 30476
fect 30411
Cath@@ 30404
poses 30387
aul 30342
ketball 30284
perial 30270
Wom@@ 30246
ceremon@@ 30204
Tem@@ 30145
iger@@ 30087
beth 30038
fif@@ 30022
ij@@ 30018
Lit@@ 29995
sonal 29975
therap@@ 29960
twork 29953
free@@ 29893
olished 29868
LL@@ 29855
riage 29813
cians 29802
strali@@ 29754
mming 29733
Mill@@ 29562
gency 29559
stly 29530
aller 29519
.C 29500
Il@@ 29438
_@@ 29426
tournam@@ 29339
lanta 29295
adem@@ 29293
sour@@ 29282
rough 29245
licen@@ 29235
communic@@ 29222
mpic 29194
ois 29188
kee 29168
icles 29161
pha 29058
tieth 28901
oot 28879
alian 28833
ricane 28826
Stand@@ 28818
istan 28748
Princ@@ 28703
Enter@@ 28687
incorpor@@ 28667
lements 28639
requi@@ 28583
cover@@ 28547
ribu@@ 28434
illion 28433
rop@@ 28363
philosoph@@ 28301
9-0@@ 28300
power@@ 28216
itu@@ 28201
way@@ 28143
hysi@@ 28015
thly 27898
fou@@ 27892
Hand@@ 27889
Manag@@ 27881
lap@@ 27767
hind 27727
organiz@@ 27709
Chron@@ 27642
Dig@@ 27587
gade 27549
7-0@@ 27527
manufac@@ 27489
poten@@ 27379
milit@@ 27370
oot@@ 27322
Colum@@ 27272
bourne 27222
labor@@ 27174
tech@@ 27161
surg@@ 26989
Comple@@ 26965
Thir@@ 26899
inet 26880
follow@@ 26727
prison@@ 26689
favor@@ 26652
happen@@ 26652
Mos@@ 26511
Dav@@ 26486
distin@@ 26430
mean@@ 26407
vid 26369
orial 26344
atta@@ 26335
apolis 26312
cyclo@@ 26281
Sep@@ 26196
archi@@ 26166
usual 26130
spap@@ 26097
Wis@@ 26089
eled 26089
wed@@ 26026
Clu@@ 25985
Engine@@ 25942
lyn 25934
resp@@ 25927
igan 25885
diag@@ 25872
brou@@ 25778
Ox@@ 25765
wealth 25676
bloc@@ 25667
ems 25649
easi@@ 25605
chair@@ 25596
jap@@ 25567
tement 25504
attac@@ 25484
lywood 25437
stin 25423
< 25403
intere@@ 25322
stored 25322
situ@@ 25303
Egy@@ 25289
conflic@@ 25202
Premi@@ 25057
pak@@ 25033
jour@@ 25012
antas@@ 24847
dying 24826
ticism 24822
iss@@ 24801
Hous@@ 24736
telligence 24722
TH@@ 24667
eli 24619
religi@@ 24617
inst 24605
ove 24505
minal 24436
dex 24353
uti@@ 24303
lish 24244
puty 24151
scape 24103
Civi@@ 23986
onds 23969
Mach@@ 23968
ult 23958
strong@@ 23956
entually 23944
hous@@ 23915
perman@@ 23788
duce 23739
aspec@@ 23693
artic@@ 23554
Cent@@ 23534
rested 23505
ril 23488
thedral 23485
rapi@@ 23457
him@@ 23310
tact 23253
chestra 23178
six@@ 23178
promin@@ 23147
Foot@@ 23108
wered 23094
cere@@ 23070
ego 23045
ounding 22937
cidae 22887
entu@@ 22833
tware 22783
alion 22739
olic 22734
trea@@ 22650
www.@@ 22475
etro@@ 22363
gal 22300
chang@@ 22273
Fir@@ 22213
four@@ 22118
isi@@ 21988
Oly@@ 21949
rict 21929
industri@@ 21827
legisla@@ 21820
politici@@ 21816
_ 21801
omas 21786
sionally 21786
//@@ 21778
advant@@ 21711
issance 21678
inclu@@ 21632
yond 21630
relea@@ 21628
Eas@@ 21579
aband@@ 21546
metro@@ 21472
eared 21458
ffic@@ 21434
alifor@@ 21327
Pak@@ 21299
Legisla@@ 21189
ually 21118
princip@@ 21083
Ok@@ 21081
insul@@ 21047
casting 21003
debu@@ 20990
employe@@ 20908
stics 20824
junc@@ 20686
liamentary 20685
umes 20676
senten@@ 20650
tish 20634
fres@@ 20630
mated 20586
seven@@ 20576
evid@@ 20555
Foun@@ 20546
rements 20465
antasy 20446
tworks 20430
incol@@ 20300
graph 20286
guit@@ 20281
wash@@ 20231
Dic@@ 20218
adver@@ 20216
teenth 20194
deg@@ 20166
Tech@@ 20156
monas@@ 20154
PD@@ 20134
footb@@ 20125
tau@@ 20125
Heal@@ 20107
wom@@ 20106
estig@@ 20061
ork@@ 20035
ael 20003
ople 19991
expe@@ 19973
ford@@ 19973
istry 19961
oman 19959
ghout 19937
Offi@@ 19918
claim@@ 19893
distric@@ 19856
dez 19830
ocese 19773
llery 19752
candi@@ 19697
Develop@@ 19651
Secre@@ 19618
burgh 19608
approx@@ 19585
schol@@ 19584
aven@@ 19546
Revi@@ 19501
individu@@ 19318
youn@@ 19269
omp@@ 19263
birth@@ 19237
ilton 19228
ject 19217
dipl@@ 19207
allow@@ 19202
honor@@ 19161
phar@@ 19092
purchas@@ 19092
dership 19070
ecular 19039
scul@@ 18978
ergy 18960
ept 18920
yland 18825
havi@@ 18805
ason 18779
kilome@@ 18757
feat@@ 18745
combin@@ 18715
ival@@ 18711
rom 18705
surance 18638
beau@@ 18448
incre@@ 18442
iced 18425
statis@@ 18421
0-0@@ 18404
rism 18300
ive 18297
Americ@@ 18287
commis@@ 18253
Administ@@ 18240
Town@@ 18222
ondary 18221
tino 18219
Communic@@ 18139
Emp@@ 18132
sugg@@ 18035
ought 18022
coura@@ 18008
Feder@@ 17996
ld 17985
offen@@ 17968
requ@@ 17943
quick@@ 17920
enth 17887
univer@@ 17785
vide@@ 17740
proper@@ 17677
Cast@@ 17635
attemp@@ 17634
vely 17571
Grou@@ 17565
heav@@ 17535
aila@@ 17530
stems 17492
techni@@ 17381
torney 17297
ied 17279
twel@@ 17261
drome 17218
gom@@ 17211
success@@ 17207
arran@@ 17189
deo 16951
km@@ 16926
sound@@ 16881
frequ@@ 16814
keting 16637
Cz@@ 16626
availa@@ 16597
rance 16594
recor@@ 16561
tled 16543
rics 16515
Tele@@ 16506
Sci@@ 16394
icide 16381
centi@@ 16308
vince 16264
ampi@@ 16254
extre@@ 16254
toria 16149
` 16053
Maj@@ 16024
198@@ 16004
Camp@@ 15988
fth 15970
lowing 15963
Corpor@@ 15916
tionary 15871
house@@ 15773
child@@ 15760
repu@@ 15712
usu@@ 15671
incor@@ 15669
responsi@@ 15625
gress 15611
dividu@@ 15588
plat@@ 15556
Tok@@ 15459
pment 15444
regar@@ 15415
reds 15397
ility 15394
tann@@ 15387
gative 15368
shion 15305
inva@@ 15281
surr@@ 15257
shers 15229
russi@@ 15206
eved 15175
thous@@ 15091
seu@@ 15032
dicated 15028
reau 15010
offici@@ 14991
ocra@@ 14915
forts 14912
bean 14899
guished 14848
Mili@@ 14805
equi@@ 14792
offi@@ 14763
necess@@ 14557
ount 14555
schedu@@ 14505
other@@ 14483
Penn@@ 14376
mpics 14355
giv@@ 14354
cept 14308
iversary 14295
norm@@ 14231
Villa@@ 14220
aniel 14202
Archi@@ 14098
treat@@ 14068
materi@@ 14059
oppo@@ 13981
micha@@ 13922
Moder@@ 13880
design@@ 13799
EX@@ 13605
dential 13529
evin 13527
2011-@@ 13475
wth 13457
ockey 13363
mosp@@ 13342
respond@@ 13298
terns 13286
issu@@ 13206
rish 13188
Youn@@ 13129
liam@@ 13042
overn@@ 13020
decla@@ 12992
member@@ 12967
dep@@ 12948
Anth@@ 12942
posal 12714
orig@@ 12604
oran@@ 12540
prehen@@ 12466
extinc@@ 12428
cow 12371
applic@@ 12338
oward 12215
domes@@ 12163
fig@@ 12160
ispan@@ 12157
massi@@ 12155
hosp@@ 12109
Week@@ 12078
overed 12075
occu@@ 12038
satelli@@ 12020
thur 12007
urity 11966
popular@@ 11945
ause 11928
Public@@ 11840
world@@ 11830
kish 11815
rough@@ 11809
ongs 11774
lor 11763
common@@ 11762
televi@@ 11753
regis@@ 11729
aylor 11696
beet@@ 11634
zine 11589
ength 11516
milar 11484
ision 11438
leges 11430
Lew@@ 11422
deliv@@ 11415
fered 11388
bass@@ 11375
nership 11279
coast@@ 11108
elem@@ 11101
accomp@@ 11084
bara 11063
cous@@ 11012
lems 10960
isting 10875
fail@@ 10862
cident 10784
ffic 10773
commo@@ 10707
como@@ 10687
zig 10643
efly 10636
critici@@ 10463
utiful 10375
communi@@ 10357
rench 10351
restor@@ 10247
ources 10189
ools 10155
minist@@ 10084
rence 10058
Dut@@ 10047
exis@@ 9943
~ 9910
seum 9876
Fes@@ 9862
mith 9758
icle 9740
arist 9653
tegy 9591
alab@@ 9557
repres@@ 9443
ince 9406
cil 9362
Govern@@ 9301
larly 9251
resul@@ 8987
wau@@ 8940
derick 8844
timately 8843
cis 8790
sary 8782
crete 8731
imately 8711
197@@ 8707
staur@@ 8669
stian 8656
chann@@ 8653
icop@@ 8625
BN 8587
Maga@@ 8518
sylvania 8469
genous 8430
eles 8344
Limi@@ 8300
sugge@@ 8087
sored 8057
erica 8030
dynas@@ 8000
Hosp@@ 7980
iversity 7946
pically 7939
champion@@ 7746
alco@@ 7709
ocratic 7696
olina 7585
capac@@ 7571
previ@@ 7555
controversi@@ 7538
dial@@ 7503
municip@@ 7363
partment 7342
vard 7326
rican 7276
fically 7241
leyball 7184
atre 7084
equival@@ 7019
tenant 7014
ehold 6988
lightly 6986
selves 6908
veh@@ 6904
dox 6894
ilian 6822
gely 6778
thew 6741
tainment 6739
charac@@ 6678
eces 6650
195@@ 6639
DV@@ 6614
icro@@ 6597
signi@@ 6528
uries 6498
Swit@@ 6420
reland 6413
near@@ 6361
bane 6330
Wash@@ 6305
196@@ 6269
throu@@ 6254
nine@@ 6253
edia 6151
uscri@@ 6115
mob@@ 6049
fairs 6013
langu@@ 5933
compi@@ 5816
osen 5803
make@@ 5781
urch 5761
import@@ 5744
alth 5741
kyo 5729
Albu@@ 5727
wro@@ 5602
ebru@@ 5579
amate@@ 5562
kilomet@@ 5562
haps 5547
phia 5507
espec@@ 5493
cyclopaedia 5483
tinc@@ 5482
Execu@@ 5464
Oreg@@ 5462
pared 5456
ppi 5440
Munic@@ 5436
provin@@ 5416
tugu@@ 5300
193@@ 5264
omet@@ 5257
goti@@ 5198
paedia 5179
inju@@ 5172
episo@@ 5165
tims 5039
ilities 5012
194@@ 4957
Jap@@ 4923
portion@@ 4909
terran@@ 4860
primar@@ 4854
oundary 4835
adian 4800
grees 4734
Common@@ 4644
etings 4541
enzy@@ 4538
habitants 4437
thed@@ 4373
Span@@ 4329
essels 4325
inese 4307
daugh@@ 4237
russ@@ 4214
tima@@ 4202
great@@ 4126
zona 4122
pied 4079
zil 4002
gust 3969
signifi@@ 3938
own@@ 3930
occur@@ 3919
emor@@ 3889
quired 3887
Ano@@ 3856
phen 3799
allel 3798
Telev@@ 3779
gow 3773
erly 3764
Servic@@ 3589
illiam 3578
lege 3568
2011-11-@@ 3519
tems 3492
htt@@ 3491
islation 3478
antoni@@ 3405
incin@@ 3382
cyclopedia 3357
featu@@ 3177
orean 3138
seventi@@ 3130
figh@@ 3091
ondon 3086
ladel@@ 3079
vania 3075
illin@@ 3065
tario 3023
cisco 3022
ularly 3009
Ital@@ 2992
ially 2944
edin@@ 2907
ongside 2907
pread 2880
arib@@ 2822
gby 2809
fessor 2792
xt 2777
agricul@@ 2774
newspap@@ 2729
orea 2706
retur@@ 2683
vae 2654
eball 2602
Org@@ 2541
pean 2534
ults 2515
orado 2372
consecu@@ 2348
lahom@@ 2335
@ 2331
ylor 2315
wides@@ 2311
conom@@ 2218
alem 2207
Swis@@ 2194
ren's 2162
jacent 2110
Champion@@ 2080
tival 2059
demic 2058
chall@@ 2038
theus 1981
busin@@ 1968
ww@@ 1942
glas 1912
uly 1805
thern 1801
=@@ 1757
mely 1749
tober 1702
detro@@ 1665
Illin@@ 1572
dren 1569
tennes@@ 1541
Apri@@ 1467
ghani@@ 1467
accompani@@ 1446
toge@@ 1432
elop 1413
orgia 1397
nati 1373
timore 1347
hio 1329
lantic 1317
dely 1260
Statis@@ 1255
rael 1243
stopher 1202
estab@@ 1119
unday 1119
campa@@ 1019
~@@ 952
Edin@@ 949
ardian 929
grea@@ 928
anish 915
apore 868
sachu@@ 842
lahoma 811
relation@@ 788
pite 753
publican 706
ampion@@ 689
cetera 635
mosco@@ 617
erican 600
tenance 597
cantly 589
exico 583
acific 568
performan@@ 566
^ 560
controver@@ 558
www@@ 509
appear@@ 503
ducation 490
defea@@ 484
allery 479
zabeth 471
oogle 456
estern 448
earch 432
souri 412
setts 410
tween 392
passeng@@ 388
ompson 364
ansas 335
alifornia 331
CEL 330
seph 327
`@@ 326
ginia 322
stralian 317
ovember 303
subsequ@@ 299
illiams 295
brary 285
| 281
Detro@@ 278
stralia 273
atabase 246
bune 245
troduc@@ 235
tember 231
|@@ 212
ackson 211
unior 209
= 204
embly 199
attem@@ 190
viron@@ 184
ttish 181
therlands 175
ewish 171
,@@ 170
nesota 158
itage 145
IUC@@ 137
champi@@ 132
earli@@ 131
lorida 130
icago 126
becom@@ 123
cording 123
ensland 104
[ 99
ladelphia 94
] 89
wegian 88
oviet 86
hnson 85
preme 85
consin 84
ealand 83
incoln 83
onathan 81
zerland 76
ournal 62
exican 52
* 49
mittee 47
ecember 45
restling 45
illboard 42
{ 42
} 42
emetery 41
etteer 38
+ 34
sportation 32
owever 31
liament 24
entucky 21
+@@ 20
trieved 20
everth@@ 15
lippines 14
tuguese 14
ebruary 13
anuary 12
sachusetts 12
§ 7
( 6
^@@ 6
ispanic 6
reatened 6
) 4
\ 3
° 3
ī@@ 2
 1
§@@ 1
madeupword0000 0
madeupword0001 0
madeupword0002 0
madeupword0003 0
madeupword0004 0
